{
  "version": "1.0",
  "truncation": null,
  "padding": null,
  "added_tokens": [
    {
      "id": 0,
      "content": "[PAD]",
      "single_word": true,
      "lstrip": false,
      "rstrip": false,
      "normalized": false,
      "special": true
    },
    {
      "id": 1,
      "content": "[UNK]",
      "single_word": true,
      "lstrip": false,
      "rstrip": false,
      "normalized": false,
      "special": true
    },
    {
      "id": 2,
      "content": "[CLS]",
      "single_word": true,
      "lstrip": false,
      "rstrip": false,
      "normalized": false,
      "special": true
    },
    {
      "id": 3,
      "content": "[SEP]",
      "single_word": true,
      "lstrip": false,
      "rstrip": false,
      "normalized": false,
      "special": true
    },
    {
      "id": 4,
      "content": "[MASK]",
      "single_word": true,
      "lstrip": false,
      "rstrip": false,
      "normalized": false,
      "special": true
    },
    {
      "id": 5,
      "content": "[AMOUNT]",
      "single_word": true,
      "lstrip": false,
      "rstrip": false,
      "normalized": false,
      "special": true
    },
    {
      "id": 6,
      "content": "[ARAB]",
      "single_word": true,
      "lstrip": false,
      "rstrip": false,
      "normalized": false,
      "special": true
    },
    {
      "id": 7,
      "content": "[ARMN]",
      "single_word": true,
      "lstrip": false,
      "rstrip": false,
      "normalized": false,
      "special": true
    },
    {
      "id": 8,
      "content": "[BRAI]",
      "single_word": true,
      "lstrip": false,
      "rstrip": false,
      "normalized": false,
      "special": true
    },
    {
      "id": 9,
      "content": "[CURR]",
      "single_word": true,
      "lstrip": false,
      "rstrip": false,
      "normalized": false,
      "special": true
    },
    {
      "id": 10,
      "content": "[CYRL]",
      "single_word": true,
      "lstrip": false,
      "rstrip": false,
      "normalized": false,
      "special": true
    },
    {
      "id": 11,
      "content": "[DATE]",
      "single_word": true,
      "lstrip": false,
      "rstrip": false,
      "normalized": false,
      "special": true
    },
    {
      "id": 12,
      "content": "[EMAIL]",
      "single_word": true,
      "lstrip": false,
      "rstrip": false,
      "normalized": false,
      "special": true
    },
    {
      "id": 13,
      "content": "[FOREIGN]",
      "single_word": true,
      "lstrip": false,
      "rstrip": false,
      "normalized": false,
      "special": true
    },
    {
      "id": 14,
      "content": "[GEOR]",
      "single_word": true,
      "lstrip": false,
      "rstrip": false,
      "normalized": false,
      "special": true
    },
    {
      "id": 15,
      "content": "[GREK]",
      "single_word": true,
      "lstrip": false,
      "rstrip": false,
      "normalized": false,
      "special": true
    },
    {
      "id": 16,
      "content": "[HANG]",
      "single_word": true,
      "lstrip": false,
      "rstrip": false,
      "normalized": false,
      "special": true
    },
    {
      "id": 17,
      "content": "[HANI]",
      "single_word": true,
      "lstrip": false,
      "rstrip": false,
      "normalized": false,
      "special": true
    },
    {
      "id": 18,
      "content": "[HEBR]",
      "single_word": true,
      "lstrip": false,
      "rstrip": false,
      "normalized": false,
      "special": true
    },
    {
      "id": 19,
      "content": "[HIND]",
      "single_word": true,
      "lstrip": false,
      "rstrip": false,
      "normalized": false,
      "special": true
    },
    {
      "id": 20,
      "content": "[ISBN]",
      "single_word": true,
      "lstrip": false,
      "rstrip": false,
      "normalized": false,
      "special": true
    },
    {
      "id": 21,
      "content": "[JAPN]",
      "single_word": true,
      "lstrip": false,
      "rstrip": false,
      "normalized": false,
      "special": true
    },
    {
      "id": 22,
      "content": "[THAI]",
      "single_word": true,
      "lstrip": false,
      "rstrip": false,
      "normalized": false,
      "special": true
    },
    {
      "id": 23,
      "content": "[TIME]",
      "single_word": true,
      "lstrip": false,
      "rstrip": false,
      "normalized": false,
      "special": true
    },
    {
      "id": 24,
      "content": "[URL]",
      "single_word": true,
      "lstrip": false,
      "rstrip": false,
      "normalized": false,
      "special": true
    },
    {
      "id": 25,
      "content": "[YEAR]",
      "single_word": true,
      "lstrip": false,
      "rstrip": false,
      "normalized": false,
      "special": true
    }
  ],
  "normalizer": {
    "type": "BertNormalizer",
    "clean_text": false,
    "handle_chinese_chars": false,
    "strip_accents": false,
    "lowercase": false
  },
  "pre_tokenizer": {
    "type": "BertPuncPreTokenizer"
  },
  "post_processor": {
    "type": "BertProcessing",
    "sep": [
      "[SEP]",
      102
    ],
    "cls": [
      "[CLS]",
      101
    ]
  },
  "decoder": {
    "type": "WordPiece",
    "prefix": "##",
    "cleanup": false
  },
  "model": {
    "type": "WordPiece",
    "unk_token": "[UNK]",
    "continuing_subword_prefix": "##",
    "max_input_chars_per_word": 100,
    "vocab": {
      "[PAD]": 0,
      "[UNK]": 1,
      "[CLS]": 2,
      "[SEP]": 3,
      "[MASK]": 4,
      "[AMOUNT]": 5,
      "[ARAB]": 6,
      "[ARMN]": 7,
      "[BRAI]": 8,
      "[CURR]": 9,
      "[CYRL]": 10,
      "[DATE]": 11,
      "[EMAIL]": 12,
      "[FOREIGN]": 13,
      "[GEOR]": 14,
      "[GREK]": 15,
      "[HANG]": 16,
      "[HANI]": 17,
      "[HEBR]": 18,
      "[HIND]": 19,
      "[ISBN]": 20,
      "[JAPN]": 21,
      "[THAI]": 22,
      "[TIME]": 23,
      "[URL]": 24,
      "[YEAR]": 25,
      "!": 26,
      "\"": 27,
      "#": 28,
      "%": 29,
      "&": 30,
      "'": 31,
      "(": 32,
      ")": 33,
      "*": 34,
      "+": 35,
      ",": 36,
      "-": 37,
      ".": 38,
      "/": 39,
      "0": 40,
      "1": 41,
      "2": 42,
      "3": 43,
      "4": 44,
      "5": 45,
      "6": 46,
      "7": 47,
      "8": 48,
      "9": 49,
      ":": 50,
      ";": 51,
      "<": 52,
      "=": 53,
      ">": 54,
      "?": 55,
      "@": 56,
      "A": 57,
      "B": 58,
      "C": 59,
      "D": 60,
      "E": 61,
      "F": 62,
      "G": 63,
      "H": 64,
      "I": 65,
      "J": 66,
      "K": 67,
      "L": 68,
      "M": 69,
      "N": 70,
      "O": 71,
      "P": 72,
      "Q": 73,
      "R": 74,
      "S": 75,
      "T": 76,
      "U": 77,
      "V": 78,
      "W": 79,
      "X": 80,
      "Y": 81,
      "Z": 82,
      "[": 83,
      "\\": 84,
      "]": 85,
      "^": 86,
      "a": 87,
      "b": 88,
      "c": 89,
      "d": 90,
      "e": 91,
      "f": 92,
      "g": 93,
      "h": 94,
      "i": 95,
      "j": 96,
      "k": 97,
      "l": 98,
      "m": 99,
      "n": 100,
      "o": 101,
      "p": 102,
      "q": 103,
      "r": 104,
      "s": 105,
      "t": 106,
      "u": 107,
      "v": 108,
      "w": 109,
      "x": 110,
      "y": 111,
      "z": 112,
      "{": 113,
      "|": 114,
      "}": 115,
      "µ": 116,
      "¼": 117,
      "½": 118,
      "¾": 119,
      "À": 120,
      "Á": 121,
      "Â": 122,
      "Ä": 123,
      "Å": 124,
      "Æ": 125,
      "Ç": 126,
      "È": 127,
      "É": 128,
      "Ê": 129,
      "Ë": 130,
      "Ñ": 131,
      "Ó": 132,
      "Ö": 133,
      "Ø": 134,
      "Ú": 135,
      "Ü": 136,
      "ß": 137,
      "à": 138,
      "á": 139,
      "â": 140,
      "ã": 141,
      "ä": 142,
      "å": 143,
      "æ": 144,
      "ç": 145,
      "è": 146,
      "é": 147,
      "ê": 148,
      "ë": 149,
      "ì": 150,
      "í": 151,
      "î": 152,
      "ï": 153,
      "ñ": 154,
      "ò": 155,
      "ó": 156,
      "ô": 157,
      "ö": 158,
      "ø": 159,
      "ù": 160,
      "û": 161,
      "ü": 162,
      "ÿ": 163,
      "ă": 164,
      "ą": 165,
      "ć": 166,
      "Č": 167,
      "č": 168,
      "Đ": 169,
      "ē": 170,
      "ė": 171,
      "ę": 172,
      "ě": 173,
      "Ğ": 174,
      "ğ": 175,
      "İ": 176,
      "ı": 177,
      "Ł": 178,
      "ł": 179,
      "ń": 180,
      "ň": 181,
      "ō": 182,
      "ő": 183,
      "Œ": 184,
      "œ": 185,
      "ř": 186,
      "Ś": 187,
      "ś": 188,
      "Ş": 189,
      "ş": 190,
      "Š": 191,
      "š": 192,
      "ť": 193,
      "ū": 194,
      "ů": 195,
      "ų": 196,
      "ź": 197,
      "ż": 198,
      "Ž": 199,
      "ž": 200,
      "ƒ": 201,
      "ơ": 202,
      "ư": 203,
      "ǎ": 204,
      "ș": 205,
      "ț": 206,
      "ə": 207,
      "ᶄ": 208,
      "ḓ": 209,
      "ả": 210,
      "ậ": 211,
      "ế": 212,
      "ệ": 213,
      "ố": 214,
      "ộ": 215,
      "ớ": 216,
      "ờ": 217,
      "ụ": 218,
      "�": 219,
      "##a": 220,
      "##r": 221,
      "##ş": 222,
      "##ı": 223,
      "##l": 224,
      "##y": 225,
      "##m": 226,
      "##t": 227,
      "##ö": 228,
      "##e": 229,
      "##v": 230,
      "##i": 231,
      "##n": 232,
      "##p": 233,
      "##k": 234,
      "##o": 235,
      "##j": 236,
      "##d": 237,
      "##z": 238,
      "##û": 239,
      "##s": 240,
      "##'": 241,
      "##u": 242,
      "##ç": 243,
      "##c": 244,
      "##h": 245,
      "##ü": 246,
      "##.": 247,
      "##7": 248,
      "##x": 249,
      "##5": 250,
      "##8": 251,
      "##f": 252,
      "##b": 253,
      "##g": 254,
      "##w": 255,
      "##ğ": 256,
      "##P": 257,
      "##1": 258,
      "##0": 259,
      "##6": 260,
      "##9": 261,
      "##ą": 262,
      "##é": 263,
      "##4": 264,
      "##è": 265,
      "##î": 266,
      "##M": 267,
      "##B": 268,
      "##á": 269,
      "##3": 270,
      "##â": 271,
      "##C": 272,
      "##R": 273,
      "##İ": 274,
      "##S": 275,
      "##H": 276,
      "##A": 277,
      "##D": 278,
      "##2": 279,
      "##[": 280,
      "##Y": 281,
      "##E": 282,
      "##]": 283,
      "##I": 284,
      "##Z": 285,
      "##T": 286,
      "##O": 287,
      "##æ": 288,
      "##í": 289,
      "##X": 290,
      "##K": 291,
      "##q": 292,
      "##ă": 293,
      "##ê": 294,
      "##ä": 295,
      "##ñ": 296,
      "##Ş": 297,
      "##ᶄ": 298,
      "##,": 299,
      "##W": 300,
      "##N": 301,
      "##V": 302,
      "##ō": 303,
      "##G": 304,
      "##L": 305,
      "##F": 306,
      "##Ü": 307,
      "##U": 308,
      "##ə": 309,
      "##ė": 310,
      "##ß": 311,
      "##ù": 312,
      "##ó": 313,
      "##ë": 314,
      "##ő": 315,
      "##Q": 316,
      "##à": 317,
      "##ū": 318,
      "##č": 319,
      "##ć": 320,
      "##Ç": 321,
      "##ł": 322,
      "##J": 323,
      "##ž": 324,
      "##Ö": 325,
      "##ã": 326,
      "##ś": 327,
      "##å": 328,
      "##ǎ": 329,
      "##ē": 330,
      "##ě": 331,
      "##š": 332,
      "##ì": 333,
      "##Ğ": 334,
      "##(": 335,
      "##Ê": 336,
      "##ò": 337,
      "##É": 338,
      "##ų": 339,
      "##ø": 340,
      "##ô": 341,
      "##ę": 342,
      "##ń": 343,
      "##ï": 344,
      "##ź": 345,
      "##ș": 346,
      "##ř": 347,
      "##ť": 348,
      "##ż": 349,
      "##ÿ": 350,
      "##ň": 351,
      "##�": 352,
      "##ț": 353,
      "##½": 354,
      "##ả": 355,
      "##ḓ": 356,
      "##ớ": 357,
      "##+": 358,
      "##ů": 359,
      "##ơ": 360,
      "##ờ": 361,
      "##)": 362,
      "##ế": 363,
      "##/": 364,
      "##ụ": 365,
      "##-": 366,
      "##Ä": 367,
      "##ệ": 368,
      "##œ": 369,
      "##ư": 370,
      "##ộ": 371,
      "##Â": 372,
      "##^": 373,
      "##ố": 374,
      "##<": 375,
      "##Ú": 376,
      "##Š": 377,
      "##Á": 378,
      "##ậ": 379,
      "##=": 380,
      "##ar": 381,
      "##an": 382,
      "##er": 383,
      "##in": 384,
      "##ın": 385,
      "##ir": 386,
      "##en": 387,
      "##lar": 388,
      "##il": 389,
      "##ak": 390,
      "##de": 391,
      "##da": 392,
      "##le": 393,
      "ve": 394,
      "##al": 395,
      "##un": 396,
      "##ler": 397,
      "##on": 398,
      "##as": 399,
      "##ır": 400,
      "##la": 401,
      "##ek": 402,
      "##es": 403,
      "##li": 404,
      "bir": 405,
      "##ay": 406,
      "##lan": 407,
      "##at": 408,
      "##ur": 409,
      "##et": 410,
      "##şt": 411,
      "##is": 412,
      "##or": 413,
      "##am": 414,
      "##AR": 415,
      "##el": 416,
      "##YE": 417,
      "##AR]": 418,
      "##YEAR]": 419,
      "##dı": 420,
      "##lı": 421,
      "##iy": 422,
      "##ün": 423,
      "##ul": 424,
      "##ik": 425,
      "##aş": 426,
      "##ür": 427,
      "##dan": 428,
      "##em": 429,
      "##im": 430,
      "##ap": 431,
      "##di": 432,
      "ol": 433,
      "##ında": 434,
      "##inde": 435,
      "##it": 436,
      "##ah": 437,
      "##ıl": 438,
      "##az": 439,
      "##'n": 440,
      "##ya": 441,
      "##den": 442,
      "##ol": 443,
      "##ey": 444,
      "##ma": 445,
      "##du": 446,
      "##te": 447,
      "##mı": 448,
      "de": 449,
      "##dır": 450,
      "##ta": 451,
      "gö": 452,
      "##ra": 453,
      "##dir": 454,
      "##ine": 455,
      "##ların": 456,
      "##mi": 457,
      "##iz": 458,
      "##ası": 459,
      "##st": 460,
      "##ları": 461,
      "##ık": 462,
      "##ük": 463,
      "##ğı": 464,
      "al": 465,
      "##ini": 466,
      "tar": 467,
      "##larak": 468,
      "iç": 469,
      "##üm": 470,
      "##ab": 471,
      "##ti": 472,
      "##esi": 473,
      "##ok": 474,
      "son": 475,
      "##leri": 476,
      "##ki": 477,
      "yap": 478,
      "olarak": 479,
      "ile": 480,
      "##us": 481,
      "baş": 482,
      "##um": 483,
      "##ği": 484,
      "##ce": 485,
      "##ış": 486,
      "##ez": 487,
      "bu": 488,
      "##av": 489,
      "##ından": 490,
      "##ev": 491,
      "##inin": 492,
      "##af": 493,
      "##mak": 494,
      "##ştir": 495,
      "##ştır": 496,
      "##lik": 497,
      "##ıs": 498,
      "##üz": 499,
      "##om": 500,
      "ar": 501,
      "##ci": 502,
      "da": 503,
      "##ad": 504,
      "kar": 505,
      "##iler": 506,
      "##ım": 507,
      "##ön": 508,
      "##ağ": 509,
      "##ını": 510,
      "##AT": 511,
      "##lk": 512,
      "##E]": 513,
      "##DAT": 514,
      "##DATE]": 515,
      "gör": 516,
      "olan": 517,
      "##ut": 518,
      "##ca": 519,
      "için": 520,
      "an": 521,
      "et": 522,
      "##oğ": 523,
      "##ilm": 524,
      "##eç": 525,
      "##os": 526,
      "##ül": 527,
      "##man": 528,
      "##tı": 529,
      "##ist": 530,
      "oldu": 531,
      "##'da": 532,
      "##'de": 533,
      "##ına": 534,
      "##op": 535,
      "##aki": 536,
      "##ru": 537,
      "##mıştır": 538,
      "Bu": 539,
      "is": 540,
      "##lu": 541,
      "yer": 542,
      "##aya": 543,
      "##ark": 544,
      "bul": 545,
      "##me": 546,
      "ay": 547,
      "##len": 548,
      "taraf": 549,
      "##iş": 550,
      "##ro": 551,
      "ver": 552,
      "##lık": 553,
      "##asında": 554,
      "##ih": 555,
      "en": 556,
      "ön": 557,
      "oy": 558,
      "##cı": 559,
      "##mek": 560,
      "##uş": 561,
      "##ib": 562,
      "##ran": 563,
      "sonra": 564,
      "tarafından": 565,
      "##zer": 566,
      "##miştir": 567,
      "##eş": 568,
      "##cu": 569,
      "##ız": 570,
      "bulun": 571,
      "ed": 572,
      "##inci": 573,
      "##ör": 574,
      "##üy": 575,
      "Al": 576,
      "##isi": 577,
      "##eri": 578,
      "##aç": 579,
      "##ğu": 580,
      "##ürk": 581,
      "##ması": 582,
      "##yon": 583,
      "##öl": 584,
      "##yla": 585,
      "kur": 586,
      "##ının": 587,
      "##eh": 588,
      "ilk": 589,
      "kul": 590,
      "##iye": 591,
      "or": 592,
      "##cak": 593,
      "##aha": 594,
      "##daki": 595,
      "##alı": 596,
      "##'in": 597,
      "##ip": 598,
      "An": 599,
      "##lerin": 600,
      "##ic": 601,
      "Türk": 602,
      "##ed": 603,
      "##unda": 604,
      "##tadır": 605,
      "ken": 606,
      "in": 607,
      "##eni": 608,
      "##lay": 609,
      "tarih": 610,
      "##tan": 611,
      "çık": 612,
      "##uşt": 613,
      "##eb": 614,
      "##'nin": 615,
      "##ıldı": 616,
      "kad": 617,
      "##üş": 618,
      "sür": 619,
      "##'nın": 620,
      "##ada": 621,
      "##ayı": 622,
      "##şı": 623,
      "kon": 624,
      "##unu": 625,
      "##ers": 626,
      "##anı": 627,
      "##mış": 628,
      "##ov": 629,
      "Bir": 630,
      "##eli": 631,
      "geç": 632,
      "##uz": 633,
      "kullan": 634,
      "##ilen": 635,
      "##maktadır": 636,
      "gel": 637,
      "##arı": 638,
      "bil": 639,
      "##'ın": 640,
      "üzer": 641,
      "##re": 642,
      "ad": 643,
      "##uştur": 644,
      "ise": 645,
      "##ibi": 646,
      "daha": 647,
      "##ken": 648,
      "##üyük": 649,
      "##laş": 650,
      "çok": 651,
      "tak": 652,
      "##ig": 653,
      "##iyle": 654,
      "##miş": 655,
      "dön": 656,
      "##ec": 657,
      "böl": 658,
      "yön": 659,
      "yaz": 660,
      "##ot": 661,
      "##ilir": 662,
      "##men": 663,
      "##tedir": 664,
      "on": 665,
      "##iv": 666,
      "##let": 667,
      "##oy": 668,
      "yaş": 669,
      "##ter": 670,
      "yar": 671,
      "kal": 672,
      "tek": 673,
      "##uk": 674,
      "##erek": 675,
      "yay": 676,
      "##mas": 677,
      "##ğer": 678,
      "##aman": 679,
      "##ildi": 680,
      "##dığı": 681,
      "gibi": 682,
      "gün": 683,
      "##id": 684,
      "yıl": 685,
      "##öy": 686,
      "##ılan": 687,
      "gen": 688,
      "top": 689,
      "aç": 690,
      "##ster": 691,
      "##he": 692,
      "##art": 693,
      "sah": 694,
      "##ili": 695,
      "çal": 696,
      "##eler": 697,
      "es": 698,
      "##inden": 699,
      "büyük": 700,
      "##eye": 701,
      "kat": 702,
      "karşı": 703,
      "##unun": 704,
      "##rı": 705,
      "##ısı": 706,
      "iş": 707,
      "doğ": 708,
      "##üt": 709,
      "##ele": 710,
      "arasında": 711,
      "##ara": 712,
      "##ch": 713,
      "##lü": 714,
      "kadar": 715,
      "##lam": 716,
      "dev": 717,
      "##ade": 718,
      "sır": 719,
      "##up": 720,
      "##avaş": 721,
      "film": 722,
      "##larda": 723,
      "##ans": 724,
      "##esinde": 725,
      "##rup": 726,
      "yak": 727,
      "##larında": 728,
      "##büm": 729,
      "Ar": 730,
      "##cü": 731,
      "as": 732,
      "##ede": 733,
      "##leş": 734,
      "##if": 735,
      "öz": 736,
      "zaman": 737,
      "##ladı": 738,
      "##si": 739,
      "iki": 740,
      "##ret": 741,
      "olm": 742,
      "çalış": 743,
      "##ing": 744,
      "##sa": 745,
      "##ri": 746,
      "##por": 747,
      "##sel": 748,
      "##dür": 749,
      "uz": 750,
      "##iyet": 751,
      "##ye": 752,
      "göster": 753,
      "var": 754,
      "[YEAR]'": 755,
      "il": 756,
      "kay": 757,
      "alan": 758,
      "##ren": 759,
      "İs": 760,
      "##lığı": 761,
      "##larını": 762,
      "maç": 763,
      "birlik": 764,
      "İn": 765,
      "Am": 766,
      "##arkı": 767,
      "##iyon": 768,
      "##ep": 769,
      "öl": 770,
      "##arak": 771,
      "##dü": 772,
      "##lara": 773,
      "kaz": 774,
      "##est": 775,
      "Ay": 776,
      "##mektedir": 777,
      "oyun": 778,
      "##ezon": 779,
      "gir": 780,
      "pro": 781,
      "ik": 782,
      "##erk": 783,
      "##'a": 784,
      "Av": 785,
      "ak": 786,
      "Alman": 787,
      "takım": 788,
      "hal": 789,
      "ne": 790,
      "uy": 791,
      "##ac": 792,
      "##gil": 793,
      "##uv": 794,
      "##una": 795,
      "##tir": 796,
      "yük": 797,
      "oyn": 798,
      "##üç": 799,
      "albüm": 800,
      "##nı": 801,
      "##ale": 802,
      "##ayan": 803,
      "bel": 804,
      "yeni": 805,
      "par": 806,
      "Fran": 807,
      "ev": 808,
      "##yi": 809,
      "##ika": 810,
      "sezon": 811,
      "Or": 812,
      "görev": 813,
      "##tal": 814,
      "##od": 815,
      "olduğu": 816,
      "yüz": 817,
      "##iç": 818,
      "##tır": 819,
      "##lerini": 820,
      "##maya": 821,
      "##uy": 822,
      "##diği": 823,
      "düş": 824,
      "ger": 825,
      "##lığ": 826,
      "bölg": 827,
      "tarihinde": 828,
      "##'un": 829,
      "##öz": 830,
      "sağ": 831,
      "##ten": 832,
      "##dur": 833,
      "##amp": 834,
      "yönet": 835,
      "##iğer": 836,
      "veya": 837,
      "##ne": 838,
      "Türkiye": 839,
      "##ğini": 840,
      "##tr": 841,
      "çek": 842,
      "##lerinde": 843,
      "alt": 844,
      "kazan": 845,
      "##gu": 846,
      "##ünya": 847,
      "tan": 848,
      "##liği": 849,
      "bağ": 850,
      "##imi": 851,
      "dönem": 852,
      "Er": 853,
      "şek": 854,
      "##gi": 855,
      "yan": 856,
      "##larının": 857,
      "##bol": 858,
      "##atı": 859,
      "##ral": 860,
      "kap": 861,
      "ara": 862,
      "##ştı": 863,
      "adı": 864,
      "##üs": 865,
      "##asyon": 866,
      "düz": 867,
      "##ilmiştir": 868,
      "seç": 869,
      "##ağı": 870,
      "kend": 871,
      "den": 872,
      "##ünde": 873,
      "##üncü": 874,
      "##larına": 875,
      "dur": 876,
      "göre": 877,
      "özel": 878,
      "##sız": 879,
      "##niv": 880,
      "##oz": 881,
      "##nivers": 882,
      "yaptı": 883,
      "##rıca": 884,
      "##ram": 885,
      "##san": 886,
      "deği": 887,
      "ele": 888,
      "şeh": 889,
      "##ındaki": 890,
      "##lem": 891,
      "##ley": 892,
      "birlikte": 893,
      "##ça": 894,
      "##lerde": 895,
      "##han": 896,
      "##'nde": 897,
      "##yan": 898,
      "at": 899,
      "##niversit": 900,
      "üç": 901,
      "mil": 902,
      "kıs": 903,
      "##lama": 904,
      "etti": 905,
      "adlı": 906,
      "##'e": 907,
      "##ob": 908,
      "##esine": 909,
      "el": 910,
      "kiş": 911,
      "ülk": 912,
      "her": 913,
      "İngil": 914,
      "hay": 915,
      "##ef": 916,
      "##istan": 917,
      "##'ya": 918,
      "##AM": 919,
      "##çek": 920,
      "har": 921,
      "Amer": 922,
      "san": 923,
      "##der": 924,
      "diğer": 925,
      "tam": 926,
      "müz": 927,
      "##lerinin": 928,
      "yayın": 929,
      "##ka": 930,
      "##oli": 931,
      "##dül": 932,
      "ser": 933,
      "##NT": 934,
      "önem": 935,
      "##azı": 936,
      "##mp": 937,
      "der": 938,
      "şarkı": 939,
      "Ch": 940,
      "##OU": 941,
      "sahip": 942,
      "##AMOU": 943,
      "##NT]": 944,
      "##AMOUNT]": 945,
      "bulunan": 946,
      "ek": 947,
      "öğ": 948,
      "##ordu": 949,
      "tür": 950,
      "ada": 951,
      "##ünü": 952,
      "kurul": 953,
      "ama": 954,
      "##usu": 955,
      "##ğunu": 956,
      "##ub": 957,
      "##rub": 958,
      "kom": 959,
      "ya": 960,
      "##olo": 961,
      "ist": 962,
      "neden": 963,
      "##erkez": 964,
      "Gen": 965,
      "##kan": 966,
      "aynı": 967,
      "##ılır": 968,
      "etk": 969,
      "En": 970,
      "yol": 971,
      "##uh": 972,
      "##üp": 973,
      "aldı": 974,
      "sonu": 975,
      "##enin": 976,
      "##likle": 977,
      "##stan": 978,
      "oluş": 979,
      "ort": 980,
      "say": 981,
      "On": 982,
      "hak": 983,
      "##tik": 984,
      "geli": 985,
      "boy": 986,
      "##sek": 987,
      "önce": 988,
      "içinde": 989,
      "[YEAR]'de": 990,
      "##ag": 991,
      "##eti": 992,
      "##lerinden": 993,
      "##eyi": 994,
      "kö": 995,
      "tem": 996,
      "belir": 997,
      "hem": 998,
      "##lardan": 999,
      "##mesi": 1000,
      "##'nun": 1001,
      "##se": 1002,
      "##00": 1003,
      "gerçek": 1004,
      "kab": 1005,
      "##larından": 1006,
      "yapı": 1007,
      "##ece": 1008,
      "AB": 1009,
      "bas": 1010,
      "fark": 1011,
      "gelen": 1012,
      "##ard": 1013,
      "##çe": 1014,
      "##iyat": 1015,
      "res": 1016,
      "The": 1017,
      "##ılmıştır": 1018,
      "##lus": 1019,
      "taş": 1020,
      "##lerine": 1021,
      "önemli": 1022,
      "##ide": 1023,
      "##lere": 1024,
      "##uzey": 1025,
      "##ileri": 1026,
      "for": 1027,
      "açık": 1028,
      "Dünya": 1029,
      "##luk": 1030,
      "##'nda": 1031,
      "savaş": 1032,
      "başladı": 1033,
      "##yı": 1034,
      "##arat": 1035,
      "##tar": 1036,
      "düzen": 1037,
      "İk": 1038,
      "##hur": 1039,
      "Mar": 1040,
      "şekil": 1041,
      "##lanan": 1042,
      "Avrup": 1043,
      "er": 1044,
      "Kar": 1045,
      "##çok": 1046,
      "##emi": 1047,
      "Kon": 1048,
      "##lab": 1049,
      "##raf": 1050,
      "eğ": 1051,
      "genel": 1052,
      "##esini": 1053,
      "##'te": 1054,
      "##akat": 1055,
      "##ıldız": 1056,
      "##adı": 1057,
      "##utbol": 1058,
      "do": 1059,
      "##oğu": 1060,
      "##ge": 1061,
      "Üniversit": 1062,
      "##ilmek": 1063,
      "##ampiyon": 1064,
      "ABD": 1065,
      "kez": 1066,
      "biri": 1067,
      "ko": 1068,
      "üst": 1069,
      "bilin": 1070,
      "mü": 1071,
      "##tü": 1072,
      "##met": 1073,
      "##ulu": 1074,
      "tüm": 1075,
      "söz": 1076,
      "##ecek": 1077,
      "Avrupa": 1078,
      "yapılan": 1079,
      "get": 1080,
      "ör": 1081,
      "##bir": 1082,
      "Ro": 1083,
      "##ck": 1084,
      "Baş": 1085,
      "ok": 1086,
      "bölüm": 1087,
      "##öyle": 1088,
      "değiş": 1089,
      "gerek": 1090,
      "##van": 1091,
      "##liğ": 1092,
      "durum": 1093,
      "getir": 1094,
      "Dev": 1095,
      "içer": 1096,
      "##rak": 1097,
      "üzerinde": 1098,
      "Savaş": 1099,
      "ask": 1100,
      "Rus": 1101,
      "Gün": 1102,
      "sal": 1103,
      "##tör": 1104,
      "##ich": 1105,
      "su": 1106,
      "##esinin": 1107,
      "##eg": 1108,
      "##ılı": 1109,
      "[DATE]'de": 1110,
      "eş": 1111,
      "vardır": 1112,
      "dış": 1113,
      "##ocu": 1114,
      "diz": 1115,
      "##iyas": 1116,
      "devam": 1117,
      "sist": 1118,
      "##muştur": 1119,
      "##leştir": 1120,
      "##ent": 1121,
      "##lat": 1122,
      "olduğunu": 1123,
      "kan": 1124,
      "oluştur": 1125,
      "aş": 1126,
      "##ilik": 1127,
      "##landı": 1128,
      "yüksek": 1129,
      "##bul": 1130,
      "##lendir": 1131,
      "birçok": 1132,
      "##yet": 1133,
      "##ia": 1134,
      "olmuştur": 1135,
      "tamam": 1136,
      "##ast": 1137,
      "##oloj": 1138,
      "merkez": 1139,
      "Ayrıca": 1140,
      "sat": 1141,
      "ağ": 1142,
      "##vet": 1143,
      "##meye": 1144,
      "##umhur": 1145,
      "##aber": 1146,
      "az": 1147,
      "##üşt": 1148,
      "##'dan": 1149,
      "##ow": 1150,
      "##stanbul": 1151,
      "üzerine": 1152,
      "ikinci": 1153,
      "İkinci": 1154,
      "iyi": 1155,
      "##isinde": 1156,
      "##kada": 1157,
      "##arator": 1158,
      "İstanbul": 1159,
      "##og": 1160,
      "##mparator": 1161,
      "alın": 1162,
      "##tür": 1163,
      "eski": 1164,
      "sen": 1165,
      "##üçük": 1166,
      "##landır": 1167,
      "Par": 1168,
      "kor": 1169,
      "Os": 1170,
      "##masına": 1171,
      "isim": 1172,
      "##inal": 1173,
      "##üne": 1174,
      "şekilde": 1175,
      "##su": 1176,
      "##cek": 1177,
      "##ilmiş": 1178,
      "insan": 1179,
      "grub": 1180,
      "##ama": 1181,
      "farklı": 1182,
      "İngiliz": 1183,
      "##duğu": 1184,
      "çev": 1185,
      "tur": 1186,
      "Yah": 1187,
      "kit": 1188,
      "üret": 1189,
      "##ud": 1190,
      "##'ye": 1191,
      "tut": 1192,
      "Ak": 1193,
      "bazı": 1194,
      "göz": 1195,
      "Üniversitesi": 1196,
      "kendi": 1197,
      "grup": 1198,
      "üzere": 1199,
      "As": 1200,
      "##'daki": 1201,
      "bit": 1202,
      "##alan": 1203,
      "##şti": 1204,
      "met": 1205,
      "Amerik": 1206,
      "Birinci": 1207,
      "San": 1208,
      "öğren": 1209,
      "Le": 1210,
      "sin": 1211,
      "of": 1212,
      "##ava": 1213,
      "ayr": 1214,
      "Ancak": 1215,
      "##layan": 1216,
      "çıkar": 1217,
      "##çı": 1218,
      "futbol": 1219,
      "yet": 1220,
      "##masını": 1221,
      "##ılmış": 1222,
      "##edi": 1223,
      "##ket": 1224,
      "##'i": 1225,
      "olmak": 1226,
      "bağlı": 1227,
      "faz": 1228,
      "##olu": 1229,
      "##spor": 1230,
      "dil": 1231,
      "rol": 1232,
      "##dar": 1233,
      "##na": 1234,
      "sayı": 1235,
      "##kı": 1236,
      "değ": 1237,
      "Cumhur": 1238,
      "##layı": 1239,
      "yakın": 1240,
      "##eşit": 1241,
      "##siyon": 1242,
      "##üf": 1243,
      "ilg": 1244,
      "uzun": 1245,
      "##tur": 1246,
      "##ina": 1247,
      "ancak": 1248,
      "##adece": 1249,
      "##ust": 1250,
      "##per": 1251,
      "kabul": 1252,
      "##yo": 1253,
      "Ne": 1254,
      "müzik": 1255,
      "ben": 1256,
      "çalışma": 1257,
      "sor": 1258,
      "##ber": 1259,
      "##rar": 1260,
      "iz": 1261,
      "##dından": 1262,
      "eğit": 1263,
      "##larla": 1264,
      "bak": 1265,
      "St": 1266,
      "sanat": 1267,
      "başla": 1268,
      "##ımı": 1269,
      "im": 1270,
      "oyuncu": 1271,
      "geçir": 1272,
      "##undan": 1273,
      "##çi": 1274,
      "##uvvet": 1275,
      "##lek": 1276,
      "##dım": 1277,
      "güç": 1278,
      "##amı": 1279,
      "çocu": 1280,
      "harek": 1281,
      "Kral": 1282,
      "Son": 1283,
      "##asar": 1284,
      "##ğü": 1285,
      "##yal": 1286,
      "ordu": 1287,
      "\"'": 1288,
      "##üb": 1289,
      "Br": 1290,
      "##oman": 1291,
      "geri": 1292,
      "kız": 1293,
      "sonr": 1294,
      "##dik": 1295,
      "##aat": 1296,
      "##lak": 1297,
      "[YEAR]'te": 1298,
      "İtal": 1299,
      "Kur": 1300,
      "haz": 1301,
      "Bur": 1302,
      "Lig": 1303,
      "çeşit": 1304,
      "küçük": 1305,
      "zor": 1306,
      "eser": 1307,
      "##ion": 1308,
      "yaklaş": 1309,
      "fazla": 1310,
      "##muş": 1311,
      "##lardır": 1312,
      "##ğını": 1313,
      "Ordu": 1314,
      "##gan": 1315,
      "##'den": 1316,
      "##ort": 1317,
      "##ilerin": 1318,
      "##unca": 1319,
      "hat": 1320,
      "##lerden": 1321,
      "##lo": 1322,
      "doğru": 1323,
      "##'ta": 1324,
      "gol": 1325,
      "##det": 1326,
      "##sı": 1327,
      "yıldız": 1328,
      "sadece": 1329,
      "##tib": 1330,
      "##elen": 1331,
      "ter": 1332,
      "ödül": 1333,
      "##fer": 1334,
      "##RL": 1335,
      "eder": 1336,
      "Kan": 1337,
      "Mil": 1338,
      "##eral": 1339,
      "başarı": 1340,
      "süre": 1341,
      "##alık": 1342,
      "##şk": 1343,
      "İlk": 1344,
      "##üc": 1345,
      "##luğu": 1346,
      "git": 1347,
      "mo": 1348,
      "sistem": 1349,
      "##fa": 1350,
      "hayat": 1351,
      "##ern": 1352,
      "##leme": 1353,
      "Almanya": 1354,
      "##ehir": 1355,
      "##lin": 1356,
      "##ton": 1357,
      "kayn": 1358,
      "##RL]": 1359,
      "10": 1360,
      "bulunmaktadır": 1361,
      "onun": 1362,
      "başar": 1363,
      "karar": 1364,
      "sev": 1365,
      "sırasında": 1366,
      "##br": 1367,
      "Üç": 1368,
      "##arası": 1369,
      "eden": 1370,
      "fil": 1371,
      "Osman": 1372,
      "##ısında": 1373,
      "##ünün": 1374,
      "yayım": 1375,
      "olup": 1376,
      "##ant": 1377,
      "##ınır": 1378,
      "Cumhuriyet": 1379,
      "lis": 1380,
      "Sov": 1381,
      "dör": 1382,
      "##siz": 1383,
      "görül": 1384,
      "##kları": 1385,
      "ardından": 1386,
      "##yıl": 1387,
      "şehir": 1388,
      "##ser": 1389,
      "Bil": 1390,
      "##oh": 1391,
      "[DATE]'da": 1392,
      "##aret": 1393,
      "Beş": 1394,
      "hazır": 1395,
      "Har": 1396,
      "giy": 1397,
      "##pan": 1398,
      "##ırak": 1399,
      "Savaşı": 1400,
      "##ilmektedir": 1401,
      "kent": 1402,
      "##ros": 1403,
      "yarış": 1404,
      "uygu": 1405,
      "olma": 1406,
      "##lük": 1407,
      "##'ne": 1408,
      "hük": 1409,
      "##for": 1410,
      "##lacak": 1411,
      "Han": 1412,
      "Hal": 1413,
      "ses": 1414,
      "Sovyet": 1415,
      "itib": 1416,
      "##indeki": 1417,
      "##ünden": 1418,
      "##üştür": 1419,
      "yen": 1420,
      "##oğun": 1421,
      "Öz": 1422,
      "kısa": 1423,
      "##gram": 1424,
      "##son": 1425,
      "düşün": 1426,
      "bırak": 1427,
      "görün": 1428,
      "##bi": 1429,
      "ili": 1430,
      "num": 1431,
      "yaşam": 1432,
      "##tor": 1433,
      "duy": 1434,
      "Alt": 1435,
      "##deki": 1436,
      "lig": 1437,
      "##asına": 1438,
      "##ğin": 1439,
      "gaz": 1440,
      "##lerle": 1441,
      "poli": 1442,
      "bur": 1443,
      "Film": 1444,
      "##ou": 1445,
      "yüzyıl": 1446,
      "boyunca": 1447,
      "##mayı": 1448,
      "saldır": 1449,
      "değer": 1450,
      "tekn": 1451,
      "dir": 1452,
      "art": 1453,
      "##las": 1454,
      "##les": 1455,
      "##ali": 1456,
      "kes": 1457,
      "##ıp": 1458,
      "[C": 1459,
      "rağ": 1460,
      "##üv": 1461,
      "üy": 1462,
      "Sh": 1463,
      "[YEAR]'da": 1464,
      "çeşitli": 1465,
      "haf": 1466,
      "##gün": 1467,
      "##ht": 1468,
      "tah": 1469,
      "##ilmesi": 1470,
      "Fransız": 1471,
      "##sal": 1472,
      "yok": 1473,
      "rağmen": 1474,
      "ber": 1475,
      "kı": 1476,
      "yaptığı": 1477,
      "Fransa": 1478,
      "Kom": 1479,
      "##asındaki": 1480,
      "zamanda": 1481,
      "tekrar": 1482,
      "##min": 1483,
      "tab": 1484,
      "##asının": 1485,
      "asker": 1486,
      "ail": 1487,
      "##'ı": 1488,
      "El": 1489,
      "gön": 1490,
      "kendis": 1491,
      "yardım": 1492,
      "uzak": 1493,
      "##kanı": 1494,
      "Ab": 1495,
      "##YRL]": 1496,
      "ün": 1497,
      "##anın": 1498,
      "##landa": 1499,
      "sı": 1500,
      "##ly": 1501,
      "ortaya": 1502,
      "İmparator": 1503,
      "In": 1504,
      "olur": 1505,
      "##lanmıştır": 1506,
      "Man": 1507,
      "##atik": 1508,
      "##'na": 1509,
      "Gal": 1510,
      "un": 1511,
      "##ılması": 1512,
      "Osmanlı": 1513,
      "kuru": 1514,
      "##a'nın": 1515,
      "##udi": 1516,
      "##deş": 1517,
      "##kü": 1518,
      "yaklaşık": 1519,
      "##end": 1520,
      "sık": 1521,
      "##lararası": 1522,
      "Daha": 1523,
      "##inc": 1524,
      "##ütün": 1525,
      "öldür": 1526,
      "eğitim": 1527,
      "Ber": 1528,
      "##gı": 1529,
      "hiç": 1530,
      "##to": 1531,
      "##lenen": 1532,
      "karak": 1533,
      "program": 1534,
      "list": 1535,
      "sav": 1536,
      "söy": 1537,
      "##tiv": 1538,
      "has": 1539,
      "altında": 1540,
      "Her": 1541,
      "Ödül": 1542,
      "##sil": 1543,
      "taşı": 1544,
      "##üdür": 1545,
      "bin": 1546,
      "seb": 1547,
      "kişi": 1548,
      "Pro": 1549,
      "##yor": 1550,
      "##onya": 1551,
      "Böl": 1552,
      "milyon": 1553,
      "bilg": 1554,
      "Th": 1555,
      "##uncu": 1556,
      "##esiyle": 1557,
      "şampiyon": 1558,
      "bab": 1559,
      "##unan": 1560,
      "##tere": 1561,
      "ait": 1562,
      "##acak": 1563,
      "olması": 1564,
      "Kuzey": 1565,
      "nüf": 1566,
      "te": 1567,
      "##ekiz": 1568,
      "##rans": 1569,
      "edildi": 1570,
      "[DATE]'te": 1571,
      "Af": 1572,
      "Üçüncü": 1573,
      "kayb": 1574,
      "beraber": 1575,
      "hareket": 1576,
      "sınır": 1577,
      "Bey": 1578,
      "değil": 1579,
      "yerine": 1580,
      "##ebilir": 1581,
      "ede": 1582,
      "kuvvet": 1583,
      "mah": 1584,
      "##ince": 1585,
      "##müştür": 1586,
      "##tif": 1587,
      "hüküm": 1588,
      "anlam": 1589,
      "yeniden": 1590,
      "##oş": 1591,
      "sonunda": 1592,
      "devlet": 1593,
      "ulus": 1594,
      "the": 1595,
      "geliştir": 1596,
      "##este": 1597,
      "##tern": 1598,
      "güney": 1599,
      "kuzey": 1600,
      "can": 1601,
      "Bel": 1602,
      "##labilir": 1603,
      "##urg": 1604,
      "##eyen": 1605,
      "geniş": 1606,
      "##estek": 1607,
      "yüksel": 1608,
      "orta": 1609,
      "##ümüz": 1610,
      "tele": 1611,
      "yapım": 1612,
      "tes": 1613,
      "##fes": 1614,
      "##ang": 1615,
      "ayrıca": 1616,
      "dik": 1617,
      "##mıştı": 1618,
      "çıkan": 1619,
      "Kup": 1620,
      "##of": 1621,
      "Amerika": 1622,
      "ilgili": 1623,
      "hakk": 1624,
      "kadın": 1625,
      "##ştırma": 1626,
      "##eleri": 1627,
      "##enk": 1628,
      "Avust": 1629,
      "şehr": 1630,
      "oğ": 1631,
      "şir": 1632,
      "##gin": 1633,
      "almıştır": 1634,
      "Devlet": 1635,
      "İngiltere": 1636,
      "sıra": 1637,
      "geliş": 1638,
      "##tiği": 1639,
      "Birleş": 1640,
      "muh": 1641,
      "##üny": 1642,
      "##ift": 1643,
      "[AR": 1644,
      "New": 1645,
      "##kaç": 1646,
      "gönder": 1647,
      "At": 1648,
      "uç": 1649,
      "destek": 1650,
      "##düncü": 1651,
      "##iyor": 1652,
      "İspan": 1653,
      "kaç": 1654,
      "##ova": 1655,
      "Güney": 1656,
      "plan": 1657,
      "çalı": 1658,
      "##ry": 1659,
      "konu": 1660,
      "hız": 1661,
      "##lığını": 1662,
      "ulaş": 1663,
      "nedeniyle": 1664,
      "##esinden": 1665,
      "Büyük": 1666,
      "çıktı": 1667,
      "##orm": 1668,
      "anla": 1669,
      "elde": 1670,
      "km": 1671,
      "mak": 1672,
      "mev": 1673,
      "dah": 1674,
      "başka": 1675,
      "##osyal": 1676,
      "Ma": 1677,
      "##lî": 1678,
      "per": 1679,
      "sezonunda": 1680,
      "siyas": 1681,
      "dal": 1682,
      "##mir": 1683,
      "yazar": 1684,
      "şark": 1685,
      "##pe": 1686,
      "köy": 1687,
      "##ilah": 1688,
      "dok": 1689,
      "genç": 1690,
      "##ültür": 1691,
      "toplam": 1692,
      "##usunda": 1693,
      "dünya": 1694,
      "Bar": 1695,
      "##cusu": 1696,
      "trans": 1697,
      "Oy": 1698,
      "##izyon": 1699,
      "Es": 1700,
      "##ore": 1701,
      "parç": 1702,
      "Doğu": 1703,
      "Part": 1704,
      "##ktan": 1705,
      "##anan": 1706,
      "Car": 1707,
      "Den": 1708,
      "##ug": 1709,
      "hiz": 1710,
      "Ank": 1711,
      "Bak": 1712,
      "##ver": 1713,
      "##land": 1714,
      "##ime": 1715,
      "filmi": 1716,
      "sar": 1717,
      "##ond": 1718,
      "Roma": 1719,
      "bağı": 1720,
      "kr": 1721,
      "##eden": 1722,
      "##sam": 1723,
      "##isinin": 1724,
      "##ılmaktadır": 1725,
      "Hol": 1726,
      "##ider": 1727,
      "##ana": 1728,
      "Amerikalı": 1729,
      "kır": 1730,
      "##ınıf": 1731,
      "ilişk": 1732,
      "mez": 1733,
      "Kupası": 1734,
      "olay": 1735,
      "Kı": 1736,
      "sinem": 1737,
      "##ya'da": 1738,
      "konuş": 1739,
      "sırada": 1740,
      "##emek": 1741,
      "##bo": 1742,
      "arkada": 1743,
      "geldi": 1744,
      "topl": 1745,
      "kaynak": 1746,
      "sun": 1747,
      "Şampiyon": 1748,
      "ölüm": 1749,
      "##yordu": 1750,
      "##asını": 1751,
      "ot": 1752,
      "oluşan": 1753,
      "##larıyla": 1754,
      "Pr": 1755,
      "alır": 1756,
      "Wil": 1757,
      "kazandı": 1758,
      "##mam": 1759,
      "bulunur": 1760,
      "##ideo": 1761,
      "##pr": 1762,
      "##lerdir": 1763,
      "kuş": 1764,
      "##fi": 1765,
      "##can": 1766,
      "seçim": 1767,
      "Ankara": 1768,
      "giriş": 1769,
      "##gar": 1770,
      "##ışma": 1771,
      "dört": 1772,
      "##eki": 1773,
      "12": 1774,
      "tanım": 1775,
      "Cumhuriyeti": 1776,
      "tekli": 1777,
      "Ulus": 1778,
      "onu": 1779,
      "##kek": 1780,
      "##ork": 1781,
      "Şarkı": 1782,
      "çevr": 1783,
      "Yar": 1784,
      "bey": 1785,
      "##nek": 1786,
      "Genel": 1787,
      "gelir": 1788,
      "birkaç": 1789,
      "imz": 1790,
      "##ha": 1791,
      "##ga": 1792,
      "çocuk": 1793,
      "##aren": 1794,
      "halk": 1795,
      "edilen": 1796,
      "gazet": 1797,
      "Ek": 1798,
      "final": 1799,
      "Ada": 1800,
      "##leti": 1801,
      "adıyla": 1802,
      "değiştir": 1803,
      "Altın": 1804,
      "Yunan": 1805,
      "fakat": 1806,
      "yapan": 1807,
      "Yahud": 1808,
      "##dy": 1809,
      "özellikle": 1810,
      "çiz": 1811,
      "##ord": 1812,
      "takımı": 1813,
      "##amıştır": 1814,
      "##ie": 1815,
      "##ğinde": 1816,
      "##osu": 1817,
      "##'deki": 1818,
      "##mişti": 1819,
      "##alt": 1820,
      "yerleş": 1821,
      "##ektör": 1822,
      "Müz": 1823,
      "##ilecek": 1824,
      "##maz": 1825,
      "##AB": 1826,
      "De": 1827,
      "ayrı": 1828,
      "tanı": 1829,
      "karakter": 1830,
      "##cade": 1831,
      "İsv": 1832,
      "##meni": 1833,
      "oper": 1834,
      "Birleşik": 1835,
      "Jap": 1836,
      "##ba": 1837,
      "##adde": 1838,
      "##leriyle": 1839,
      "##üven": 1840,
      "anlaş": 1841,
      "##gun": 1842,
      "##ya'nın": 1843,
      "Çin": 1844,
      "##ation": 1845,
      "##lanır": 1846,
      "[H": 1847,
      "kardeş": 1848,
      "beş": 1849,
      "pat": 1850,
      "##azi": 1851,
      "Bun": 1852,
      "Bunun": 1853,
      "yas": 1854,
      "bütün": 1855,
      "sınıf": 1856,
      "##orn": 1857,
      "Mus": 1858,
      "Yeni": 1859,
      "gerçekleştir": 1860,
      "15": 1861,
      "kullanılan": 1862,
      "Re": 1863,
      "##şık": 1864,
      "yür": 1865,
      "##ici": 1866,
      "[ARAB": 1867,
      "belirt": 1868,
      "dahil": 1869,
      "Dem": 1870,
      "komut": 1871,
      "##vizyon": 1872,
      "karş": 1873,
      "nok": 1874,
      "ana": 1875,
      "##umu": 1876,
      "hemen": 1877,
      "##ari": 1878,
      "Tar": 1879,
      "##abilir": 1880,
      "20": 1881,
      "Dok": 1882,
      "dav": 1883,
      "##'yı": 1884,
      "##onom": 1885,
      "sonucu": 1886,
      "Mah": 1887,
      "Bul": 1888,
      "verilen": 1889,
      "bar": 1890,
      "##GC": 1891,
      "mode": 1892,
      "##elik": 1893,
      "##lanmış": 1894,
      "##iya": 1895,
      "kalan": 1896,
      "##yas": 1897,
      "hizmet": 1898,
      "##gın": 1899,
      "##luğ": 1900,
      "Muh": 1901,
      "kaldı": 1902,
      "Aynı": 1903,
      "##ök": 1904,
      "verdi": 1905,
      "katıldı": 1906,
      "##leyen": 1907,
      "benzer": 1908,
      "Dör": 1909,
      "toprak": 1910,
      "##tu": 1911,
      "##lendi": 1912,
      "ünlü": 1913,
      "##cısı": 1914,
      "##uluk": 1915,
      "##'s": 1916,
      "ağır": 1917,
      "savun": 1918,
      "birbir": 1919,
      "amacı": 1920,
      "bilinen": 1921,
      "itibaren": 1922,
      "arasındaki": 1923,
      "silah": 1924,
      "##tay": 1925,
      "din": 1926,
      "kullanı": 1927,
      "beri": 1928,
      "keş": 1929,
      "isimli": 1930,
      "dolayı": 1931,
      "mey": 1932,
      "##ohn": 1933,
      "##ij": 1934,
      "bun": 1935,
      "##tesi": 1936,
      "İz": 1937,
      "##eled": 1938,
      "Fakat": 1939,
      "mes": 1940,
      "##taş": 1941,
      "etmiştir": 1942,
      "numar": 1943,
      "inş": 1944,
      "etmek": 1945,
      "yanı": 1946,
      "##anda": 1947,
      "##ens": 1948,
      "Albüm": 1949,
      "##'u": 1950,
      "uğ": 1951,
      "albümü": 1952,
      "Ben": 1953,
      "yaşında": 1954,
      "üçüncü": 1955,
      "kav": 1956,
      "##lamak": 1957,
      "yine": 1958,
      "pek": 1959,
      "##ydı": 1960,
      "##lim": 1961,
      "if": 1962,
      "##rim": 1963,
      "##co": 1964,
      "yönetmen": 1965,
      "kas": 1966,
      "##kin": 1967,
      "##iyer": 1968,
      "##iyatro": 1969,
      "bilim": 1970,
      "millî": 1971,
      "sonuç": 1972,
      "hakkında": 1973,
      "yapmıştır": 1974,
      "##gel": 1975,
      "##brıs": 1976,
      "Kıbrıs": 1977,
      "Tek": 1978,
      "##eme": 1979,
      "kim": 1980,
      "##and": 1981,
      "olduk": 1982,
      "elek": 1983,
      "İngilizce": 1984,
      "##burg": 1985,
      "Top": 1986,
      "içerisinde": 1987,
      "##asyonu": 1988,
      "##baş": 1989,
      "mücade": 1990,
      "Ser": 1991,
      "Yahudi": 1992,
      "Birliği": 1993,
      "##ron": 1994,
      "##isyon": 1995,
      "##kat": 1996,
      "##umlu": 1997,
      "Arap": 1998,
      "transfer": 1999,
      "##tem": 2000,
      "Ali": 2001,
      "Kat": 2002,
      "##ind": 2003,
      "Batı": 2004,
      "kil": 2005,
      "Se": 2006,
      "kitap": 2007,
      "##AN": 2008,
      "##iyordu": 2009,
      "##ost": 2010,
      "John": 2011,
      "koy": 2012,
      "suç": 2013,
      "bağım": 2014,
      "Mac": 2015,
      "kayı": 2016,
      "##meyi": 2017,
      "temel": 2018,
      "İl": 2019,
      "temsil": 2020,
      "##ize": 2021,
      "mek": 2022,
      "oran": 2023,
      "başkan": 2024,
      "##tığı": 2025,
      "##qu": 2026,
      "##ruz": 2027,
      "##ula": 2028,
      "##yalet": 2029,
      "roman": 2030,
      "##ke": 2031,
      "##NA": 2032,
      "sahiptir": 2033,
      "değişik": 2034,
      "oğlu": 2035,
      "Grub": 2036,
      "tasar": 2037,
      "saat": 2038,
      "maçta": 2039,
      "##th": 2040,
      "şirket": 2041,
      "çağ": 2042,
      "üye": 2043,
      "çift": 2044,
      "##ğında": 2045,
      "##liğini": 2046,
      "##isini": 2047,
      "##eder": 2048,
      "NGC": 2049,
      "öğret": 2050,
      "liste": 2051,
      "##azar": 2052,
      "Türkiye'de": 2053,
      "##urt": 2054,
      "Kara": 2055,
      "görüş": 2056,
      "yönetim": 2057,
      "mal": 2058,
      "çar": 2059,
      "Dan": 2060,
      "eleştir": 2061,
      "biç": 2062,
      "adını": 2063,
      "##aban": 2064,
      "..": 2065,
      "##'yi": 2066,
      "dönemde": 2067,
      "##cağı": 2068,
      "##rol": 2069,
      "sürdür": 2070,
      "aday": 2071,
      "##sk": 2072,
      "kitab": 2073,
      "100": 2074,
      "##rat": 2075,
      "##rika": 2076,
      "##diler": 2077,
      "ta": 2078,
      "##RE": 2079,
      "##ilece": 2080,
      "##adığı": 2081,
      "kültür": 2082,
      "kontr": 2083,
      "##efer": 2084,
      "merkezi": 2085,
      "Kır": 2086,
      "Kız": 2087,
      "profes": 2088,
      "##ilere": 2089,
      "Sch": 2090,
      "ayında": 2091,
      "dışında": 2092,
      "kol": 2093,
      "Der": 2094,
      "Ko": 2095,
      "Ok": 2096,
      "yapımı": 2097,
      "##ğine": 2098,
      "##şta": 2099,
      "##gen": 2100,
      "askeri": 2101,
      "##üsü": 2102,
      "Amerikan": 2103,
      "part": 2104,
      "Kür": 2105,
      "organ": 2106,
      "id": 2107,
      "Deniz": 2108,
      "##lenmiştir": 2109,
      "##mesini": 2110,
      "##ve": 2111,
      "##amil": 2112,
      "Kal": 2113,
      "ilç": 2114,
      "ona": 2115,
      "Bas": 2116,
      "11": 2117,
      "televizyon": 2118,
      "man": 2119,
      "##zı": 2120,
      "ülkeler": 2121,
      "forma": 2122,
      "##suz": 2123,
      "şekl": 2124,
      "bah": 2125,
      "##ni": 2126,
      "yarı": 2127,
      "##laştı": 2128,
      "##lis": 2129,
      "aldığı": 2130,
      "piyas": 2131,
      "ifade": 2132,
      "Sp": 2133,
      "tarihi": 2134,
      "##ert": 2135,
      "bulunduğu": 2136,
      "Orta": 2137,
      "##ars": 2138,
      "##masıyla": 2139,
      "okul": 2140,
      "grubu": 2141,
      "renk": 2142,
      "##ücü": 2143,
      "##manın": 2144,
      "gökada": 2145,
      "kli": 2146,
      "##dana": 2147,
      "günümüz": 2148,
      "şu": 2149,
      "##eph": 2150,
      "pop": 2151,
      "başlar": 2152,
      "araştırma": 2153,
      "Mal": 2154,
      "##oğlu": 2155,
      "üyesi": 2156,
      "Partisi": 2157,
      "bek": 2158,
      "Mon": 2159,
      "La": 2160,
      "##bay": 2161,
      "##ümü": 2162,
      "iste": 2163,
      "##masının": 2164,
      "alı": 2165,
      "##müş": 2166,
      "##ell": 2167,
      "##tin": 2168,
      "##oğraf": 2169,
      "Tan": 2170,
      "##izm": 2171,
      "çalıştı": 2172,
      "##laştır": 2173,
      "kral": 2174,
      "oynadı": 2175,
      "elektr": 2176,
      "gal": 2177,
      "##mesine": 2178,
      ")'": 2179,
      "form": 2180,
      "##ej": 2181,
      "##lüğ": 2182,
      "##o'nun": 2183,
      "derg": 2184,
      "düny": 2185,
      "söyle": 2186,
      "ölç": 2187,
      "Pet": 2188,
      "dem": 2189,
      "sonraki": 2190,
      "sahn": 2191,
      "olmayan": 2192,
      "başarılı": 2193,
      "##ong": 2194,
      "İtalyan": 2195,
      "[G": 2196,
      "##ikâ": 2197,
      "örnek": 2198,
      "##ire": 2199,
      "kale": 2200,
      "##ris": 2201,
      "He": 2202,
      "tanın": 2203,
      "sonuc": 2204,
      "adlandır": 2205,
      "##ansı": 2206,
      "Dördüncü": 2207,
      "almaktadır": 2208,
      "dayan": 2209,
      "mücadele": 2210,
      "##üler": 2211,
      "turn": 2212,
      "ki": 2213,
      "deniz": 2214,
      "genellikle": 2215,
      "##öylece": 2216,
      "##oun": 2217,
      "##FA": 2218,
      "şey": 2219,
      "##arruz": 2220,
      "döneminde": 2221,
      "##our": 2222,
      "dak": 2223,
      "geçen": 2224,
      "##ahat": 2225,
      "Be": 2226,
      "bağlan": 2227,
      "erkek": 2228,
      "satış": 2229,
      "edil": 2230,
      "##aj": 2231,
      "##rek": 2232,
      "##mez": 2233,
      "[HAN": 2234,
      "yarat": 2235,
      "parça": 2236,
      "Sam": 2237,
      "sey": 2238,
      "yoğun": 2239,
      "cin": 2240,
      "##lor": 2241,
      "##ladığı": 2242,
      "Berlin": 2243,
      "gez": 2244,
      "##BA": 2245,
      "resmi": 2246,
      "##int": 2247,
      "##REK": 2248,
      "yanında": 2249,
      "dikkat": 2250,
      "[GREK": 2251,
      "edilir": 2252,
      "##alar": 2253,
      "özellik": 2254,
      "futbolcu": 2255,
      "nüfus": 2256,
      "em": 2257,
      "fa": 2258,
      "güven": 2259,
      "##uma": 2260,
      "Tur": 2261,
      "Anad": 2262,
      "16": 2263,
      "##tık": 2264,
      "İran": 2265,
      "##güt": 2266,
      "##uan": 2267,
      "##otor": 2268,
      "üniversit": 2269,
      "##ayın": 2270,
      "gem": 2271,
      "##neğin": 2272,
      "teknik": 2273,
      "Beşinci": 2274,
      "##uzuncu": 2275,
      "Dav": 2276,
      "küt": 2277,
      "##be": 2278,
      "##iyan": 2279,
      "##oloji": 2280,
      "Ligi": 2281,
      "Merkez": 2282,
      "##sen": 2283,
      "##ağını": 2284,
      "Paris": 2285,
      "##ile": 2286,
      "##makta": 2287,
      "kaybet": 2288,
      "Sa": 2289,
      "##masından": 2290,
      "##taydı": 2291,
      "para": 2292,
      "kontrol": 2293,
      "saldırı": 2294,
      "##atör": 2295,
      "bitir": 2296,
      "iddi": 2297,
      "hafta": 2298,
      "bağımsız": 2299,
      "Ste": 2300,
      "Tem": 2301,
      "rad": 2302,
      "oldukça": 2303,
      "##leşme": 2304,
      "##io": 2305,
      "13": 2306,
      "##uldu": 2307,
      "yıllarda": 2308,
      "##cut": 2309,
      "##arlar": 2310,
      "##akül": 2311,
      "##ick": 2312,
      "Sar": 2313,
      "Ad": 2314,
      "##rail": 2315,
      "sanatçı": 2316,
      "boz": 2317,
      "##ph": 2318,
      "##cılık": 2319,
      "bulundu": 2320,
      "öğrenc": 2321,
      "burada": 2322,
      "sinema": 2323,
      "beste": 2324,
      "Anadolu": 2325,
      "edilmiştir": 2326,
      "biçim": 2327,
      "##aktadır": 2328,
      "##omb": 2329,
      "General": 2330,
      "York": 2331,
      "##yl": 2332,
      "küm": 2333,
      "sahibi": 2334,
      "hiçbir": 2335,
      "video": 2336,
      "ışık": 2337,
      "ekonom": 2338,
      "Mart": 2339,
      "##esel": 2340,
      "##rab": 2341,
      "18": 2342,
      "mik": 2343,
      "##teki": 2344,
      "biridir": 2345,
      "uluslararası": 2346,
      "##itler": 2347,
      "##iyi": 2348,
      "uyar": 2349,
      "Kr": 2350,
      "büy": 2351,
      "Ör": 2352,
      "##lamıştır": 2353,
      "edeb": 2354,
      "hüc": 2355,
      "##sin": 2356,
      "##di.": 2357,
      "günü": 2358,
      "keşf": 2359,
      "çöz": 2360,
      "hava": 2361,
      "dağ": 2362,
      "##sik": 2363,
      "eki": 2364,
      "##aba": 2365,
      "##aln": 2366,
      "##ıldığı": 2367,
      "çap": 2368,
      "Tüm": 2369,
      "Rusya": 2370,
      "bunun": 2371,
      "##ice": 2372,
      "kulüp": 2373,
      "##bak": 2374,
      "kariyer": 2375,
      "önc": 2376,
      "30": 2377,
      "sosyal": 2378,
      "filmin": 2379,
      "geçti": 2380,
      "adam": 2381,
      "inşa": 2382,
      "##düğü": 2383,
      "25": 2384,
      "##ısını": 2385,
      "##ısına": 2386,
      "##akip": 2387,
      "İsrail": 2388,
      "##'nden": 2389,
      "##aşa": 2390,
      "##yonel": 2391,
      "sezonu": 2392,
      "Pol": 2393,
      "##ho": 2394,
      "Lu": 2395,
      "imparator": 2396,
      "madde": 2397,
      "##iyah": 2398,
      "##forman": 2399,
      "eyalet": 2400,
      "kurulan": 2401,
      "##alnız": 2402,
      "##isine": 2403,
      "Galat": 2404,
      "Lis": 2405,
      "Sal": 2406,
      "atan": 2407,
      "hayvan": 2408,
      "olacak": 2409,
      "##lav": 2410,
      "kullanılır": 2411,
      "Azer": 2412,
      "##liam": 2413,
      "göç": 2414,
      "##estiv": 2415,
      "##iir": 2416,
      "##teş": 2417,
      "Yıl": 2418,
      "ür": 2419,
      "and": 2420,
      "##iği": 2421,
      "Rob": 2422,
      "yaşayan": 2423,
      "beyaz": 2424,
      "##ilim": 2425,
      "model": 2426,
      "vur": 2427,
      "olduğ": 2428,
      "Afrika": 2429,
      "##ji": 2430,
      "İsveç": 2431,
      "##olojik": 2432,
      "##I]": 2433,
      "sonucunda": 2434,
      "14": 2435,
      "kamp": 2436,
      "çarp": 2437,
      "##dir.": 2438,
      "girdi": 2439,
      "##taki": 2440,
      "yazı": 2441,
      "Yir": 2442,
      "##tüd": 2443,
      "##ack": 2444,
      "NBA": 2445,
      "##ekli": 2446,
      "anlat": 2447,
      "kam": 2448,
      "ilan": 2449,
      "##anlığı": 2450,
      "Ge": 2451,
      "##ham": 2452,
      "proj": 2453,
      "##alle": 2454,
      "Eski": 2455,
      "ismi": 2456,
      "Has": 2457,
      "başlamıştır": 2458,
      "Pa": 2459,
      "spor": 2460,
      "Eur": 2461,
      "Türkçe": 2462,
      "##yanın": 2463,
      "Bal": 2464,
      "ortak": 2465,
      "kuruluş": 2466,
      "##rik": 2467,
      "##ola": 2468,
      "##dığını": 2469,
      "verir": 2470,
      "##ehri": 2471,
      "dönüş": 2472,
      "##era": 2473,
      "altı": 2474,
      "Ev": 2475,
      "tip": 2476,
      "##ener": 2477,
      "dağı": 2478,
      "##orum": 2479,
      "##ilerek": 2480,
      "##adem": 2481,
      "ettiği": 2482,
      "Genç": 2483,
      "TV": 2484,
      "giz": 2485,
      "hede": 2486,
      "##üyle": 2487,
      "##lenir": 2488,
      "kulüb": 2489,
      "##za": 2490,
      "ülke": 2491,
      "amaç": 2492,
      "Kay": 2493,
      "##lemek": 2494,
      "##imleri": 2495,
      "##itan": 2496,
      "##evi": 2497,
      "##tüdyo": 2498,
      "rek": 2499,
      "##lüğü": 2500,
      "##imler": 2501,
      "May": 2502,
      "sol": 2503,
      "##ılma": 2504,
      "Su": 2505,
      "SS": 2506,
      "ayak": 2507,
      "Char": 2508,
      "##ment": 2509,
      "Dokuzuncu": 2510,
      "idar": 2511,
      "mevcut": 2512,
      "Grubu": 2513,
      "hikâ": 2514,
      "ila": 2515,
      "##yalı": 2516,
      "##uştu": 2517,
      "toplum": 2518,
      "##ank": 2519,
      "Beşik": 2520,
      "##ayet": 2521,
      "##edinci": 2522,
      "##lığına": 2523,
      "Ha": 2524,
      "hav": 2525,
      "##yen": 2526,
      "##kın": 2527,
      "##esi'nde": 2528,
      "yat": 2529,
      "İş": 2530,
      "Sen": 2531,
      "Beşiktaş": 2532,
      "##r.": 2533,
      "başına": 2534,
      "karşılaş": 2535,
      "haline": 2536,
      "Başkan": 2537,
      "Sanat": 2538,
      "Ödülü": 2539,
      "şeklinde": 2540,
      "senar": 2541,
      "inan": 2542,
      "Tak": 2543,
      "İmparatorluğu": 2544,
      "çoğu": 2545,
      "##her": 2546,
      "kanal": 2547,
      "17": 2548,
      "##nik": 2549,
      "##ite": 2550,
      "##asaray": 2551,
      "Go": 2552,
      "iht": 2553,
      "sem": 2554,
      "gele": 2555,
      "çoğun": 2556,
      "##iydi": 2557,
      "haber": 2558,
      "st": 2559,
      "Ah": 2560,
      "Bat": 2561,
      "tic": 2562,
      "##ehr": 2563,
      "Gu": 2564,
      "performan": 2565,
      "Can": 2566,
      "defa": 2567,
      "##str": 2568,
      "sebeb": 2569,
      "babası": 2570,
      "teh": 2571,
      "##yol": 2572,
      "Galatasaray": 2573,
      "##imar": 2574,
      "şarkısı": 2575,
      "Ed": 2576,
      "çalışan": 2577,
      "yani": 2578,
      "örgüt": 2579,
      "zorunda": 2580,
      "##eğ": 2581,
      "##istik": 2582,
      "##odern": 2583,
      "##ff": 2584,
      "başında": 2585,
      "engel": 2586,
      "Port": 2587,
      "And": 2588,
      "uygun": 2589,
      "##i'nin": 2590,
      "##des": 2591,
      "Bölg": 2592,
      "mahk": 2593,
      "##meden": 2594,
      "##ünkü": 2595,
      "##berg": 2596,
      "iler": 2597,
      "##ünist": 2598,
      "maçında": 2599,
      "Met": 2600,
      "Ot": 2601,
      "##lardı": 2602,
      "amacıyla": 2603,
      "başkanı": 2604,
      "##ilerini": 2605,
      "faal": 2606,
      "Don": 2607,
      "Kul": 2608,
      "21": 2609,
      "##ane": 2610,
      "##maktaydı": 2611,
      "##kil": 2612,
      "Hollanda": 2613,
      "##ida": 2614,
      "vardı": 2615,
      "bölgede": 2616,
      "##lüm": 2617,
      "başlayan": 2618,
      "işg": 2619,
      "güçlü": 2620,
      "piyasaya": 2621,
      "tep": 2622,
      "Kanada": 2623,
      "bölgeler": 2624,
      "Avustral": 2625,
      "Bon": 2626,
      "Per": 2627,
      "Avustur": 2628,
      "Roman": 2629,
      "Sır": 2630,
      "cez": 2631,
      "##mer": 2632,
      "##talık": 2633,
      "arkadaş": 2634,
      "Biz": 2635,
      "##ırı": 2636,
      "motor": 2637,
      "ism": 2638,
      "##res": 2639,
      "taarruz": 2640,
      "Hay": 2641,
      "başken": 2642,
      "##med": 2643,
      "##ceki": 2644,
      "##ğa": 2645,
      "İtalya": 2646,
      "batı": 2647,
      "##üzel": 2648,
      "yönünde": 2649,
      "altın": 2650,
      "sayıda": 2651,
      "Em": 2652,
      "##iliği": 2653,
      "##ker": 2654,
      "##rens": 2655,
      "Altıncı": 2656,
      "Sin": 2657,
      "Fakül": 2658,
      "sefer": 2659,
      "ince": 2660,
      "sebep": 2661,
      "Sta": 2662,
      "yerel": 2663,
      "Bo": 2664,
      "##air": 2665,
      "##best": 2666,
      "##avi": 2667,
      "veren": 2668,
      "Diğer": 2669,
      "av": 2670,
      "##uvar": 2671,
      "Mek": 2672,
      "üzerinden": 2673,
      "Özel": 2674,
      "yalnız": 2675,
      "bile": 2676,
      "##dük": 2677,
      "geçer": 2678,
      "##etim": 2679,
      "Lond": 2680,
      "##rom": 2681,
      "kaldır": 2682,
      "canlandır": 2683,
      "ann": 2684,
      "Bay": 2685,
      "##emiştir": 2686,
      "Ger": 2687,
      "Mak": 2688,
      "stüdyo": 2689,
      "##iss": 2690,
      "tiyatro": 2691,
      "##iğ": 2692,
      "asıl": 2693,
      "faaliyet": 2694,
      "oynan": 2695,
      "mem": 2696,
      "##asından": 2697,
      "##au": 2698,
      "##ner": 2699,
      "oyuncusu": 2700,
      "kayıt": 2701,
      "##abet": 2702,
      "oynam": 2703,
      "bölgesinde": 2704,
      "İyi": 2705,
      "etmektedir": 2706,
      "Doğ": 2707,
      "özg": 2708,
      "aşağı": 2709,
      "ola": 2710,
      "pul": 2711,
      "##ith": 2712,
      "pay": 2713,
      "soy": 2714,
      "olmuş": 2715,
      "50": 2716,
      "sab": 2717,
      "##isk": 2718,
      "mezun": 2719,
      "sit": 2720,
      "##ulan": 2721,
      "Ordusu": 2722,
      "##elediye": 2723,
      "##tey": 2724,
      "##ock": 2725,
      "edilm": 2726,
      "am": 2727,
      "##yken": 2728,
      "##ene": 2729,
      "sistemi": 2730,
      "öldürül": 2731,
      "##har": 2732,
      "##ildiği": 2733,
      "zar": 2734,
      "fot": 2735,
      "kah": 2736,
      "yayınlanan": 2737,
      "Kızıl": 2738,
      "Yön": 2739,
      "öy": 2740,
      "##rist": 2741,
      "##asıyla": 2742,
      "derece": 2743,
      "koş": 2744,
      "değildir": 2745,
      "profesyonel": 2746,
      "##areb": 2747,
      "##anlık": 2748,
      "konusunda": 2749,
      "hükümet": 2750,
      "##din": 2751,
      "##esidir": 2752,
      "##ilerinin": 2753,
      "çevir": 2754,
      "ziy": 2755,
      "##rich": 2756,
      "etkil": 2757,
      "Gaz": 2758,
      "##bah": 2759,
      "##ilerine": 2760,
      "bildir": 2761,
      "gerçekleş": 2762,
      "##onk": 2763,
      "##ise": 2764,
      "##alıdır": 2765,
      "verdiği": 2766,
      "sayısı": 2767,
      "kendisine": 2768,
      "Yük": 2769,
      "adet": 2770,
      "konser": 2771,
      "uzaklık": 2772,
      "hedef": 2773,
      "kir": 2774,
      "İç": 2775,
      "teor": 2776,
      "Bazı": 2777,
      "MÖ": 2778,
      "##ırlar": 2779,
      "mut": 2780,
      "dair": 2781,
      "##arıyla": 2782,
      "##mal": 2783,
      "Un": 2784,
      "bat": 2785,
      "##isidir": 2786,
      "Mo": 2787,
      "##mesiyle": 2788,
      "numaraya": 2789,
      "boş": 2790,
      "sayesinde": 2791,
      "Kaz": 2792,
      "hes": 2793,
      "kut": 2794,
      "##masında": 2795,
      "##lanması": 2796,
      "##uyu": 2797,
      "düşük": 2798,
      "##hangi": 2799,
      "düzenlenen": 2800,
      "turnuv": 2801,
      "##ger": 2802,
      "sak": 2803,
      "##ısından": 2804,
      "yöntem": 2805,
      "nes": 2806,
      "önceki": 2807,
      "çat": 2808,
      "##ukuk": 2809,
      "Bab": 2810,
      "Oli": 2811,
      "##cılığı": 2812,
      "Kad": 2813,
      "##dam": 2814,
      "gösterir": 2815,
      "Fil": 2816,
      "iddia": 2817,
      "##ital": 2818,
      "yaygın": 2819,
      "Müs": 2820,
      "Ang": 2821,
      "Me": 2822,
      "##ıntı": 2823,
      "##ames": 2824,
      "ant": 2825,
      "##enn": 2826,
      "parti": 2827,
      "Kol": 2828,
      "##madan": 2829,
      "Müzik": 2830,
      "ileri": 2831,
      "etkin": 2832,
      "##ternet": 2833,
      "##aka": 2834,
      "siyah": 2835,
      "Meh": 2836,
      "Uz": 2837,
      "##idi": 2838,
      "türü": 2839,
      "yolu": 2840,
      "yüzyılda": 2841,
      "sıcak": 2842,
      "yık": 2843,
      "##ğın": 2844,
      "oynanan": 2845,
      "siyasi": 2846,
      "Co": 2847,
      "##laması": 2848,
      "Ermeni": 2849,
      "seçildi": 2850,
      "fik": 2851,
      "##ınca": 2852,
      "##emen": 2853,
      "##all": 2854,
      "##ısının": 2855,
      "##cılar": 2856,
      "İki": 2857,
      "olabilir": 2858,
      "sorun": 2859,
      "yör": 2860,
      "##lidir": 2861,
      "##sun": 2862,
      "##.B": 2863,
      "##lığa": 2864,
      "Ho": 2865,
      "Kit": 2866,
      "Ven": 2867,
      "##mada": 2868,
      "versiyon": 2869,
      "ABD'de": 2870,
      "##ray": 2871,
      "bilinir": 2872,
      "##liğinde": 2873,
      "William": 2874,
      "Nor": 2875,
      "Uy": 2876,
      "fır": 2877,
      "##ısıyla": 2878,
      "##ekizinci": 2879,
      "Ham": 2880,
      "##lığında": 2881,
      "hap": 2882,
      "yaban": 2883,
      "##go": 2884,
      "attı": 2885,
      "Res": 2886,
      "Sur": 2887,
      "olmasına": 2888,
      "yapıldı": 2889,
      "bölge": 2890,
      "gelenek": 2891,
      "Ara": 2892,
      "ders": 2893,
      "##izik": 2894,
      "seslendir": 2895,
      "ener": 2896,
      "keşfed": 2897,
      "Is": 2898,
      "don": 2899,
      "meydana": 2900,
      "oyunu": 2901,
      "##üper": 2902,
      "yürüt": 2903,
      "##one": 2904,
      "##ami": 2905,
      "ba": 2906,
      "kızı": 2907,
      "parçası": 2908,
      "##ledi": 2909,
      "Kürt": 2910,
      "sok": 2911,
      "vat": 2912,
      "##şehir": 2913,
      "idi.": 2914,
      "çıkış": 2915,
      "kötü": 2916,
      "lider": 2917,
      "##adi": 2918,
      "Mich": 2919,
      "şiir": 2920,
      "##asa": 2921,
      "##isay": 2922,
      "nit": 2923,
      "artık": 2924,
      "mer": 2925,
      "##langı": 2926,
      "kardeşi": 2927,
      "Grup": 2928,
      "##ko": 2929,
      "##hi": 2930,
      "edi": 2931,
      "kendini": 2932,
      "19": 2933,
      "Pan": 2934,
      "##üle": 2935,
      "kısm": 2936,
      "maçı": 2937,
      "herhangi": 2938,
      "Mor": 2939,
      "İspanyol": 2940,
      "Yedinci": 2941,
      "kem": 2942,
      "##ünyanın": 2943,
      "Do": 2944,
      "So": 2945,
      "##illa": 2946,
      "##ded": 2947,
      "sona": 2948,
      "Uluslararası": 2949,
      "Mec": 2950,
      "Şehir": 2951,
      "Fakültesi": 2952,
      "alarak": 2953,
      "hey": 2954,
      "##ons": 2955,
      "##stit": 2956,
      "##va": 2957,
      "##imini": 2958,
      "verildi": 2959,
      "ederek": 2960,
      "Japonya": 2961,
      "kop": 2962,
      "##dın": 2963,
      "##osta": 2964,
      "İzmir": 2965,
      "Londra": 2966,
      "Nis": 2967,
      "##bilir": 2968,
      "yazılı": 2969,
      "Buna": 2970,
      "Bill": 2971,
      "Sc": 2972,
      "civ": 2973,
      "işlem": 2974,
      "karşısında": 2975,
      "##'dir.": 2976,
      "##old": 2977,
      "anlamına": 2978,
      "Kor": 2979,
      "dar": 2980,
      "##red": 2981,
      "##els": 2982,
      "anda": 2983,
      "kullanıl": 2984,
      "toplan": 2985,
      "##ketbol": 2986,
      "Mos": 2987,
      "Yap": 2988,
      "##'la": 2989,
      "##lamaya": 2990,
      "opera": 2991,
      "keli": 2992,
      "##onik": 2993,
      "katkı": 2994,
      "filmde": 2995,
      "grubun": 2996,
      "Hitler": 2997,
      "birleş": 2998,
      "Ph": 2999,
      "##eng": 3000,
      "Krallık": 3001,
      "...": 3002,
      "24": 3003,
      "Ön": 3004,
      "etmiş": 3005,
      "##mekte": 3006,
      "##layarak": 3007,
      "bilgi": 3008,
      "Ap": 3009,
      "##tein": 3010,
      "sonrasında": 3011,
      "##ame": 3012,
      "##vat": 3013,
      "##ân": 3014,
      "Oyun": 3015,
      "deney": 3016,
      "##pek": 3017,
      "##rop": 3018,
      "##vek": 3019,
      "##'ün": 3020,
      "##ısır": 3021,
      "Mayıs": 3022,
      "##muz": 3023,
      "##taj": 3024,
      "yazdığı": 3025,
      "kazanmıştır": 3026,
      "##culuk": 3027,
      "famil": 3028,
      "puan": 3029,
      "##arken": 3030,
      "Ermen": 3031,
      "##leşti": 3032,
      "##'ni": 3033,
      "edilmiş": 3034,
      "Kem": 3035,
      "Kuvvet": 3036,
      "Macar": 3037,
      "Jos": 3038,
      "olsa": 3039,
      "##mem": 3040,
      "##dikten": 3041,
      "baz": 3042,
      "##maları": 3043,
      "##leri'nde": 3044,
      "tamamen": 3045,
      "##ier": 3046,
      "##üst": 3047,
      "##ity": 3048,
      "##asım": 3049,
      "Kore": 3050,
      "bugün": 3051,
      "Köy": 3052,
      "birinci": 3053,
      "##larındaki": 3054,
      "konum": 3055,
      "kapsam": 3056,
      "serbest": 3057,
      "yapılmıştır": 3058,
      "##omet": 3059,
      "Futbol": 3060,
      "##yu": 3061,
      "##ight": 3062,
      "Mısır": 3063,
      "Cem": 3064,
      "Pat": 3065,
      "##dikleri": 3066,
      "##ill": 3067,
      "##lisi": 3068,
      "tutuk": 3069,
      "Burada": 3070,
      "##onksiyon": 3071,
      "ora": 3072,
      "doğu": 3073,
      "##onu": 3074,
      "fir": 3075,
      "##arında": 3076,
      "Art": 3077,
      "##ingle": 3078,
      "Sovyetler": 3079,
      "##edik": 3080,
      "22": 3081,
      "Haz": 3082,
      "##lah": 3083,
      "##ultan": 3084,
      "##tand": 3085,
      "##ere": 3086,
      "köken": 3087,
      "Yüksek": 3088,
      "İspanya": 3089,
      "Ale": 3090,
      "tav": 3091,
      "yağ": 3092,
      "##rad": 3093,
      "##hend": 3094,
      "politik": 3095,
      "##ormal": 3096,
      "Star": 3097,
      "Val": 3098,
      "teş": 3099,
      "Ulusal": 3100,
      "Bizans": 3101,
      "##ino": 3102,
      "##ülen": 3103,
      "Türkç": 3104,
      "Ama": 3105,
      "Kent": 3106,
      "Şampiyonası": 3107,
      "Jon": 3108,
      "##yıldız": 3109,
      "##manı": 3110,
      "döndü": 3111,
      "iken": 3112,
      "##meleri": 3113,
      "doktor": 3114,
      "Mat": 3115,
      "##üğ": 3116,
      "kurum": 3117,
      "Fer": 3118,
      "bunu": 3119,
      "Japon": 3120,
      "Geor": 3121,
      "taşın": 3122,
      "izin": 3123,
      "otom": 3124,
      "##ylül": 3125,
      "##tiler": 3126,
      "##cağını": 3127,
      "##mışlardır": 3128,
      "fonksiyon": 3129,
      "##ıt": 3130,
      "tart": 3131,
      "Üniversitesi'nde": 3132,
      "Tarih": 3133,
      "ma": 3134,
      "Gran": 3135,
      "Fin": 3136,
      "##'ndan": 3137,
      "adına": 3138,
      "Ros": 3139,
      "##üce": 3140,
      "kısmı": 3141,
      "diren": 3142,
      "nokta": 3143,
      "Bulgar": 3144,
      "Te": 3145,
      "##öm": 3146,
      "FI": 3147,
      "##öv": 3148,
      "##vi": 3149,
      "Nehri": 3150,
      "Qu": 3151,
      "##tiş": 3152,
      "yardımcı": 3153,
      "Mad": 3154,
      "##omi": 3155,
      "##etik": 3156,
      "##ezar": 3157,
      "##lıklı": 3158,
      "imzal": 3159,
      "Nisan": 3160,
      "ordusu": 3161,
      "uygulama": 3162,
      "Gir": 3163,
      "mağ": 3164,
      "Sosyal": 3165,
      "##lilik": 3166,
      "ortal": 3167,
      "##istan'ın": 3168,
      "kurulmuştur": 3169,
      "eşit": 3170,
      "teslim": 3171,
      "Ter": 3172,
      "##lıkla": 3173,
      "işgal": 3174,
      "Lat": 3175,
      "yoktur": 3176,
      "Azerbay": 3177,
      "dan": 3178,
      "ip": 3179,
      "##esi'nin": 3180,
      "##lenmiş": 3181,
      "radyo": 3182,
      "Ef": 3183,
      "##mızı": 3184,
      "kazanan": 3185,
      "##endi": 3186,
      "Harek": 3187,
      "yorum": 3188,
      "görüntü": 3189,
      "direktör": 3190,
      "DNA": 3191,
      "tas": 3192,
      "Com": 3193,
      "sub": 3194,
      "##ani": 3195,
      "##laya": 3196,
      "düzey": 3197,
      "Azerbaycan": 3198,
      "Di": 3199,
      "red": 3200,
      "sürekli": 3201,
      "itibarıyla": 3202,
      "ulusal": 3203,
      "arkadaşı": 3204,
      "otur": 3205,
      "tarihli": 3206,
      "Eylül": 3207,
      "##ai": 3208,
      "James": 3209,
      "##deniz": 3210,
      "kişilik": 3211,
      "söyler": 3212,
      "Demir": 3213,
      "##ısız": 3214,
      "alanı": 3215,
      "ateş": 3216,
      "##ciler": 3217,
      "yazarı": 3218,
      "Gi": 3219,
      "##dak": 3220,
      "ülkede": 3221,
      "##liğe": 3222,
      "nüfusu": 3223,
      "##okr": 3224,
      "ordus": 3225,
      "siyaset": 3226,
      "Ekim": 3227,
      "Yak": 3228,
      "halinde": 3229,
      "nedenle": 3230,
      "##teydi": 3231,
      "Hot": 3232,
      "Mes": 3233,
      "nin": 3234,
      "metre": 3235,
      "günümüzde": 3236,
      "açı": 3237,
      "yana": 3238,
      "başrol": 3239,
      "hastalık": 3240,
      "bilgisay": 3241,
      "gezeg": 3242,
      "##medi": 3243,
      "araç": 3244,
      "Başkanı": 3245,
      "##lasik": 3246,
      "Spor": 3247,
      "Hat": 3248,
      "Mas": 3249,
      "Po": 3250,
      "##engin": 3251,
      "##ışı": 3252,
      "komp": 3253,
      "Dön": 3254,
      "hücre": 3255,
      "fin": 3256,
      "##oks": 3257,
      "kuşat": 3258,
      "hesap": 3259,
      "Sekizinci": 3260,
      "##yası": 3261,
      "takımının": 3262,
      "kurulmuş": 3263,
      "Col": 3264,
      "##dır.": 3265,
      "Polonya": 3266,
      "işle": 3267,
      "##rafik": 3268,
      "hikây": 3269,
      "fotoğraf": 3270,
      "dek": 3271,
      "mas": 3272,
      "##may": 3273,
      "listesinde": 3274,
      "ziyaret": 3275,
      "##a'da": 3276,
      "benz": 3277,
      "Rich": 3278,
      "##are": 3279,
      "Wal": 3280,
      "##ulmuştur": 3281,
      "nokt": 3282,
      "Eb": 3283,
      "Halk": 3284,
      "dünyaya": 3285,
      "Charles": 3286,
      "terk": 3287,
      "##ision": 3288,
      "##letvek": 3289,
      "parlak": 3290,
      "Parti": 3291,
      "##atif": 3292,
      "içeren": 3293,
      "##kar": 3294,
      "##meyen": 3295,
      "yapmaktadır": 3296,
      "##ırken": 3297,
      "##oth": 3298,
      "şehri": 3299,
      "mada": 3300,
      "##iyeti": 3301,
      "kütle": 3302,
      "Mü": 3303,
      "Wh": 3304,
      "von": 3305,
      "##iran": 3306,
      "gelmiştir": 3307,
      "filminde": 3308,
      "resim": 3309,
      "ayrıldı": 3310,
      "oluşur": 3311,
      "popüler": 3312,
      "performans": 3313,
      "kurdu": 3314,
      "üzerindeki": 3315,
      "yapımcı": 3316,
      "##kün": 3317,
      "##izi": 3318,
      "takımyıldız": 3319,
      "durumda": 3320,
      "Bro": 3321,
      "oda": 3322,
      "Göl": 3323,
      "verilmiştir": 3324,
      "##neği": 3325,
      "##rosu": 3326,
      "ürün": 3327,
      "Jo": 3328,
      "Yüz": 3329,
      "ülkenin": 3330,
      "gözlem": 3331,
      "40": 3332,
      "Rum": 3333,
      "hep": 3334,
      "İr": 3335,
      "Olimp": 3336,
      "##undaki": 3337,
      "##'nı": 3338,
      "Con": 3339,
      "Hav": 3340,
      "modern": 3341,
      "olası": 3342,
      "serg": 3343,
      "Avusturya": 3344,
      "diy": 3345,
      "##sh": 3346,
      "adında": 3347,
      "kuruldu": 3348,
      "mat": 3349,
      "boyut": 3350,
      "Dağ": 3351,
      "##uru": 3352,
      "##üştü": 3353,
      "Sim": 3354,
      "Ver": 3355,
      "olab": 3356,
      "rast": 3357,
      "single": 3358,
      "kendine": 3359,
      "##alığı": 3360,
      "Dr.": 3361,
      "Je": 3362,
      "tamamladı": 3363,
      "dördüncü": 3364,
      "takip": 3365,
      "##cel": 3366,
      "şarkıcı": 3367,
      "hayatını": 3368,
      "##emektedir": 3369,
      "Yarış": 3370,
      "Mur": 3371,
      "hast": 3372,
      "kurtar": 3373,
      "gösteren": 3374,
      "kendisi": 3375,
      "Hak": 3376,
      "##anlar": 3377,
      "çıkmıştır": 3378,
      "tane": 3379,
      "hale": 3380,
      "numara": 3381,
      "Mehmet": 3382,
      "Böylece": 3383,
      "kaf": 3384,
      "##tul": 3385,
      "##fik": 3386,
      "vatanda": 3387,
      "Festiv": 3388,
      "Tele": 3389,
      "UE": 3390,
      "hâ": 3391,
      "##lında": 3392,
      "Ta": 3393,
      "bes": 3394,
      "ıs": 3395,
      "##ood": 3396,
      "##ilya": 3397,
      "yüzünden": 3398,
      "dizi": 3399,
      "Az": 3400,
      "Kö": 3401,
      "fizik": 3402,
      "gider": 3403,
      "##anlı": 3404,
      "##isyen": 3405,
      "hızlı": 3406,
      "Ku": 3407,
      "##sch": 3408,
      "yapmış": 3409,
      "UEFA": 3410,
      "dans": 3411,
      "dünyanın": 3412,
      "giren": 3413,
      "alındı": 3414,
      "Kap": 3415,
      "tör": 3416,
      "##ica": 3417,
      "kesin": 3418,
      "yapmak": 3419,
      "kendisini": 3420,
      "##po": 3421,
      "##liy": 3422,
      "ressam": 3423,
      "##keti": 3424,
      "Temmuz": 3425,
      "ekonomik": 3426,
      "Örneğin": 3427,
      "##eles": 3428,
      "##aspor": 3429,
      "##ileceği": 3430,
      "Gar": 3431,
      "yayınlandı": 3432,
      "arası": 3433,
      "geçmiş": 3434,
      "23": 3435,
      "Hen": 3436,
      "yılı": 3437,
      "yayımlanan": 3438,
      "##board": 3439,
      "Kadın": 3440,
      "gece": 3441,
      "##car": 3442,
      "##lukla": 3443,
      "Tr": 3444,
      "sunu": 3445,
      "oynadığı": 3446,
      "terci": 3447,
      "##ze": 3448,
      "Frank": 3449,
      "kitabı": 3450,
      "Robert": 3451,
      "Mer": 3452,
      "siv": 3453,
      "Şub": 3454,
      "##emin": 3455,
      "doğdu": 3456,
      "Aş": 3457,
      "Eğ": 3458,
      "öner": 3459,
      "eseri": 3460,
      "bölümü": 3461,
      "Sultan": 3462,
      "şid": 3463,
      "orman": 3464,
      "Paşa": 3465,
      "Uk": 3466,
      "rap": 3467,
      "zir": 3468,
      "ner": 3469,
      "organiz": 3470,
      "Jack": 3471,
      "d.": 3472,
      "##do": 3473,
      "gizli": 3474,
      "Mc": 3475,
      "Tor": 3476,
      "Tim": 3477,
      "##dat": 3478,
      "sağlayan": 3479,
      "uçak": 3480,
      "Ceph": 3481,
      "FK": 3482,
      "##lediği": 3483,
      "karış": 3484,
      "My": 3485,
      "deste": 3486,
      "davran": 3487,
      "gördü": 3488,
      "kavram": 3489,
      "Yer": 3490,
      "##fet": 3491,
      "##aması": 3492,
      "tarz": 3493,
      "Portekiz": 3494,
      "yabancı": 3495,
      "soğ": 3496,
      "yerleşim": 3497,
      "Hır": 3498,
      "##my": 3499,
      "katı": 3500,
      "26": 3501,
      "Gür": 3502,
      "Los": 3503,
      "##olis": 3504,
      "görülür": 3505,
      "polis": 3506,
      "##hendis": 3507,
      "eg": 3508,
      "poz": 3509,
      "yum": 3510,
      "##an'ın": 3511,
      "##lım": 3512,
      "içine": 3513,
      "kork": 3514,
      "başkenti": 3515,
      "Jov": 3516,
      "##layısıyla": 3517,
      "##elerde": 3518,
      "taşıyan": 3519,
      "Tom": 3520,
      "##eşil": 3521,
      "yüzden": 3522,
      "##uyordu": 3523,
      "buna": 3524,
      "##mayan": 3525,
      "##fat": 3526,
      "##laşı": 3527,
      "##tion": 3528,
      "takımın": 3529,
      "yanlı": 3530,
      "çalışmaları": 3531,
      "Kim": 3532,
      "kod": 3533,
      "##elt": 3534,
      "##olf": 3535,
      "ortam": 3536,
      "Devleti": 3537,
      "canlı": 3538,
      "Tay": 3539,
      "hip": 3540,
      "kolay": 3541,
      "ın": 3542,
      "##lanma": 3543,
      "etraf": 3544,
      "Billboard": 3545,
      "Nazi": 3546,
      "##gur": 3547,
      "##lip": 3548,
      "kara": 3549,
      "görevi": 3550,
      "Musta": 3551,
      "##ney": 3552,
      "##menin": 3553,
      "sahne": 3554,
      "Mosk": 3555,
      "tercih": 3556,
      "We": 3557,
      "mimar": 3558,
      "##lov": 3559,
      "##ski": 3560,
      "##'tan": 3561,
      "##ash": 3562,
      "##ştan": 3563,
      "ettir": 3564,
      "Kil": 3565,
      "yerini": 3566,
      "çünkü": 3567,
      "süren": 3568,
      "altına": 3569,
      "yenil": 3570,
      "müm": 3571,
      "zengin": 3572,
      "##iden": 3573,
      "##oya": 3574,
      "Ant": 3575,
      "korum": 3576,
      "Liv": 3577,
      "ulaştı": 3578,
      "##ilerde": 3579,
      "##esindeki": 3580,
      "belli": 3581,
      "değerlendir": 3582,
      "##ach": 3583,
      "mekan": 3584,
      "Bah": 3585,
      "Fener": 3586,
      "##lığın": 3587,
      "şehrin": 3588,
      "Yirmi": 3589,
      "özgür": 3590,
      "##altı": 3591,
      "başlangı": 3592,
      "teda": 3593,
      "Ağ": 3594,
      "İslam": 3595,
      "##ess": 3596,
      "##ate": 3597,
      "tarım": 3598,
      "istem": 3599,
      "Oper": 3600,
      "##üldü": 3601,
      "mümkün": 3602,
      "##arş": 3603,
      "belg": 3604,
      "mahalle": 3605,
      "yalnızca": 3606,
      "başta": 3607,
      "Rad": 3608,
      "##ûm": 3609,
      "##udur": 3610,
      "ayır": 3611,
      "##ecektir": 3612,
      "malz": 3613,
      "Hava": 3614,
      "etmeye": 3615,
      "alanında": 3616,
      "Türkiye'nin": 3617,
      "işlet": 3618,
      "öldü": 3619,
      "##ündeki": 3620,
      "baskı": 3621,
      "Günümüz": 3622,
      "klip": 3623,
      "##çiler": 3624,
      "##ğinden": 3625,
      "##ükle": 3626,
      "yıllar": 3627,
      "metal": 3628,
      "dakik": 3629,
      "ih": 3630,
      "##ward": 3631,
      "götür": 3632,
      "David": 3633,
      "Ol": 3634,
      "gid": 3635,
      "##ayi": 3636,
      "##abı": 3637,
      "##lenme": 3638,
      "Bakanlığı": 3639,
      "Müslüm": 3640,
      "rock": 3641,
      "##uluğu": 3642,
      "Britan": 3643,
      "Ukray": 3644,
      "diş": 3645,
      "konusu": 3646,
      "yazdı": 3647,
      "sonrası": 3648,
      "##yse": 3649,
      "##liğine": 3650,
      "üretim": 3651,
      "##ori": 3652,
      "All": 3653,
      "görevini": 3654,
      "For": 3655,
      "Süper": 3656,
      "dakika": 3657,
      "bilgisayar": 3658,
      "kanı": 3659,
      "kup": 3660,
      "##itz": 3661,
      "başlat": 3662,
      "##mann": 3663,
      "##olog": 3664,
      "sebebiyle": 3665,
      "Fri": 3666,
      "##ilebilir": 3667,
      "##lanmaktadır": 3668,
      "edilmektedir": 3669,
      "##ğust": 3670,
      "kapat": 3671,
      "Nik": 3672,
      "##yum": 3673,
      "ark": 3674,
      "##bahçe": 3675,
      "bay": 3676,
      "##sine": 3677,
      "demir": 3678,
      "bağlantı": 3679,
      "Kuvvetleri": 3680,
      "##tandart": 3681,
      "posta": 3682,
      "##sta": 3683,
      "##okal": 3684,
      "dol": 3685,
      "emek": 3686,
      "almış": 3687,
      "##elerinde": 3688,
      "sağlar": 3689,
      "miktar": 3690,
      "Pap": 3691,
      "You": 3692,
      "##bon": 3693,
      "##bat": 3694,
      "doğal": 3695,
      "##acaktır": 3696,
      "Sev": 3697,
      "##yn": 3698,
      "##enek": 3699,
      "##ulur": 3700,
      "yaşadı": 3701,
      "ölçü": 3702,
      "Gör": 3703,
      "ef": 3704,
      "yapılmış": 3705,
      "##luğunu": 3706,
      "bakım": 3707,
      "##adir": 3708,
      "katıl": 3709,
      "kaydet": 3710,
      "kuvvetleri": 3711,
      "Kend": 3712,
      "güzel": 3713,
      "sta": 3714,
      "sene": 3715,
      "pas": 3716,
      "yarar": 3717,
      "Haziran": 3718,
      "Min": 3719,
      "##ael": 3720,
      "Özellikle": 3721,
      "##ğustos": 3722,
      "sp": 3723,
      "##'ten": 3724,
      "sava": 3725,
      "##ğret": 3726,
      "yönelik": 3727,
      "aktif": 3728,
      "sözleşme": 3729,
      "Avustralya": 3730,
      "Kah": 3731,
      "indir": 3732,
      "##iel": 3733,
      "genelde": 3734,
      "gitti": 3735,
      "rahat": 3736,
      "gitar": 3737,
      "gezegen": 3738,
      "Flor": 3739,
      "Müdür": 3740,
      "##los": 3741,
      "##jen": 3742,
      "##ese": 3743,
      "bomb": 3744,
      "normal": 3745,
      "##fon": 3746,
      "savunma": 3747,
      "zarar": 3748,
      "27": 3749,
      "dili": 3750,
      "ku": 3751,
      "Ülk": 3752,
      "##pit": 3753,
      "Mag": 3754,
      "Sav": 3755,
      "bal": 3756,
      "şim": 3757,
      "##tika": 3758,
      "##sim": 3759,
      "##dek": 3760,
      "arada": 3761,
      "Paul": 3762,
      "İrlanda": 3763,
      "Mark": 3764,
      "tük": 3765,
      "##mesinden": 3766,
      "##teri": 3767,
      "##kel": 3768,
      "##ğe": 3769,
      "##urdu": 3770,
      "##ette": 3771,
      "##elerinin": 3772,
      "adamı": 3773,
      "yetiş": 3774,
      "Boy": 3775,
      "Sezon": 3776,
      "Çağ": 3777,
      "##adaki": 3778,
      "Kurulu": 3779,
      "##elediy": 3780,
      "Mustafa": 3781,
      "Moğ": 3782,
      "bö": 3783,
      "buz": 3784,
      "##iforn": 3785,
      "unvan": 3786,
      "Olimpiyat": 3787,
      "Ju": 3788,
      "##ucu": 3789,
      "##ult": 3790,
      "olmadığı": 3791,
      "to": 3792,
      "birim": 3793,
      "hala": 3794,
      "çapında": 3795,
      "Fenerbahçe": 3796,
      "##zon": 3797,
      "##asıl": 3798,
      "onları": 3799,
      "aile": 3800,
      "##in'in": 3801,
      "kullanım": 3802,
      "albümün": 3803,
      "Filmin": 3804,
      "İsviç": 3805,
      "ekip": 3806,
      "Eğit": 3807,
      "sektör": 3808,
      "##lâ": 3809,
      "##'le": 3810,
      "sonradan": 3811,
      "giydi": 3812,
      "şehrinde": 3813,
      "Bor": 3814,
      "##lerce": 3815,
      "yaşadığı": 3816,
      "köpr": 3817,
      "eşi": 3818,
      "Hind": 3819,
      "Lou": 3820,
      "##gr": 3821,
      "doğr": 3822,
      "uzay": 3823,
      "çevre": 3824,
      "başardı": 3825,
      "##ona": 3826,
      "isyan": 3827,
      "oynayan": 3828,
      "satışa": 3829,
      "ortalama": 3830,
      "nerede": 3831,
      "ey": 3832,
      "kalı": 3833,
      "##sü": 3834,
      "kural": 3835,
      "koşul": 3836,
      "Dar": 3837,
      "Fars": 3838,
      "Küçük": 3839,
      "Ocak": 3840,
      "ilgi": 3841,
      "Milli": 3842,
      "Peter": 3843,
      "tehlik": 3844,
      "Ağustos": 3845,
      "Et": 3846,
      "##ann": 3847,
      "gelmektedir": 3848,
      "tablo": 3849,
      "Belç": 3850,
      "yükseldi": 3851,
      "Kasım": 3852,
      "takımında": 3853,
      "şiddet": 3854,
      "Krallığı": 3855,
      "hatta": 3856,
      "Da": 3857,
      "arka": 3858,
      "üyeleri": 3859,
      "geleneksel": 3860,
      "Moskova": 3861,
      "biy": 3862,
      "sek": 3863,
      "##iri": 3864,
      "vermiştir": 3865,
      "yakal": 3866,
      "gazete": 3867,
      "Trab": 3868,
      "##ilip": 3869,
      "milletvek": 3870,
      "uğr": 3871,
      "No": 3872,
      "plat": 3873,
      "##daş": 3874,
      "kullanılmaktadır": 3875,
      "kişinin": 3876,
      "Enstit": 3877,
      "karşın": 3878,
      "lim": 3879,
      "##danı": 3880,
      "öne": 3881,
      "internet": 3882,
      "[YEAR]'den": 3883,
      "müziği": 3884,
      "basketbol": 3885,
      "Gr": 3886,
      "Çocu": 3887,
      "##işleri": 3888,
      "alınan": 3889,
      "Video": 3890,
      "Yaş": 3891,
      "##mesinin": 3892,
      "Ba": 3893,
      "##raman": 3894,
      "yerleştir": 3895,
      "oluşturur": 3896,
      "kaynağı": 3897,
      "Beyaz": 3898,
      "200": 3899,
      "güc": 3900,
      "##çesi": 3901,
      "##bin": 3902,
      "##iyade": 3903,
      "##diğini": 3904,
      "kayded": 3905,
      "prot": 3906,
      "##obil": 3907,
      "etkili": 3908,
      "tahmin": 3909,
      "kasab": 3910,
      "Angeles": 3911,
      "28": 3912,
      "II": 3913,
      "kış": 3914,
      "##aket": 3915,
      "##lamen": 3916,
      "##ester": 3917,
      "Arn": 3918,
      "böylece": 3919,
      "la": 3920,
      "üs": 3921,
      "##cisi": 3922,
      "##lıkları": 3923,
      "çatışma": 3924,
      "takımyıldızı": 3925,
      "##dem": 3926,
      "##lıca": 3927,
      "etkisi": 3928,
      "bölümünde": 3929,
      "Ukrayna": 3930,
      "Cez": 3931,
      "sap": 3932,
      "saha": 3933,
      "yıllık": 3934,
      "içindeki": 3935,
      "satın": 3936,
      "çocuğu": 3937,
      "Mir": 3938,
      "hen": 3939,
      "##ayla": 3940,
      "şirketi": 3941,
      "Feder": 3942,
      "RNA": 3943,
      "Sw": 3944,
      "##ena": 3945,
      "##lamaktadır": 3946,
      "İnsan": 3947,
      "Bla": 3948,
      "seri": 3949,
      "##lya": 3950,
      "##.A": 3951,
      "Güneş": 3952,
      "Prens": 3953,
      "cep": 3954,
      "tale": 3955,
      "##zerk": 3956,
      "çıkart": 3957,
      "devr": 3958,
      "Adam": 3959,
      "Lov": 3960,
      "##emesi": 3961,
      "##eyn": 3962,
      "##laşma": 3963,
      "Fransa'nın": 3964,
      "sivil": 3965,
      "Gö": 3966,
      "Irak": 3967,
      "##aları": 3968,
      "##amak": 3969,
      "##ukarı": 3970,
      "ticaret": 3971,
      "Zaman": 3972,
      "diye": 3973,
      "##mut": 3974,
      "##us'un": 3975,
      "Sah": 3976,
      "tarihleri": 3977,
      "yüzey": 3978,
      "Tam": 3979,
      "##mar": 3980,
      "##ung": 3981,
      "##isiyle": 3982,
      "araya": 3983,
      "azal": 3984,
      "yeter": 3985,
      "lisans": 3986,
      "Komut": 3987,
      "Arapça": 3988,
      "kökenli": 3989,
      "Yine": 3990,
      "mar": 3991,
      "##ld": 3992,
      "##oc": 3993,
      "##ındır": 3994,
      "hakim": 3995,
      "Konstan": 3996,
      "Rom": 3997,
      "##uyor": 3998,
      "Tiyatro": 3999,
      "Yayın": 4000,
      "##ling": 4001,
      "##'dır.": 4002,
      "##usal": 4003,
      "##trat": 4004,
      "kişiler": 4005,
      "kök": 4006,
      "eğitimi": 4007,
      "Şubat": 4008,
      "Gre": 4009,
      "belediye": 4010,
      "sim": 4011,
      "##giller": 4012,
      "Wor": 4013,
      "rak": 4014,
      "rüt": 4015,
      "şair": 4016,
      "##landığı": 4017,
      "birlikleri": 4018,
      "kıy": 4019,
      "gür": 4020,
      "üc": 4021,
      "orij": 4022,
      "düşman": 4023,
      "Gazet": 4024,
      "FIFA": 4025,
      "cem": 4026,
      "mac": 4027,
      "##irler": 4028,
      "##itesi": 4029,
      "##tılan": 4030,
      "donan": 4031,
      "Kut": 4032,
      "ac": 4033,
      "##ovision": 4034,
      "yönetimi": 4035,
      "##hane": 4036,
      "sanatç": 4037,
      "##tis": 4038,
      "##ğından": 4039,
      "##und": 4040,
      "##amadı": 4041,
      "sinyal": 4042,
      "Komünist": 4043,
      "##mamış": 4044,
      "Gök": 4045,
      "del": 4046,
      "hukuk": 4047,
      "Çek": 4048,
      "##eth": 4049,
      "##ümüş": 4050,
      "##okrat": 4051,
      "##meler": 4052,
      "vatandaş": 4053,
      "Final": 4054,
      "##N]": 4055,
      "##ata": 4056,
      "##mıyla": 4057,
      "kalmıştır": 4058,
      "karşılık": 4059,
      "##lığının": 4060,
      "kaps": 4061,
      "molek": 4062,
      "gelecek": 4063,
      "re": 4064,
      "##asi": 4065,
      "##lılar": 4066,
      "##ülü": 4067,
      "üstün": 4068,
      "düşünül": 4069,
      "değişiklik": 4070,
      "FC": 4071,
      "Gazi": 4072,
      "##eği": 4073,
      "##çak": 4074,
      "##eyle": 4075,
      "yapmaya": 4076,
      "##egor": 4077,
      "Eurovision": 4078,
      "##doğu": 4079,
      "##onomi": 4080,
      "kullanılmıştır": 4081,
      "çalışmaya": 4082,
      "akım": 4083,
      "aktar": 4084,
      "Almanya'nın": 4085,
      "Michael": 4086,
      "##şte": 4087,
      "bulut": 4088,
      "dalında": 4089,
      "civarında": 4090,
      "Alex": 4091,
      "Grand": 4092,
      "klasik": 4093,
      "yavaş": 4094,
      "##RT": 4095,
      "insanların": 4096,
      "Eğer": 4097,
      "yapıl": 4098,
      "##istan'da": 4099,
      "Kons": 4100,
      "durumu": 4101,
      "birey": 4102,
      "##amaz": 4103,
      "edebiyat": 4104,
      "Uygur": 4105,
      "standart": 4106,
      "yedi": 4107,
      "İst": 4108,
      "##erler": 4109,
      "birleştir": 4110,
      "##rix": 4111,
      "sağladı": 4112,
      "derin": 4113,
      "ödülü": 4114,
      "Kralı": 4115,
      "##gre": 4116,
      "yapar": 4117,
      "anal": 4118,
      "üniversite": 4119,
      "mevcuttur": 4120,
      "bazen": 4121,
      "iy": 4122,
      "##amb": 4123,
      "kadros": 4124,
      "esn": 4125,
      "türüdür": 4126,
      "sarmal": 4127,
      "##elsef": 4128,
      "orada": 4129,
      "War": 4130,
      "frek": 4131,
      "##ğına": 4132,
      "durdur": 4133,
      "tasarım": 4134,
      "biçimde": 4135,
      "Hük": 4136,
      "Park": 4137,
      "kum": 4138,
      "nasıl": 4139,
      "plak": 4140,
      "##dae": 4141,
      "basın": 4142,
      "Çok": 4143,
      "##ano": 4144,
      "##lamış": 4145,
      "etme": 4146,
      "açısından": 4147,
      "Avrupa'da": 4148,
      "Akadem": 4149,
      "kırmızı": 4150,
      "Suriye": 4151,
      "İsviçre": 4152,
      "ücret": 4153,
      "##ayıf": 4154,
      "##başı": 4155,
      "##lon": 4156,
      "almak": 4157,
      "##tiğini": 4158,
      "Mahk": 4159,
      "yaşındayken": 4160,
      "Şah": 4161,
      "##lıdır": 4162,
      "seviy": 4163,
      "Fransızca": 4164,
      "Cor": 4165,
      "Diy": 4166,
      "##kest": 4167,
      "bulunmuştur": 4168,
      "##gue": 4169,
      "başarısız": 4170,
      "ihtiy": 4171,
      "Trabzon": 4172,
      "Ac": 4173,
      "sekiz": 4174,
      "##tez": 4175,
      "yaptık": 4176,
      "##ott": 4177,
      "sağlık": 4178,
      "yönetic": 4179,
      "orijinal": 4180,
      "mark": 4181,
      "yeri": 4182,
      "bileş": 4183,
      "yarışma": 4184,
      "mekt": 4185,
      "ır": 4186,
      "şart": 4187,
      "##deb": 4188,
      "##ish": 4189,
      "##form": 4190,
      "##ational": 4191,
      "annesi": 4192,
      "##üstü": 4193,
      "Naz": 4194,
      "Rec": 4195,
      "##çu": 4196,
      "##.5": 4197,
      "buldu": 4198,
      "##mişlerdir": 4199,
      "##oyu": 4200,
      "##elerini": 4201,
      "kısım": 4202,
      "İngiltere'de": 4203,
      "henüz": 4204,
      "##doğ": 4205,
      "##'nün": 4206,
      "evren": 4207,
      "ilgilen": 4208,
      "kıyı": 4209,
      "##en'in": 4210,
      "day": 4211,
      "yurt": 4212,
      "##ıma": 4213,
      "##lıklar": 4214,
      "yardı": 4215,
      "aktör": 4216,
      "harf": 4217,
      "listelerinde": 4218,
      "madalya": 4219,
      "Belçika": 4220,
      "Şark": 4221,
      "Okulu": 4222,
      "ilçesine": 4223,
      "han": 4224,
      "yayı": 4225,
      "yeti": 4226,
      "##TV": 4227,
      "sürüm": 4228,
      "##laşması": 4229,
      "resm": 4230,
      "dışı": 4231,
      "##ileceğini": 4232,
      "dağıt": 4233,
      "World": 4234,
      "Fa": 4235,
      "Geç": 4236,
      "Pal": 4237,
      "Sü": 4238,
      "med": 4239,
      "##minci": 4240,
      "##alim": 4241,
      "##madı": 4242,
      "kararı": 4243,
      "Brez": 4244,
      "80": 4245,
      "##ela": 4246,
      "sabit": 4247,
      "zirv": 4248,
      "neredeyse": 4249,
      "test": 4250,
      "##'yu": 4251,
      "kullanarak": 4252,
      "İstanbul'da": 4253,
      "Asya": 4254,
      "Merkezi": 4255,
      "kür": 4256,
      "vaz": 4257,
      "##lanarak": 4258,
      "##orf": 4259,
      "görülen": 4260,
      "yüzyılın": 4261,
      "bahs": 4262,
      "Fo": 4263,
      "Vak": 4264,
      "meş": 4265,
      "##sak": 4266,
      "##larıdır": 4267,
      "finalde": 4268,
      "Bunlar": 4269,
      "Müslüman": 4270,
      "Moğol": 4271,
      "Eli": 4272,
      "Sezar": 4273,
      "İb": 4274,
      "##rid": 4275,
      "asist": 4276,
      "serv": 4277,
      "aşırı": 4278,
      "seyahat": 4279,
      "Haç": 4280,
      "Vol": 4281,
      "##iet": 4282,
      "##ny": 4283,
      "devre": 4284,
      "girmiştir": 4285,
      "öğrenci": 4286,
      "söyledi": 4287,
      "asıllı": 4288,
      "Kemal": 4289,
      "rütb": 4290,
      "şah": 4291,
      "##yap": 4292,
      "##,5": 4293,
      "edilmesi": 4294,
      "sert": 4295,
      "Kam": 4296,
      "ah": 4297,
      "ban": 4298,
      "elektrik": 4299,
      "Jean": 4300,
      "kanıt": 4301,
      "Cel": 4302,
      "ister": 4303,
      "##rag": 4304,
      "iletiş": 4305,
      "##ever": 4306,
      "yere": 4307,
      "##lenmesi": 4308,
      "##erson": 4309,
      "tanıt": 4310,
      "kaybetti": 4311,
      "Venedik": 4312,
      "hapis": 4313,
      "Eğitim": 4314,
      "Kıs": 4315,
      "##way": 4316,
      "yapılır": 4317,
      "yerde": 4318,
      "kons": 4319,
      "bilinmektedir": 4320,
      "Yahudiler": 4321,
      "bunların": 4322,
      "Günümüzde": 4323,
      "60": 4324,
      "Pas": 4325,
      "##eliği": 4326,
      "takımına": 4327,
      "teklisi": 4328,
      "29": 4329,
      "Küb": 4330,
      "Men": 4331,
      "zayıf": 4332,
      "##sika": 4333,
      "##bar": 4334,
      "Millet": 4335,
      "uzaklıkta": 4336,
      "ö.": 4337,
      "##e'nin": 4338,
      "yaparak": 4339,
      "kategor": 4340,
      "yayımlandı": 4341,
      "Konstantin": 4342,
      "##ıcı": 4343,
      "geçiş": 4344,
      "Cumhurbaş": 4345,
      "Festivali": 4346,
      "##adan": 4347,
      "##udu": 4348,
      "##gılan": 4349,
      "içerir": 4350,
      "politika": 4351,
      "hasta": 4352,
      "Ödülleri": 4353,
      "teklif": 4354,
      "barış": 4355,
      "Tah": 4356,
      "Van": 4357,
      "##a'ya": 4358,
      "##igh": 4359,
      "maçına": 4360,
      "etkilen": 4361,
      "##liğin": 4362,
      "ağaç": 4363,
      "kamu": 4364,
      "Kültür": 4365,
      "bor": 4366,
      "ters": 4367,
      "açıkladı": 4368,
      "Tok": 4369,
      "böyle": 4370,
      "çoğ": 4371,
      "##tarı": 4372,
      "##dt": 4373,
      "##lardaki": 4374,
      "##yaleti": 4375,
      "ikti": 4376,
      "Derneği": 4377,
      "çoğunlukla": 4378,
      "büny": 4379,
      "##nam": 4380,
      "##elli": 4381,
      "##ulmuş": 4382,
      "köş": 4383,
      "dolayısıyla": 4384,
      "##layıp": 4385,
      "güneyinde": 4386,
      "kayıp": 4387,
      "enerji": 4388,
      "Alek": 4389,
      "Ke": 4390,
      "Sey": 4391,
      "gücü": 4392,
      "pen": 4393,
      "##ole": 4394,
      "##ath": 4395,
      "##ett": 4396,
      "##ita": 4397,
      "##ilme": 4398,
      "süreç": 4399,
      "ABD'nin": 4400,
      "Stady": 4401,
      "Pe": 4402,
      "hid": 4403,
      "##isel": 4404,
      "alanda": 4405,
      "kentinde": 4406,
      "girişim": 4407,
      "Lin": 4408,
      "Maç": 4409,
      "psik": 4410,
      "##olik": 4411,
      "araz": 4412,
      "yandan": 4413,
      "Karl": 4414,
      "Rusça": 4415,
      "##bert": 4416,
      "##brah": 4417,
      "toplamda": 4418,
      "mec": 4419,
      "nedeni": 4420,
      "ortadan": 4421,
      "saray": 4422,
      "Yardım": 4423,
      "Başkanlığı": 4424,
      "keşfedilmiştir": 4425,
      "tr": 4426,
      "tat": 4427,
      "##ğan": 4428,
      "pazar": 4429,
      "##sur": 4430,
      "##çta": 4431,
      "##ora": 4432,
      "gerekir": 4433,
      "Muhareb": 4434,
      "mesaf": 4435,
      "Yönet": 4436,
      "90": 4437,
      "Nap": 4438,
      "niş": 4439,
      "##lendiği": 4440,
      "örneğin": 4441,
      "##alandı": 4442,
      "bina": 4443,
      "mu": 4444,
      "şöyle": 4445,
      "##maş": 4446,
      "gök": 4447,
      "yaşan": 4448,
      "katılı": 4449,
      "işaret": 4450,
      "kapı": 4451,
      "komünist": 4452,
      "açıklama": 4453,
      "çizgi": 4454,
      "##yasından": 4455,
      "dram": 4456,
      "oyunun": 4457,
      "sağlamak": 4458,
      "Kaliforn": 4459,
      "Kulüb": 4460,
      "Enstitüsü": 4461,
      "ref": 4462,
      "##cin": 4463,
      "##bek": 4464,
      "##ât": 4465,
      "##ike": 4466,
      "kenti": 4467,
      "devrim": 4468,
      "[YEAR]'li": 4469,
      "Sonra": 4470,
      "Sağ": 4471,
      "##yolu": 4472,
      "açılı": 4473,
      "Devletleri": 4474,
      "cemaat": 4475,
      "##yar": 4476,
      "##ema": 4477,
      "başv": 4478,
      "verilir": 4479,
      "##iyatrosu": 4480,
      "teknoloj": 4481,
      "muhareb": 4482,
      "Sak": 4483,
      "Tun": 4484,
      "cüce": 4485,
      "mm": 4486,
      "##ematik": 4487,
      "kesim": 4488,
      "##çev": 4489,
      "##che": 4490,
      "##amış": 4491,
      "##üyor": 4492,
      "getirildi": 4493,
      "tespit": 4494,
      "Yirminci": 4495,
      "Çocuk": 4496,
      "Belediy": 4497,
      "Ex": 4498,
      "cid": 4499,
      "Aralık": 4500,
      "Amerika'da": 4501,
      "Ra": 4502,
      "herk": 4503,
      "yemek": 4504,
      "##kır": 4505,
      "##ideri": 4506,
      "katılan": 4507,
      "özgün": 4508,
      "Erkek": 4509,
      "öğretmen": 4510,
      "Yarışması": 4511,
      "##ıyor": 4512,
      "##geç": 4513,
      "##elç": 4514,
      "##likleri": 4515,
      "doğum": 4516,
      "gösterime": 4517,
      "çekildi": 4518,
      "kurucu": 4519,
      "kuzeyinde": 4520,
      "Muham": 4521,
      "George": 4522,
      "emekli": 4523,
      "mon": 4524,
      "Rock": 4525,
      "Cen": 4526,
      "Mic": 4527,
      "sarı": 4528,
      "göl": 4529,
      "onların": 4530,
      "##elere": 4531,
      "halde": 4532,
      "denk": 4533,
      "Bölümü": 4534,
      "Sil": 4535,
      "##malı": 4536,
      "##âr": 4537,
      "günlük": 4538,
      "araştır": 4539,
      "makale": 4540,
      "Sırp": 4541,
      "Tab": 4542,
      "cm": 4543,
      "dip": 4544,
      "##mon": 4545,
      "##imli": 4546,
      "##afız": 4547,
      "##ruk": 4548,
      "sıral": 4549,
      "çağr": 4550,
      "##ütte": 4551,
      "aslında": 4552,
      "dönemin": 4553,
      "Şir": 4554,
      "##wn": 4555,
      "##eld": 4556,
      "çalışır": 4557,
      "Thom": 4558,
      "maden": 4559,
      "tören": 4560,
      "egemen": 4561,
      "Cal": 4562,
      "##liler": 4563,
      "korun": 4564,
      "olmadığını": 4565,
      "Ken": 4566,
      "cev": 4567,
      "birinc": 4568,
      "##ebek": 4569,
      "##leyerek": 4570,
      "istif": 4571,
      "Almanya'da": 4572,
      "futbolcudur": 4573,
      "Farsça": 4574,
      "City": 4575,
      "##yle": 4576,
      "##y'nin": 4577,
      "##wood": 4578,
      "başlarında": 4579,
      "##örü": 4580,
      "doğrudan": 4581,
      "babasının": 4582,
      "familyasından": 4583,
      "Hor": 4584,
      "Yıldız": 4585,
      "##âh": 4586,
      "aralarında": 4587,
      "öncesi": 4588,
      "70": 4589,
      "rö": 4590,
      "##rah": 4591,
      "biraz": 4592,
      "##ife": 4593,
      "halen": 4594,
      "belirli": 4595,
      "eylem": 4596,
      "##üttefik": 4597,
      "35": 4598,
      "Dil": 4599,
      "Play": 4600,
      "fab": 4601,
      "tay": 4602,
      "vak": 4603,
      "##uklu": 4604,
      "Hers": 4605,
      "Sat": 4606,
      "##mamıştır": 4607,
      "##er'in": 4608,
      "##dal": 4609,
      "veri": 4610,
      "akadem": 4611,
      "Franc": 4612,
      "kralı": 4613,
      "sergilen": 4614,
      "Kaliforniya": 4615,
      "ham": 4616,
      "##lum": 4617,
      "düşür": 4618,
      "ailesi": 4619,
      "Fried": 4620,
      "Record": 4621,
      "Dur": 4622,
      "Mün": 4623,
      "Mem": 4624,
      "it": 4625,
      "men": 4626,
      "nın": 4627,
      "val": 4628,
      "vokal": 4629,
      "##engi": 4630,
      "erken": 4631,
      "kanat": 4632,
      "##layıcı": 4633,
      "barındır": 4634,
      "##koç": 4635,
      "Kir": 4636,
      "Ur": 4637,
      "Ve": 4638,
      "ış": 4639,
      "##lom": 4640,
      "##sat": 4641,
      "prob": 4642,
      "##lemesi": 4643,
      "galib": 4644,
      "fikir": 4645,
      "ölçüde": 4646,
      "45": 4647,
      "Taş": 4648,
      "##cının": 4649,
      "##ington": 4650,
      "yasak": 4651,
      "Edeb": 4652,
      "Lib": 4653,
      "Seç": 4654,
      "bölgesi": 4655,
      "yönettiği": 4656,
      "komutanı": 4657,
      "cins": 4658,
      "Edward": 4659,
      "Sek": 4660,
      "idam": 4661,
      "nak": 4662,
      "durumunda": 4663,
      "şampiyonu": 4664,
      "Kazak": 4665,
      "Louis": 4666,
      "Sun": 4667,
      "Sol": 4668,
      "##ven": 4669,
      "doğan": 4670,
      "geçirdi": 4671,
      "po": 4672,
      "rom": 4673,
      "tıp": 4674,
      "def": 4675,
      "##aga": 4676,
      "olduğundan": 4677,
      "IP": 4678,
      "##imiz": 4679,
      "##aport": 4680,
      "kadro": 4681,
      "basit": 4682,
      "yetiştir": 4683,
      "Wind": 4684,
      "festiv": 4685,
      "lideri": 4686,
      "yir": 4687,
      "##SA": 4688,
      "##larca": 4689,
      "ilçe": 4690,
      "Almanca": 4691,
      "denir": 4692,
      "##lemeye": 4693,
      "komş": 4694,
      "ismini": 4695,
      "Bol": 4696,
      "Spe": 4697,
      "Tat": 4698,
      "##odi": 4699,
      "##oley": 4700,
      "##use": 4701,
      "##ağa": 4702,
      "bölün": 4703,
      "oyunc": 4704,
      "oynamıştır": 4705,
      "hakkı": 4706,
      "başlamış": 4707,
      "Sonr": 4708,
      "formula": 4709,
      "36": 4710,
      "##ilmişti": 4711,
      "listesine": 4712,
      "32": 4713,
      "Gül": 4714,
      "mens": 4715,
      "##ian": 4716,
      "##uel": 4717,
      "##fab": 4718,
      "##atürk": 4719,
      "olmaya": 4720,
      "sorumlu": 4721,
      "Richard": 4722,
      "Jun": 4723,
      "cumhur": 4724,
      "##nak": 4725,
      "##kur": 4726,
      "##'taki": 4727,
      "##cilik": 4728,
      "##imark": 4729,
      "##ceğini": 4730,
      "Bursa": 4731,
      "Ligi'nde": 4732,
      "Takım": 4733,
      "Ahmet": 4734,
      "ruh": 4735,
      "##no": 4736,
      "İskoç": 4737,
      "hastan": 4738,
      "öğretim": 4739,
      "Danimark": 4740,
      "Süley": 4741,
      "Din": 4742,
      "Of": 4743,
      "düzenli": 4744,
      "##ows": 4745,
      "çalışmalar": 4746,
      "Atatürk": 4747,
      "mezar": 4748,
      "frekans": 4749,
      "Bağ": 4750,
      "Göz": 4751,
      "hit": 4752,
      "kade": 4753,
      "##ilerinde": 4754,
      "##elebi": 4755,
      "gösterildi": 4756,
      "##yaspor": 4757,
      "heykel": 4758,
      "stady": 4759,
      "duvar": 4760,
      "min": 4761,
      "##bet": 4762,
      "##uri": 4763,
      "etmesi": 4764,
      "eline": 4765,
      "##own": 4766,
      "bunlar": 4767,
      "##tratej": 4768,
      "To": 4769,
      "bundan": 4770,
      "lib": 4771,
      "prens": 4772,
      "##elerine": 4773,
      "istasyon": 4774,
      "##maşık": 4775,
      "beğ": 4776,
      "##ura": 4777,
      "##mız": 4778,
      "enz": 4779,
      "güneş": 4780,
      "maça": 4781,
      "##birliği": 4782,
      "rolü": 4783,
      "oranı": 4784,
      "Meksika": 4785,
      "Kilis": 4786,
      "##lamento": 4787,
      "31": 4788,
      "Hrist": 4789,
      "Pin": 4790,
      "##'teki": 4791,
      "##espor": 4792,
      "özelliği": 4793,
      "ödülünü": 4794,
      "Sab": 4795,
      "dam": 4796,
      "porn": 4797,
      "##mit": 4798,
      "verilm": 4799,
      "kenesi": 4800,
      "isten": 4801,
      "Oyuncu": 4802,
      "Panzer": 4803,
      "Britanya": 4804,
      "pr": 4805,
      "##ceği": 4806,
      "##afer": 4807,
      "gören": 4808,
      "##lub": 4809,
      "yaşlı": 4810,
      "##içek": 4811,
      "##ograf": 4812,
      "##okratik": 4813,
      "giderek": 4814,
      "Akademisi": 4815,
      "Süleyman": 4816,
      "Fr": 4817,
      "Söz": 4818,
      "gec": 4819,
      "Çelebi": 4820,
      "##cası": 4821,
      "##amet": 4822,
      "##tep": 4823,
      "insanlar": 4824,
      "filmidir": 4825,
      "senary": 4826,
      "paylaş": 4827,
      "öykü": 4828,
      "300": 4829,
      "Form": 4830,
      "Mu": 4831,
      "ab": 4832,
      "saf": 4833,
      "##ülmüştür": 4834,
      "Birçok": 4835,
      "##edeki": 4836,
      "##lerindeki": 4837,
      "beşinci": 4838,
      "yönetmenliğini": 4839,
      "kilis": 4840,
      "seyir": 4841,
      "Kas": 4842,
      "Say": 4843,
      "Sup": 4844,
      "West": 4845,
      "des": 4846,
      "##iyana": 4847,
      "ilet": 4848,
      "önünde": 4849,
      "Erz": 4850,
      "sınırları": 4851,
      "ilaç": 4852,
      "Uzun": 4853,
      "##ati": 4854,
      "etki": 4855,
      "kalab": 4856,
      "bölgeye": 4857,
      "çekim": 4858,
      "düşünce": 4859,
      "programı": 4860,
      "Poli": 4861,
      "müs": 4862,
      "##lili": 4863,
      "birisi": 4864,
      "artır": 4865,
      "Akdeniz": 4866,
      "golünü": 4867,
      "ölümünden": 4868,
      "atandı": 4869,
      "sokak": 4870,
      "finale": 4871,
      "Ebu": 4872,
      "Friedrich": 4873,
      "geçerek": 4874,
      "Lea": 4875,
      "olacaktır": 4876,
      "Balkan": 4877,
      "Ir": 4878,
      "##fak": 4879,
      "##erçev": 4880,
      "##amaya": 4881,
      "##ları'nda": 4882,
      "filminin": 4883,
      "evlen": 4884,
      "dönemi": 4885,
      "hızla": 4886,
      "##luğunda": 4887,
      "Jovi": 4888,
      "Ob": 4889,
      "##rip": 4890,
      "##'ü": 4891,
      "##ağında": 4892,
      "aracılığı": 4893,
      "Max": 4894,
      "davet": 4895,
      "galak": 4896,
      "Hein": 4897,
      "Love": 4898,
      "##brahim": 4899,
      "Fat": 4900,
      "Kn": 4901,
      "ces": 4902,
      "fak": 4903,
      "##ıştır": 4904,
      "##gor": 4905,
      "##esiz": 4906,
      "##ella": 4907,
      "Anton": 4908,
      "gereken": 4909,
      "dünyada": 4910,
      "Kupası'nda": 4911,
      "Belediye": 4912,
      "Ze": 4913,
      "di": 4914,
      "felsef": 4915,
      "hiss": 4916,
      "Çal": 4917,
      "##veç": 4918,
      "##ğinin": 4919,
      "##day": 4920,
      "##üme": 4921,
      "kullanıldı": 4922,
      "oluşmaktadır": 4923,
      "çıkardı": 4924,
      "Savaşı'nda": 4925,
      "##off": 4926,
      "kariyerine": 4927,
      "mahkûm": 4928,
      "Jac": 4929,
      "Tiyatrosu": 4930,
      "Viyana": 4931,
      "balık": 4932,
      "gar": 4933,
      "göstermektedir": 4934,
      "yoluyla": 4935,
      "ihtiyaç": 4936,
      "Dış": 4937,
      "yola": 4938,
      "öde": 4939,
      "##dit": 4940,
      "##ezi": 4941,
      "##avut": 4942,
      "hafif": 4943,
      "çalıştır": 4944,
      "Yunanistan": 4945,
      "emr": 4946,
      "pozisyon": 4947,
      "pil": 4948,
      "##kân": 4949,
      "##on'un": 4950,
      "##oru": 4951,
      "edin": 4952,
      "##ilenin": 4953,
      "##cht": 4954,
      "yönetmeni": 4955,
      "ayrılır": 4956,
      "##ijital": 4957,
      "##ömür": 4958,
      "Ban": 4959,
      "Ey": 4960,
      "Emin": 4961,
      "Yaz": 4962,
      "##ille": 4963,
      "birimi": 4964,
      "##lenmektedir": 4965,
      "tarihlerinde": 4966,
      "seçilen": 4967,
      "isteyen": 4968,
      "edecek": 4969,
      "##oft": 4970,
      "##ometre": 4971,
      "Kör": 4972,
      "Yazar": 4973,
      "cis": 4974,
      "##lerdi": 4975,
      "##isinden": 4976,
      "çekir": 4977,
      "müzisyen": 4978,
      "dolar": 4979,
      "bitk": 4980,
      "##lüğünü": 4981,
      "nesil": 4982,
      "Norveç": 4983,
      "Aşağı": 4984,
      "Far": 4985,
      "Prix": 4986,
      "giden": 4987,
      "##ydi": 4988,
      "##batı": 4989,
      "##tic": 4990,
      "vermek": 4991,
      "[YEAR]'ten": 4992,
      "Christ": 4993,
      "ciddi": 4994,
      "romanı": 4995,
      "Lo": 4996,
      "nükle": 4997,
      "##so": 4998,
      "oldukları": 4999,
      "Ann": 5000,
      "yazılan": 5001,
      "yıllarında": 5002,
      "çekilmiştir": 5003,
      "##tikten": 5004,
      "Records": 5005,
      "500": 5006,
      "Adana": 5007,
      "Fi": 5008,
      "Pop": 5009,
      "TRT": 5010,
      "gemi": 5011,
      "##mey": 5012,
      "##hel": 5013,
      "yılın": 5014,
      "serisi": 5015,
      "benim": 5016,
      "seviye": 5017,
      "taht": 5018,
      "Şampiyonlar": 5019,
      "Kulübü": 5020,
      "Muhammed": 5021,
      "Yol": 5022,
      "##raj": 5023,
      "protein": 5024,
      "aktiv": 5025,
      "albümüdür": 5026,
      "Meclisi": 5027,
      "Cephesi": 5028,
      "resmî": 5029,
      "##don": 5030,
      "##uta": 5031,
      "##iyeri": 5032,
      "hatt": 5033,
      "ligi": 5034,
      "olduğuna": 5035,
      "aşağıdaki": 5036,
      "enerj": 5037,
      "Joseph": 5038,
      "Federasyonu": 5039,
      "##oleybol": 5040,
      "emir": 5041,
      "çerçev": 5042,
      "##ota": 5043,
      "halka": 5044,
      "dizisinde": 5045,
      "ayrıl": 5046,
      "oyuncular": 5047,
      "bilgiler": 5048,
      "Batman": 5049,
      "yazılım": 5050,
      "Arnavut": 5051,
      "Bundan": 5052,
      "Hint": 5053,
      "dini": 5054,
      "##iyel": 5055,
      "Ort": 5056,
      "değişim": 5057,
      "##liğinin": 5058,
      "##yetik": 5059,
      "##yasal": 5060,
      "yanlış": 5061,
      "Il": 5062,
      "Siv": 5063,
      "yı": 5064,
      "halkı": 5065,
      "elinde": 5066,
      "Chris": 5067,
      "eriş": 5068,
      "listesi": 5069,
      "şarkının": 5070,
      "tartış": 5071,
      "esnasında": 5072,
      "Küt": 5073,
      "##ty": 5074,
      "içeri": 5075,
      "sonuna": 5076,
      "görür": 5077,
      "gösterdi": 5078,
      "derec": 5079,
      "etkileş": 5080,
      "##ğretim": 5081,
      "Cas": 5082,
      "Lit": 5083,
      "bası": 5084,
      "##ıyordu": 5085,
      "##pen": 5086,
      "görüle": 5087,
      "kazandır": 5088,
      "bıraktı": 5089,
      "Profes": 5090,
      "##que": 5091,
      "Tümeni": 5092,
      "Madrid": 5093,
      "iletişim": 5094,
      "Pen": 5095,
      "##say": 5096,
      "##süz": 5097,
      "##lesi": 5098,
      "##urta": 5099,
      "##rav": 5100,
      "##os'un": 5101,
      "esir": 5102,
      "sezonunun": 5103,
      "##lerdeki": 5104,
      "##tikleri": 5105,
      "klibi": 5106,
      "fiziksel": 5107,
      "ten": 5108,
      "çök": 5109,
      "##rit": 5110,
      "karanlık": 5111,
      "##osunu": 5112,
      "Ameri": 5113,
      "sezonda": 5114,
      "komutan": 5115,
      "birbirine": 5116,
      "adlandırılan": 5117,
      "Kos": 5118,
      "best": 5119,
      "leh": 5120,
      "yansı": 5121,
      "İbrahim": 5122,
      "##mo": 5123,
      "##ux": 5124,
      "##lemiştir": 5125,
      "çekilen": 5126,
      "değişen": 5127,
      "##ücut": 5128,
      "##ford": 5129,
      "sahnelen": 5130,
      "Hasan": 5131,
      "Black": 5132,
      "Cam": 5133,
      "##tle": 5134,
      "##okol": 5135,
      "endü": 5136,
      "##ersiz": 5137,
      "Leon": 5138,
      "özellikleri": 5139,
      "ağı": 5140,
      "##âtı": 5141,
      "ins": 5142,
      "adım": 5143,
      "senesinde": 5144,
      "organizasyon": 5145,
      "Bank": 5146,
      "##şi": 5147,
      "##del": 5148,
      "##oslav": 5149,
      "##işi": 5150,
      "##caktır": 5151,
      "müdür": 5152,
      "dizisi": 5153,
      "toplantı": 5154,
      "Sic": 5155,
      "hoş": 5156,
      "park": 5157,
      "##we": 5158,
      "sürec": 5159,
      "oluşturan": 5160,
      "Kolordu": 5161,
      "Sm": 5162,
      "tren": 5163,
      "##ban": 5164,
      "##ira": 5165,
      "##'nü": 5166,
      "kendisinin": 5167,
      "Yunanca": 5168,
      "milletvekili": 5169,
      "Hristiyan": 5170,
      "Bos": 5171,
      "Jim": 5172,
      "Vic": 5173,
      "eğer": 5174,
      "##dah": 5175,
      "##ullah": 5176,
      "##emli": 5177,
      "##emez": 5178,
      "başlıca": 5179,
      "##chel": 5180,
      "eleme": 5181,
      "temiz": 5182,
      "üretimi": 5183,
      "süp": 5184,
      "şef": 5185,
      "##laz": 5186,
      "##urum": 5187,
      "##eyrek": 5188,
      "##malar": 5189,
      "karmaşık": 5190,
      "##ayıp": 5191,
      "Aydın": 5192,
      "##uluğ": 5193,
      "terim": 5194,
      "Albümün": 5195,
      "kapsamında": 5196,
      "şans": 5197,
      "##köy": 5198,
      "birden": 5199,
      "##ayas": 5200,
      "##istin": 5201,
      "yazılmış": 5202,
      "##ive": 5203,
      "attığı": 5204,
      "haft": 5205,
      "makine": 5206,
      "imza": 5207,
      "ticari": 5208,
      "King": 5209,
      "Mey": 5210,
      "İli": 5211,
      "##tısı": 5212,
      "olumlu": 5213,
      "görevlendir": 5214,
      "altındaki": 5215,
      "olmadı": 5216,
      "otomobil": 5217,
      "Kısa": 5218,
      "Tol": 5219,
      "sakat": 5220,
      "##ja": 5221,
      "##ence": 5222,
      "##danın": 5223,
      "kart": 5224,
      "çalışması": 5225,
      "milli": 5226,
      "benzeri": 5227,
      "Hüküm": 5228,
      "Dir": 5229,
      "Hukuk": 5230,
      "Red": 5231,
      "Vir": 5232,
      "net": 5233,
      "önde": 5234,
      "günde": 5235,
      "açtı": 5236,
      "evlilik": 5237,
      "##yici": 5238,
      "Onun": 5239,
      "gerekli": 5240,
      "hayatına": 5241,
      "Yahudilerin": 5242,
      "subay": 5243,
      "##VD": 5244,
      "##ileb": 5245,
      "birliği": 5246,
      "kullandığı": 5247,
      "Ardından": 5248,
      "ikinc": 5249,
      "hayran": 5250,
      "dışarı": 5251,
      "karakteri": 5252,
      "galibiyet": 5253,
      "Formula": 5254,
      "Som": 5255,
      "##acağı": 5256,
      "önder": 5257,
      "general": 5258,
      "katılmıştır": 5259,
      "##lamadı": 5260,
      "yükselen": 5261,
      "elektronik": 5262,
      "uğraş": 5263,
      "Fre": 5264,
      "zamanında": 5265,
      "altyap": 5266,
      "kurulu": 5267,
      "kabil": 5268,
      "Bununla": 5269,
      "imzaladı": 5270,
      "League": 5271,
      "Lan": 5272,
      "kuy": 5273,
      "##bilim": 5274,
      "##cia": 5275,
      "##uth": 5276,
      "##tıcı": 5277,
      "[YEAR]'e": 5278,
      "evlendi": 5279,
      "sezonun": 5280,
      "##dur.": 5281,
      "sözcü": 5282,
      "Araştırma": 5283,
      "vazgeç": 5284,
      "Stadyumu": 5285,
      "A.": 5286,
      "coğraf": 5287,
      "##unlu": 5288,
      "##ello": 5289,
      "yetk": 5290,
      "eserleri": 5291,
      "Elli": 5292,
      "unsur": 5293,
      "Bakanı": 5294,
      "sürdürdü": 5295,
      "büyü": 5296,
      "çözüm": 5297,
      "güreş": 5298,
      "Şarkının": 5299,
      "Hüs": 5300,
      "Çünkü": 5301,
      "##nes": 5302,
      "##o'ya": 5303,
      "##cük": 5304,
      "##tepe": 5305,
      "alfab": 5306,
      "başbak": 5307,
      "ettiler": 5308,
      "yaratı": 5309,
      "doğusunda": 5310,
      "yayınladı": 5311,
      "kaçır": 5312,
      "edip": 5313,
      "[U": 5314,
      "kans": 5315,
      "##gisi": 5316,
      "##astır": 5317,
      "##ilerden": 5318,
      "kurtul": 5319,
      "sürede": 5320,
      "sergil": 5321,
      "önceden": 5322,
      "Karab": 5323,
      "ailesinin": 5324,
      "ilişkin": 5325,
      "bilimsel": 5326,
      "##memiş": 5327,
      "Chan": 5328,
      "yukarı": 5329,
      "##yer": 5330,
      "##mur": 5331,
      "almaya": 5332,
      "inc": 5333,
      "geçmiştir": 5334,
      "eşlik": 5335,
      "topluluk": 5336,
      "ülkelerde": 5337,
      "Sosyalist": 5338,
      "Aç": 5339,
      "kov": 5340,
      "mavi": 5341,
      "##.0": 5342,
      "antik": 5343,
      "girer": 5344,
      "##üphan": 5345,
      "muhtem": 5346,
      "Latin": 5347,
      ".)": 5348,
      "Kale": 5349,
      "One": 5350,
      "Sef": 5351,
      "raki": 5352,
      "rej": 5353,
      "şüp": 5354,
      "##ğünü": 5355,
      "yaptır": 5356,
      "##lup": 5357,
      "çıkarı": 5358,
      "işçi": 5359,
      "davranış": 5360,
      "pasaport": 5361,
      "IS": 5362,
      "Li": 5363,
      "Not": 5364,
      "##lanabilir": 5365,
      "##ürlük": 5366,
      "##tip": 5367,
      "##ısal": 5368,
      "Bugün": 5369,
      "kullanan": 5370,
      "##ademi": 5371,
      "##leyic": 5372,
      "başladığı": 5373,
      "renkli": 5374,
      "molekül": 5375,
      "Güven": 5376,
      "Ker": 5377,
      "Slov": 5378,
      "paket": 5379,
      "İsa": 5380,
      "##zi": 5381,
      "##ush": 5382,
      "vermektedir": 5383,
      "albümünün": 5384,
      "atom": 5385,
      "Maria": 5386,
      "anlatır": 5387,
      "Yılın": 5388,
      "stat": 5389,
      "Bin": 5390,
      "Sor": 5391,
      "kuz": 5392,
      "##mür": 5393,
      "##zan": 5394,
      "##cus": 5395,
      "##gör": 5396,
      "doğumlu": 5397,
      "uzman": 5398,
      "gösterilmiştir": 5399,
      "aksine": 5400,
      "türlü": 5401,
      "savaşı": 5402,
      "aşam": 5403,
      "Katolik": 5404,
      "Kitap": 5405,
      "Hindistan": 5406,
      "Dal": 5407,
      "##jant": 5408,
      "başlandı": 5409,
      "gelmiş": 5410,
      "tank": 5411,
      "kapas": 5412,
      "bask": 5413,
      "savaşın": 5414,
      "dalga": 5415,
      "kültürel": 5416,
      "Thomas": 5417,
      "33": 5418,
      "Var": 5419,
      "not": 5420,
      "rakip": 5421,
      "##fı": 5422,
      "##isti": 5423,
      "##opolis": 5424,
      "üretilen": 5425,
      "giyen": 5426,
      "amaçlı": 5427,
      "senaryo": 5428,
      "tartışma": 5429,
      "dakikada": 5430,
      "Del": 5431,
      "Ka": 5432,
      "cam": 5433,
      "saç": 5434,
      "##bur": 5435,
      "##AP": 5436,
      "##asıdır": 5437,
      "dost": 5438,
      "İstanbul'a": 5439,
      "Cumhuriyeti'nin": 5440,
      "silahlı": 5441,
      "Yönetim": 5442,
      "Gölü": 5443,
      "Hırvat": 5444,
      "cih": 5445,
      "yeşil": 5446,
      "Şu": 5447,
      "şar": 5448,
      "##'si": 5449,
      "##itir": 5450,
      "geçici": 5451,
      "kullandı": 5452,
      "tanınan": 5453,
      "öyk": 5454,
      "mektup": 5455,
      "hidro": 5456,
      "Tu": 5457,
      "ch": 5458,
      "sur": 5459,
      "##unma": 5460,
      "bulundur": 5461,
      "Başbak": 5462,
      "##lacaktır": 5463,
      "hükümdar": 5464,
      "güvenlik": 5465,
      "Andre": 5466,
      "mahkem": 5467,
      "efsan": 5468,
      "ib": 5469,
      "ide": 5470,
      "Özerk": 5471,
      "şun": 5472,
      "##cer": 5473,
      "##.S": 5474,
      "##illi": 5475,
      "göm": 5476,
      "ikisi": 5477,
      "sanayi": 5478,
      "yaşamaktadır": 5479,
      "arttır": 5480,
      "problem": 5481,
      "Fu": 5482,
      "##ius": 5483,
      "onay": 5484,
      "Arjant": 5485,
      "Babası": 5486,
      "malzem": 5487,
      "istifa": 5488,
      "vir": 5489,
      "##iller": 5490,
      "##etin": 5491,
      "karısı": 5492,
      "Antal": 5493,
      "##over": 5494,
      "hayatı": 5495,
      "Karşı": 5496,
      "Oscar": 5497,
      "bazıları": 5498,
      "Efendi": 5499,
      "talep": 5500,
      "Dom": 5501,
      "Fir": 5502,
      "Ren": 5503,
      "##sas": 5504,
      "##ardı": 5505,
      "##diz": 5506,
      "aydın": 5507,
      "##mekteydi": 5508,
      "##eşal": 5509,
      "[YEAR]'lerde": 5510,
      "kanun": 5511,
      "Bunların": 5512,
      "eleştirmen": 5513,
      "Diyar": 5514,
      "düğ": 5515,
      "may": 5516,
      "odak": 5517,
      "##ala": 5518,
      "##ağına": 5519,
      "takv": 5520,
      "çekti": 5521,
      "ederler": 5522,
      "ligde": 5523,
      "Gençler": 5524,
      "cephe": 5525,
      "Kab": 5526,
      "Lev": 5527,
      "Pek": 5528,
      "disk": 5529,
      "nehir": 5530,
      "##pa": 5531,
      "##hr": 5532,
      "##MN]": 5533,
      "##TA": 5534,
      "##ony": 5535,
      "##steri": 5536,
      "##esi'ne": 5537,
      "yayınlan": 5538,
      "sözleş": 5539,
      "getirdi": 5540,
      "bitirdi": 5541,
      "Önce": 5542,
      "Henry": 5543,
      "Juli": 5544,
      "Eser": 5545,
      "Hu": 5546,
      "Kuş": 5547,
      "ton": 5548,
      "##ulması": 5549,
      "##ya'ya": 5550,
      "çalın": 5551,
      "Devr": 5552,
      "Abd": 5553,
      "ceza": 5554,
      "numaradan": 5555,
      "Kaf": 5556,
      "gay": 5557,
      "##çisi": 5558,
      "##ato": 5559,
      "##atistik": 5560,
      "sahipliği": 5561,
      "yasa": 5562,
      "alış": 5563,
      "tepk": 5564,
      "Macaristan": 5565,
      "Müdürlüğü": 5566,
      "Jer": 5567,
      "Kış": 5568,
      "dos": 5569,
      "nö": 5570,
      "##lit": 5571,
      "##ederal": 5572,
      "kullanımı": 5573,
      "##içe": 5574,
      "mühendis": 5575,
      "oluşturduğu": 5576,
      "Savaşı'nın": 5577,
      "festival": 5578,
      "Aşk": 5579,
      "Lar": 5580,
      "Sist": 5581,
      "dök": 5582,
      "##vanı": 5583,
      "geldiği": 5584,
      "anlamda": 5585,
      "telefon": 5586,
      "antren": 5587,
      "bakımından": 5588,
      "Yug": 5589,
      "dijital": 5590,
      "##BM": 5591,
      "yakalan": 5592,
      "köle": 5593,
      "aşk": 5594,
      "sayılı": 5595,
      "Millî": 5596,
      "matematik": 5597,
      "soğuk": 5598,
      "İbran": 5599,
      "mensup": 5600,
      "Cap": 5601,
      "Yet": 5602,
      "tec": 5603,
      "##sul": 5604,
      "##es'in": 5605,
      "yaprak": 5606,
      "ekran": 5607,
      "Bunlardan": 5608,
      "##ehrin": 5609,
      "oynanmıştır": 5610,
      "##yüz": 5611,
      "##var": 5612,
      "##hat": 5613,
      "##gü": 5614,
      "##iyatı": 5615,
      "##emedi": 5616,
      "##iter": 5617,
      "kalın": 5618,
      "bastır": 5619,
      "yakınlarında": 5620,
      "Windows": 5621,
      "Yugoslav": 5622,
      "sk": 5623,
      "tor": 5624,
      "##mel": 5625,
      "##dim": 5626,
      "##ğren": 5627,
      "olanak": 5628,
      "##ersin": 5629,
      "yönlendir": 5630,
      "##otik": 5631,
      "Ordular": 5632,
      "Hane": 5633,
      "yörün": 5634,
      "hastalı": 5635,
      "platform": 5636,
      "ailenin": 5637,
      "döv": 5638,
      "hane": 5639,
      "stratej": 5640,
      "çab": 5641,
      "konuk": 5642,
      "gerektiğini": 5643,
      "olmakla": 5644,
      "dir.": 5645,
      "belirtti": 5646,
      "kilometre": 5647,
      "istedi": 5648,
      "gerçekleşen": 5649,
      "Finland": 5650,
      "doldur": 5651,
      "stadyum": 5652,
      "##ücu": 5653,
      "##lemektedir": 5654,
      "##ald": 5655,
      "sonlarında": 5656,
      "##avy": 5657,
      "oluşum": 5658,
      "Hall": 5659,
      "kaydetti": 5660,
      "diplom": 5661,
      "Bra": 5662,
      "Des": 5663,
      "Hey": 5664,
      "ışı": 5665,
      "##fe": 5666,
      "##ağın": 5667,
      "##ilmesini": 5668,
      "ilinin": 5669,
      "takımda": 5670,
      "şarkıyı": 5671,
      "Abb": 5672,
      "kuvvetlerinin": 5673,
      "Reich": 5674,
      "Tanrı": 5675,
      "Bütün": 5676,
      "Tal": 5677,
      "fiyat": 5678,
      "süt": 5679,
      "sömür": 5680,
      "##güne": 5681,
      "vefat": 5682,
      "##etti": 5683,
      "##apın": 5684,
      "##ılmasını": 5685,
      "yapısı": 5686,
      "##cıları": 5687,
      "karşılığında": 5688,
      "alınmıştır": 5689,
      "hazırlık": 5690,
      "seçimlerinde": 5691,
      "kahraman": 5692,
      "sanatçısı": 5693,
      "biz": 5694,
      "sın": 5695,
      "tuz": 5696,
      "vücut": 5697,
      "##inç": 5698,
      "##ırh": 5699,
      "##likler": 5700,
      "zamanlarda": 5701,
      "metin": 5702,
      "değeri": 5703,
      "Teknik": 5704,
      "küme": 5705,
      "Filistin": 5706,
      "tedavi": 5707,
      "rakam": 5708,
      "Milletler": 5709,
      "Hel": 5710,
      "Kel": 5711,
      "Sem": 5712,
      "pet": 5713,
      "##BC": 5714,
      "##leridir": 5715,
      "değişken": 5716,
      "##elendir": 5717,
      "kopya": 5718,
      "katkıda": 5719,
      "aj": 5720,
      "Şey": 5721,
      "birer": 5722,
      "birisidir": 5723,
      "##ilerinden": 5724,
      "##ilmesine": 5725,
      "sürdü": 5726,
      "onlara": 5727,
      "##sızlık": 5728,
      "hikâye": 5729,
      "bugünkü": 5730,
      "teşkil": 5731,
      "direniş": 5732,
      "Alan": 5733,
      "Elek": 5734,
      "du": 5735,
      "İd": 5736,
      "dep": 5737,
      "kalır": 5738,
      "kişisel": 5739,
      "komedi": 5740,
      "başladılar": 5741,
      "tahta": 5742,
      "##ternatif": 5743,
      "Barış": 5744,
      "katıldığı": 5745,
      "cinsel": 5746,
      "kulübü": 5747,
      "böcek": 5748,
      "Francis": 5749,
      "aracılığıyla": 5750,
      "lar": 5751,
      "##sini": 5752,
      "##his": 5753,
      "##IN": 5754,
      "##ayda": 5755,
      "##iklet": 5756,
      "##'nu": 5757,
      "bulur": 5758,
      "önüne": 5759,
      "##esto": 5760,
      "##ılıç": 5761,
      "bitki": 5762,
      "duyur": 5763,
      "anlaşma": 5764,
      "sınıflandır": 5765,
      "mesaj": 5766,
      "rapor": 5767,
      "Ca": 5768,
      "Hy": 5769,
      "Moz": 5770,
      "Silah": 5771,
      "mit": 5772,
      "##ts": 5773,
      "##'yla": 5774,
      "##bor": 5775,
      "##indi": 5776,
      "##onun": 5777,
      "##ştık": 5778,
      "##avar": 5779,
      "açılan": 5780,
      "maçın": 5781,
      "görevine": 5782,
      "Bulut": 5783,
      "##bakır": 5784,
      "Na": 5785,
      "##tab": 5786,
      "Buda": 5787,
      "##üyordu": 5788,
      "kene": 5789,
      "çıkmış": 5790,
      "yanına": 5791,
      "satan": 5792,
      "yıldızı": 5793,
      "Doktor": 5794,
      "unvanını": 5795,
      "Münih": 5796,
      "Fred": 5797,
      "Roth": 5798,
      "lak": 5799,
      "lej": 5800,
      "yitir": 5801,
      "##HP": 5802,
      "##ure": 5803,
      "##ikal": 5804,
      "##'ndaki": 5805,
      "arasına": 5806,
      "dönüştür": 5807,
      "adayı": 5808,
      "##luğa": 5809,
      "bünyesinde": 5810,
      "Cla": 5811,
      "Güzel": 5812,
      "Yen": 5813,
      "##rey": 5814,
      "yaşanan": 5815,
      "eğitimini": 5816,
      "Kırk": 5817,
      "kümesi": 5818,
      "Romalı": 5819,
      "Cumhurbaşkanı": 5820,
      "Diyarbakır": 5821,
      "lejyon": 5822,
      "##madığı": 5823,
      "esin": 5824,
      "albümde": 5825,
      "##orth": 5826,
      "hükümeti": 5827,
      "danış": 5828,
      "Dük": 5829,
      "Eyaleti": 5830,
      "##ku": 5831,
      "##uç": 5832,
      "##wa": 5833,
      "##emiş": 5834,
      "esas": 5835,
      "##portaj": 5836,
      "##türü": 5837,
      "##isyonu": 5838,
      "Hem": 5839,
      "##SC": 5840,
      "##arlı": 5841,
      "##liye": 5842,
      "##ayarak": 5843,
      "##ater": 5844,
      "##eyin": 5845,
      "##ülük": 5846,
      "suik": 5847,
      "uçuş": 5848,
      "uğra": 5849,
      "idare": 5850,
      "başkent": 5851,
      "Maked": 5852,
      "Ermenistan": 5853,
      "ırk": 5854,
      "MTV": 5855,
      "tel": 5856,
      "##ple": 5857,
      "##ue": 5858,
      "##ary": 5859,
      "##ekt": 5860,
      "tarafında": 5861,
      "##lamaz": 5862,
      "yayınlanmıştır": 5863,
      "turda": 5864,
      "Ödülleri'nde": 5865,
      "imzalan": 5866,
      "reklam": 5867,
      "toplumsal": 5868,
      "reddet": 5869,
      "siyasetçi": 5870,
      "açıdan": 5871,
      "Kutsal": 5872,
      "yirmi": 5873,
      "Rod": 5874,
      "Çince": 5875,
      "##ild": 5876,
      "##oker": 5877,
      "orkest": 5878,
      "inti": 5879,
      "##elerek": 5880,
      "##elerden": 5881,
      "sırasıyla": 5882,
      "üstlendi": 5883,
      "##leksiyon": 5884,
      "hatır": 5885,
      "kasaba": 5886,
      "edilebilir": 5887,
      "Eskişehir": 5888,
      "olağan": 5889,
      "##kale": 5890,
      "birinin": 5891,
      "seçilmiştir": 5892,
      "dile": 5893,
      "versiyonu": 5894,
      "Dre": 5895,
      "Fır": 5896,
      "Mel": 5897,
      "play": 5898,
      "##kas": 5899,
      "##kom": 5900,
      "##by": 5901,
      "##leyici": 5902,
      "##ima": 5903,
      "olmasını": 5904,
      "anlay": 5905,
      "aylarında": 5906,
      "yazmıştır": 5907,
      "Konser": 5908,
      "grubunun": 5909,
      "Bölge": 5910,
      "tesis": 5911,
      "##ound": 5912,
      "yatır": 5913,
      "çoğunluğu": 5914,
      "tehdit": 5915,
      "Gerçek": 5916,
      "Gor": 5917,
      "Yarı": 5918,
      "düştü": 5919,
      "ilerle": 5920,
      "zehir": 5921,
      "##kür": 5922,
      "##'dur.": 5923,
      "##lel": 5924,
      "##amik": 5925,
      "##lenerek": 5926,
      "sürümü": 5927,
      "asit": 5928,
      "eleman": 5929,
      "hakları": 5930,
      "müdah": 5931,
      "Akademi": 5932,
      "St.": 5933,
      "şehirde": 5934,
      "Fransa'da": 5935,
      "aittir": 5936,
      "##mamaktadır": 5937,
      "Dis": 5938,
      "Diz": 5939,
      "bür": 5940,
      "Ün": 5941,
      "ısı": 5942,
      "##şah": 5943,
      "##ılarak": 5944,
      "##ilin": 5945,
      "##ılmasına": 5946,
      "##abor": 5947,
      "gruba": 5948,
      "görülmektedir": 5949,
      "kampan": 5950,
      "##öval": 5951,
      "Jackson": 5952,
      "yeterli": 5953,
      "beğen": 5954,
      "Day": 5955,
      "Med": 5956,
      "Str": 5957,
      "gümüş": 5958,
      "mim": 5959,
      "##iliyor": 5960,
      "##oni": 5961,
      "##aten": 5962,
      "##ılmaya": 5963,
      "anti": 5964,
      "hayata": 5965,
      "dergisi": 5966,
      "besteci": 5967,
      "Balt": 5968,
      "Sür": 5969,
      "Tep": 5970,
      "dava": 5971,
      "##ls": 5972,
      "##.2": 5973,
      "##ılmaz": 5974,
      "bölgenin": 5975,
      "Türkiye'ye": 5976,
      "tanrı": 5977,
      "aşık": 5978,
      "konuşma": 5979,
      "Muhafız": 5980,
      "öncesinde": 5981,
      "Konstantinopolis": 5982,
      "röportaj": 5983,
      "Devrimi": 5984,
      "Bek": 5985,
      "Eyalet": 5986,
      "ic": 5987,
      "op": 5988,
      "etik": 5989,
      "##ıldığında": 5990,
      "yazılmıştır": 5991,
      "milyar": 5992,
      "off": 5993,
      "kurucusu": 5994,
      "Vakfı": 5995,
      "herkes": 5996,
      "Stal": 5997,
      "Viet": 5998,
      "set": 5999,
      "##cy": 6000,
      "##ted": 6001,
      "##asız": 6002,
      "tarihinin": 6003,
      "prodük": 6004,
      "dergi": 6005,
      "sözcük": 6006,
      "başarısı": 6007,
      "çıktığı": 6008,
      "operasyon": 6009,
      "ordusunun": 6010,
      "pilot": 6011,
      "Bit": 6012,
      "Mih": 6013,
      "Tib": 6014,
      "##malıdır": 6015,
      "##tre": 6016,
      "##nan": 6017,
      "##R]": 6018,
      "yapılması": 6019,
      "##elim": 6020,
      "kalp": 6021,
      "olmuştu": 6022,
      "uydu": 6023,
      "##uvarı": 6024,
      "kendilerine": 6025,
      "müzi": 6026,
      "sınıfı": 6027,
      "komutasındaki": 6028,
      "Gençlik": 6029,
      "bölgedeki": 6030,
      "High": 6031,
      "Pom": 6032,
      "Ten": 6033,
      "Yan": 6034,
      "mi": 6035,
      "##ğının": 6036,
      "##ited": 6037,
      "##ech": 6038,
      "uzan": 6039,
      "albümünde": 6040,
      "evi": 6041,
      "kendilerini": 6042,
      "hayal": 6043,
      "boyu": 6044,
      "üstlenmiştir": 6045,
      "gerektir": 6046,
      "Prof": 6047,
      "dokuz": 6048,
      "medya": 6049,
      "Körf": 6050,
      "Arjantin": 6051,
      "Cer": 6052,
      "Mimar": 6053,
      "atı": 6054,
      "Şim": 6055,
      "##án": 6056,
      "##kender": 6057,
      "##idd": 6058,
      "durumlarda": 6059,
      "yıldızlar": 6060,
      "halkın": 6061,
      "kimyasal": 6062,
      "Lisesi": 6063,
      "##.Bu": 6064,
      "Eş": 6065,
      "Kav": 6066,
      "dolu": 6067,
      "##memiştir": 6068,
      "##lıp": 6069,
      "ayrılmıştır": 6070,
      "perde": 6071,
      "kısmında": 6072,
      "Meclis": 6073,
      "tedav": 6074,
      "maruz": 6075,
      "Spears": 6076,
      "Dağı": 6077,
      "MS": 6078,
      "Tro": 6079,
      "ob": 6080,
      "web": 6081,
      "##elle": 6082,
      "##denin": 6083,
      "tarzı": 6084,
      "##igür": 6085,
      "yargılan": 6086,
      "Mareşal": 6087,
      "taşındı": 6088,
      "Fal": 6089,
      "Medi": 6090,
      "Mersin": 6091,
      "Wash": 6092,
      "Yas": 6093,
      "ez": 6094,
      "##lıyor": 6095,
      "inf": 6096,
      "İskender": 6097,
      "albümünü": 6098,
      "iliş": 6099,
      "İsveç'in": 6100,
      "finans": 6101,
      "yapımcılığını": 6102,
      "Nil": 6103,
      "mod": 6104,
      "nadir": 6105,
      "##öğretim": 6106,
      "##'lı": 6107,
      "##cil": 6108,
      "##gusal": 6109,
      "zamanla": 6110,
      "albümleri": 6111,
      "salon": 6112,
      "çizg": 6113,
      "Mühendis": 6114,
      "Brezilya": 6115,
      "Micros": 6116,
      "Victor": 6117,
      "EP": 6118,
      "Kum": 6119,
      "Tic": 6120,
      "fayda": 6121,
      "##şam": 6122,
      "##ble": 6123,
      "##ler'in": 6124,
      "##ilmeye": 6125,
      "istih": 6126,
      "formasını": 6127,
      "Kanal": 6128,
      "sıf": 6129,
      "Tarihi": 6130,
      "Ray": 6131,
      "na": 6132,
      "##memektedir": 6133,
      "##.D": 6134,
      "##ila": 6135,
      "##etiyle": 6136,
      "güncel": 6137,
      "##heim": 6138,
      "yüks": 6139,
      "İmparatoru": 6140,
      "sıkı": 6141,
      "Bölüm": 6142,
      "##ilecektir": 6143,
      "Dört": 6144,
      "Karadeniz": 6145,
      "imparatorluk": 6146,
      "Hitler'in": 6147,
      "Harekâtı": 6148,
      "Ag": 6149,
      "Clar": 6150,
      "Gram": 6151,
      "Lim": 6152,
      "Si": 6153,
      "mad": 6154,
      "##'t": 6155,
      "##uc": 6156,
      "##lenebilir": 6157,
      "Ern": 6158,
      "saniye": 6159,
      "eksik": 6160,
      "gerçekleşti": 6161,
      "okulu": 6162,
      "hareketi": 6163,
      "edildiği": 6164,
      "kullanılarak": 6165,
      "rekor": 6166,
      "performansı": 6167,
      "mağlup": 6168,
      "Antlaşması": 6169,
      "Washington": 6170,
      "gidi": 6171,
      "ötürü": 6172,
      "üz": 6173,
      "##line": 6174,
      "##mesinde": 6175,
      "##umsuz": 6176,
      "##makla": 6177,
      "aralık": 6178,
      "yerleşti": 6179,
      "kalk": 6180,
      "maçları": 6181,
      "dizide": 6182,
      "Asker": 6183,
      "yayımlanmıştır": 6184,
      "##tifak": 6185,
      "olaylar": 6186,
      "İlçesi": 6187,
      "partinin": 6188,
      "Denizi": 6189,
      "Martin": 6190,
      "Phil": 6191,
      "gazeteci": 6192,
      "Edebiyat": 6193,
      "400": 6194,
      "Arab": 6195,
      "Nob": 6196,
      "vb": 6197,
      "çaba": 6198,
      "##.1": 6199,
      "alternatif": 6200,
      "##uml": 6201,
      "genişlet": 6202,
      "sunuldu": 6203,
      "kilise": 6204,
      "başvur": 6205,
      "Microsoft": 6206,
      "Dun": 6207,
      "##antep": 6208,
      "##aşı": 6209,
      "##eck": 6210,
      "onur": 6211,
      "takımlar": 6212,
      "savaşa": 6213,
      "Özgün": 6214,
      "kısaca": 6215,
      "çevresinde": 6216,
      "Music": 6217,
      "kullanıcı": 6218,
      "Gürc": 6219,
      "Radyo": 6220,
      "Florida": 6221,
      "Küba": 6222,
      "Vik": 6223,
      "zırh": 6224,
      "##ulları": 6225,
      "olduktan": 6226,
      "[YEAR]'lı": 6227,
      "yolcu": 6228,
      "düzenleme": 6229,
      "merkezinde": 6230,
      "koruma": 6231,
      "İtalya'da": 6232,
      "sıradan": 6233,
      "Genellikle": 6234,
      "Grubun": 6235,
      "sebebi": 6236,
      "yardımıyla": 6237,
      "bron": 6238,
      "piyan": 6239,
      "solo": 6240,
      "##cık": 6241,
      "##ayn": 6242,
      "##ete": 6243,
      "yapab": 6244,
      "süreli": 6245,
      "##anılan": 6246,
      "##edek": 6247,
      "maçlar": 6248,
      "##ody": 6249,
      "şarkıdır": 6250,
      "çocukları": 6251,
      "profesör": 6252,
      "adlandırılır": 6253,
      "sabah": 6254,
      "kelime": 6255,
      "Gaziantep": 6256,
      "Div": 6257,
      "Sadece": 6258,
      "rah": 6259,
      "##dun": 6260,
      "##iliyordu": 6261,
      "##tain": 6262,
      "Bud": 6263,
      "kalit": 6264,
      "kapan": 6265,
      "kaptan": 6266,
      "Birleşmiş": 6267,
      "numaralı": 6268,
      "diyabet": 6269,
      "Düş": 6270,
      "It": 6271,
      "IC": 6272,
      "Mi": 6273,
      "Roy": 6274,
      "şub": 6275,
      "##dağ": 6276,
      "##atür": 6277,
      "etnik": 6278,
      "##ovan": 6279,
      "gerilim": 6280,
      "sayede": 6281,
      "##alandır": 6282,
      "sevgil": 6283,
      "Paris'te": 6284,
      "Kulüp": 6285,
      "katılım": 6286,
      "Balık": 6287,
      "piyade": 6288,
      "##raz": 6289,
      "##sis": 6290,
      "##gücü": 6291,
      "kurduğu": 6292,
      "sağlaya": 6293,
      "duruma": 6294,
      "ekonomi": 6295,
      "yetenek": 6296,
      "yaşamış": 6297,
      "Prus": 6298,
      "üyesidir": 6299,
      "vurgu": 6300,
      "İmparatorluğu'nun": 6301,
      "Otuz": 6302,
      "batısında": 6303,
      "etkinlik": 6304,
      "nişan": 6305,
      "Plan": 6306,
      "alet": 6307,
      "Ölüm": 6308,
      "çiçek": 6309,
      "##acağını": 6310,
      "şarkılar": 6311,
      "geçirdiği": 6312,
      "hattı": 6313,
      "dalg": 6314,
      "patlama": 6315,
      "çözün": 6316,
      "reform": 6317,
      "kalabalık": 6318,
      "ilişki": 6319,
      "Pak": 6320,
      "Ses": 6321,
      "toz": 6322,
      "##ric": 6323,
      "##ior": 6324,
      "##oda": 6325,
      "##ilt": 6326,
      "yapılmaktadır": 6327,
      "##osa": 6328,
      "göstermiştir": 6329,
      "günümüze": 6330,
      "sıcaklık": 6331,
      "Sonraki": 6332,
      "38": 6333,
      "Mit": 6334,
      "##lament": 6335,
      "##dık": 6336,
      "##ülür": 6337,
      "döner": 6338,
      "takımlarından": 6339,
      "tanesi": 6340,
      "istatistik": 6341,
      "Lee": 6342,
      "çıkardığı": 6343,
      "Köyün": 6344,
      "işlev": 6345,
      "protokol": 6346,
      "petrol": 6347,
      "Jan": 6348,
      "Modern": 6349,
      "Siyas": 6350,
      "Yeşil": 6351,
      "##ıf": 6352,
      "##s'in": 6353,
      "##itik": 6354,
      "##ilerle": 6355,
      "yerlerde": 6356,
      "yargı": 6357,
      "işç": 6358,
      "gösterilen": 6359,
      "evinde": 6360,
      "arab": 6361,
      "resep": 6362,
      "eğlen": 6363,
      "Kraliyet": 6364,
      "terfi": 6365,
      "unvanı": 6366,
      "tanıştı": 6367,
      "Şampiyonası'nda": 6368,
      "liman": 6369,
      "yaptıkları": 6370,
      "Him": 6371,
      "##sar": 6372,
      "##.3": 6373,
      "##.K": 6374,
      "##ciğer": 6375,
      "takıma": 6376,
      "kalmış": 6377,
      "araba": 6378,
      "meslek": 6379,
      "Heinrich": 6380,
      "Bru": 6381,
      "dük": 6382,
      "##muştu": 6383,
      "##kal": 6384,
      "##gesi": 6385,
      "katılma": 6386,
      "uzat": 6387,
      "kaybol": 6388,
      "istek": 6389,
      "sayım": 6390,
      "dizinin": 6391,
      "görünt": 6392,
      "yaşamını": 6393,
      "##incan": 6394,
      "gelişmiş": 6395,
      "tanınmış": 6396,
      "Samsun": 6397,
      "desteği": 6398,
      "etrafında": 6399,
      "Haçlı": 6400,
      "42": 6401,
      "Ix": 6402,
      "Tıp": 6403,
      "Vad": 6404,
      "pan": 6405,
      "tez": 6406,
      "Üy": 6407,
      "##yasının": 6408,
      "##darı": 6409,
      "##ero": 6410,
      "kaldığı": 6411,
      "karşılaştı": 6412,
      "forması": 6413,
      "koç": 6414,
      "kentin": 6415,
      "##bola": 6416,
      "elektron": 6417,
      "##lüğe": 6418,
      "Televizyon": 6419,
      "karışık": 6420,
      "müdahale": 6421,
      "Boğ": 6422,
      "CD": 6423,
      "Emir": 6424,
      "ker": 6425,
      "##gele": 6426,
      "##anak": 6427,
      "##oph": 6428,
      "##lenin": 6429,
      "##düs": 6430,
      "atmıştır": 6431,
      "Chica": 6432,
      "rolünü": 6433,
      "olmadan": 6434,
      "##maması": 6435,
      "Adası": 6436,
      "altıncı": 6437,
      "editör": 6438,
      "Konseyi": 6439,
      "##odidae": 6440,
      "Danimarka": 6441,
      "##aborat": 6442,
      "Au": 6443,
      "Gro": 6444,
      "Universit": 6445,
      "zinc": 6446,
      "çeyrek": 6447,
      "##eda": 6448,
      "##ates": 6449,
      "yılda": 6450,
      "açıldı": 6451,
      "oyuna": 6452,
      "sinir": 6453,
      "değildi": 6454,
      "Kurtul": 6455,
      "##ferans": 6456,
      "onunla": 6457,
      "değerli": 6458,
      "Intern": 6459,
      "derecede": 6460,
      "Ceza": 6461,
      "Super": 6462,
      "Zelanda": 6463,
      "Hit": 6464,
      "Lor": 6465,
      "Piyade": 6466,
      "peş": 6467,
      "süv": 6468,
      "tüf": 6469,
      "çub": 6470,
      "##je": 6471,
      "##hal": 6472,
      "bulunmaktaydı": 6473,
      "##acık": 6474,
      "belde": 6475,
      "Devrim": 6476,
      "ayrıntı": 6477,
      "sorgu": 6478,
      "şampiyonluğu": 6479,
      "Carl": 6480,
      "meydan": 6481,
      "Sırb": 6482,
      "arkadaşları": 6483,
      "noktası": 6484,
      "servis": 6485,
      "komşu": 6486,
      "kenesigiller": 6487,
      "intihar": 6488,
      "Edir": 6489,
      "Way": 6490,
      "tır": 6491,
      "##ysa": 6492,
      "##ks": 6493,
      "##cın": 6494,
      "##ebe": 6495,
      "ikili": 6496,
      "Üniversite": 6497,
      "Ask": 6498,
      "İran'ın": 6499,
      "miktarda": 6500,
      "Savunma": 6501,
      "ışın": 6502,
      "Bağı": 6503,
      "Seri": 6504,
      "sh": 6505,
      "##ding": 6506,
      "##aza": 6507,
      "##izasyon": 6508,
      "Ana": 6509,
      "[YEAR]'dan": 6510,
      "iklim": 6511,
      "kazandığı": 6512,
      "##eceği": 6513,
      "Avrupa'nın": 6514,
      "##ıplak": 6515,
      "Show": 6516,
      "Karaca": 6517,
      "Basketbol": 6518,
      "semt": 6519,
      "Yaklaş": 6520,
      "macera": 6521,
      "iktidar": 6522,
      "Bri": 6523,
      "Lak": 6524,
      "Paş": 6525,
      "Pier": 6526,
      "Sir": 6527,
      "Tra": 6528,
      "ka": 6529,
      "süs": 6530,
      "zafer": 6531,
      "Çift": 6532,
      "şer": 6533,
      "göreve": 6534,
      "çalışmalarına": 6535,
      "bakış": 6536,
      "Bilim": 6537,
      "sığın": 6538,
      "yükselt": 6539,
      "gönderildi": 6540,
      "Büyükşehir": 6541,
      "gerçekleştirilen": 6542,
      "Taarruz": 6543,
      "yenilg": 6544,
      "Erzurum": 6545,
      "incelen": 6546,
      "Ele": 6547,
      "mür": 6548,
      "##fen": 6549,
      "##IA": 6550,
      "##üks": 6551,
      "##umb": 6552,
      "##üllü": 6553,
      "öncü": 6554,
      "toplama": 6555,
      "uyan": 6556,
      "düşen": 6557,
      "ortasında": 6558,
      "yaklaşım": 6559,
      "Bella": 6560,
      "Ankara'da": 6561,
      "##ordin": 6562,
      "enzim": 6563,
      "suikast": 6564,
      "Rho": 6565,
      "Ul": 6566,
      "mis": 6567,
      "suyu": 6568,
      "ye": 6569,
      "##ıda": 6570,
      "##'li": 6571,
      "##ón": 6572,
      "##alak": 6573,
      "##astik": 6574,
      "##ısıt": 6575,
      "[YEAR]'lerin": 6576,
      "ört": 6577,
      "bölümde": 6578,
      "sınırlı": 6579,
      "format": 6580,
      "Cadde": 6581,
      "##fan": 6582,
      "##omba": 6583,
      "taraftar": 6584,
      "Antik": 6585,
      "yarım": 6586,
      "kalma": 6587,
      "ödüllendir": 6588,
      "görüldü": 6589,
      "kıya": 6590,
      "yasal": 6591,
      "##general": 6592,
      "Londra'da": 6593,
      "cevap": 6594,
      "##helm": 6595,
      "Elektr": 6596,
      "ap": 6597,
      "itir": 6598,
      "ulaşı": 6599,
      "##rem": 6600,
      "##vin": 6601,
      "##eta": 6602,
      "##ets": 6603,
      "anne": 6604,
      "ondan": 6605,
      "yılların": 6606,
      "karşılaştır": 6607,
      "uzanan": 6608,
      "##lığından": 6609,
      "ettiğini": 6610,
      "##ografik": 6611,
      "düşünc": 6612,
      "taşıyı": 6613,
      "otob": 6614,
      "uğram": 6615,
      "başkanlık": 6616,
      "oynandı": 6617,
      "darb": 6618,
      "Muharebesi": 6619,
      "Gaga": 6620,
      "Karak": 6621,
      "National": 6622,
      "Rap": 6623,
      "reh": 6624,
      "sig": 6625,
      "##ool": 6626,
      "##enler": 6627,
      "tanış": 6628,
      "sayfa": 6629,
      "ederken": 6630,
      "##sizlik": 6631,
      "Demokrat": 6632,
      "modeli": 6633,
      "başkanlığı": 6634,
      "çalıştığı": 6635,
      "memur": 6636,
      "United": 6637,
      "Poe": 6638,
      "savaşta": 6639,
      "Komutanlığı": 6640,
      "Ixodidae": 6641,
      "Bre": 6642,
      "ir": 6643,
      "ölü": 6644,
      "##isiklet": 6645,
      "##imet": 6646,
      "konus": 6647,
      "yaralan": 6648,
      "oyunculuk": 6649,
      "akıl": 6650,
      "Onuncu": 6651,
      "alınarak": 6652,
      "çalışmalarını": 6653,
      "soruml": 6654,
      "şehrinin": 6655,
      "Yahudileri": 6656,
      "Mahalle": 6657,
      "beklen": 6658,
      "Bulgaristan": 6659,
      "Fatih": 6660,
      "American": 6661,
      "Chicago": 6662,
      "Ala": 6663,
      "Mut": 6664,
      "Pic": 6665,
      "##kim": 6666,
      "##ğiyle": 6667,
      "##10": 6668,
      "konak": 6669,
      "zamanlar": 6670,
      "kişidir": 6671,
      "oğl": 6672,
      "yürüy": 6673,
      "bozuk": 6674,
      "öğrencisi": 6675,
      "ekibi": 6676,
      "Ahmed": 6677,
      "Bölgesi": 6678,
      "Romanya": 6679,
      "amatör": 6680,
      "tüket": 6681,
      "üste": 6682,
      "endüstr": 6683,
      "Sicilya": 6684,
      "Ast": 6685,
      "lay": 6686,
      "##liliği": 6687,
      "##.4": 6688,
      "##iti": 6689,
      "##ıklı": 6690,
      "bulan": 6691,
      "sahil": 6692,
      "gösterdiği": 6693,
      "Orhan": 6694,
      "üstünde": 6695,
      "Parlamento": 6696,
      "bağlıdır": 6697,
      "yenilen": 6698,
      "Carlos": 6699,
      "Demokratik": 6700,
      "Vietnam": 6701,
      "Bran": 6702,
      "Night": 6703,
      "Soy": 6704,
      "Web": 6705,
      "vücu": 6706,
      "##dunun": 6707,
      "##ins": 6708,
      "##meli": 6709,
      "enf": 6710,
      "denilen": 6711,
      "bakan": 6712,
      "inşaat": 6713,
      "çağır": 6714,
      "Herschel": 6715,
      "Tw": 6716,
      "figür": 6717,
      "rok": 6718,
      "yor": 6719,
      "yapma": 6720,
      "##usta": 6721,
      "dönen": 6722,
      "yönt": 6723,
      "katılmış": 6724,
      "işe": 6725,
      "Mary": 6726,
      "okudu": 6727,
      "isimler": 6728,
      "eserler": 6729,
      "hayatta": 6730,
      "Avustralya'da": 6731,
      "cihaz": 6732,
      "Finlandiya": 6733,
      "Mez": 6734,
      "Nic": 6735,
      "his": 6736,
      "Çar": 6737,
      "İdar": 6738,
      "##ail": 6739,
      "##ras": 6740,
      "##tro": 6741,
      "##'l": 6742,
      "alma": 6743,
      "##üman": 6744,
      "ayı": 6745,
      "aylık": 6746,
      "##uva": 6747,
      "kazanarak": 6748,
      "tamamı": 6749,
      "merkezine": 6750,
      "insanları": 6751,
      "##spor'a": 6752,
      "Cumhuriyeti'nde": 6753,
      "darbe": 6754,
      "Philip": 6755,
      "Eminem": 6756,
      "48": 6757,
      "##zo": 6758,
      "##ball": 6759,
      "##imasyon": 6760,
      "yaparken": 6761,
      "başı": 6762,
      "##ATO": 6763,
      "köpek": 6764,
      "belirgin": 6765,
      "##liğindeki": 6766,
      "oluşturdu": 6767,
      "##antum": 6768,
      "unut": 6769,
      "programında": 6770,
      "köylü": 6771,
      "Wilhelm": 6772,
      "kısmını": 6773,
      "Du": 6774,
      "Hab": 6775,
      "Sy": 6776,
      "Stan": 6777,
      "##ileş": 6778,
      "##ory": 6779,
      "##likte": 6780,
      "##istiyan": 6781,
      "bulmak": 6782,
      "öngör": 6783,
      "ediyor": 6784,
      "##ebilen": 6785,
      "kullanır": 6786,
      "kişilerin": 6787,
      "Inter": 6788,
      "birbirlerine": 6789,
      "sahneye": 6790,
      "muhtemelen": 6791,
      "Nur": 6792,
      "Sk": 6793,
      "ata": 6794,
      "dü": 6795,
      "det": 6796,
      "nde": 6797,
      "##TT": 6798,
      "##areti": 6799,
      "##ont": 6800,
      "##rağı": 6801,
      "##omo": 6802,
      "##estor": 6803,
      "sinemaya": 6804,
      "Saint": 6805,
      "York'ta": 6806,
      "idari": 6807,
      "kemer": 6808,
      "Latince": 6809,
      "Kudüs": 6810,
      "kapasit": 6811,
      "Düz": 6812,
      "Pi": 6813,
      "gr": 6814,
      "hab": 6815,
      "kere": 6816,
      "##siye": 6817,
      "##ühr": 6818,
      "##barat": 6819,
      "##ayasa": 6820,
      "çalışmıştır": 6821,
      "çeken": 6822,
      "##ilmekte": 6823,
      "koleksiyon": 6824,
      "getiren": 6825,
      "##çılık": 6826,
      "zorunlu": 6827,
      "##lasman": 6828,
      "##ılmasıyla": 6829,
      "sıklıkla": 6830,
      "anlatan": 6831,
      "dersleri": 6832,
      "Giovan": 6833,
      "fos": 6834,
      "grafik": 6835,
      "mir": 6836,
      "ölen": 6837,
      "##low": 6838,
      "##uyla": 6839,
      "##ğunda": 6840,
      "##IM": 6841,
      "olmaktadır": 6842,
      "gösteri": 6843,
      "yapıldığı": 6844,
      "karbon": 6845,
      "##istler": 6846,
      "##masıdır": 6847,
      "genetik": 6848,
      "aracı": 6849,
      "Rusya'nın": 6850,
      "taban": 6851,
      "ulaşım": 6852,
      "##luğuna": 6853,
      "ihtim": 6854,
      "##dükten": 6855,
      "olacağını": 6856,
      "korumak": 6857,
      "Opera": 6858,
      "Baltık": 6859,
      "Bunu": 6860,
      "hasar": 6861,
      "kg": 6862,
      "süper": 6863,
      "vide": 6864,
      "Üst": 6865,
      "İt": 6866,
      "##kol": 6867,
      "##cas": 6868,
      "##die": 6869,
      "depr": 6870,
      "##ilidir": 6871,
      "yüzde": 6872,
      "geriye": 6873,
      "şarkıları": 6874,
      "sahipti": 6875,
      "Filmde": 6876,
      "Hayat": 6877,
      "Hıristiyan": 6878,
      "Şirket": 6879,
      "layık": 6880,
      "75": 6881,
      "Fame": 6882,
      "Federal": 6883,
      "sos": 6884,
      "##sinin": 6885,
      "##lev": 6886,
      "göv": 6887,
      "##uss": 6888,
      "##ısındaki": 6889,
      "Budiz": 6890,
      "vererek": 6891,
      "kapalı": 6892,
      "serisinin": 6893,
      "devamlı": 6894,
      "metro": 6895,
      "Bilg": 6896,
      "yardımcısı": 6897,
      "sunulmuştur": 6898,
      "Müzesi": 6899,
      "Bundes": 6900,
      "bağımlı": 6901,
      "listede": 6902,
      "özgü": 6903,
      "otomatik": 6904,
      "Sağlık": 6905,
      "açılış": 6906,
      "nükleer": 6907,
      "Francisco": 6908,
      "reseptör": 6909,
      "Yaklaşık": 6910,
      "Air": 6911,
      "Dig": 6912,
      "Hil": 6913,
      "Ru": 6914,
      "Sarı": 6915,
      "TBM": 6916,
      "bl": 6917,
      "kâ": 6918,
      "şansı": 6919,
      "##vir": 6920,
      "##seri": 6921,
      "##hib": 6922,
      "yerinde": 6923,
      "kenar": 6924,
      "tarihte": 6925,
      "arasındadır": 6926,
      "filmleri": 6927,
      "çalışmaktadır": 6928,
      "ikna": 6929,
      "albümünden": 6930,
      "merkezli": 6931,
      "send": 6932,
      "müzikal": 6933,
      "Real": 6934,
      "Kole": 6935,
      "Denizli": 6936,
      "kaleme": 6937,
      "proje": 6938,
      "Haw": 6939,
      "bölgelerinde": 6940,
      "yayılım": 6941,
      "Bosna": 6942,
      "O'": 6943,
      "##led": 6944,
      "birik": 6945,
      "aray": 6946,
      "##mediği": 6947,
      "##elek": 6948,
      "Almanyası": 6949,
      "okum": 6950,
      "yetene": 6951,
      "Özg": 6952,
      "İmparatorluk": 6953,
      "Program": 6954,
      "kaybed": 6955,
      "birbirinden": 6956,
      "İzlanda": 6957,
      "İşçi": 6958,
      "Doğan": 6959,
      "kahver": 6960,
      "Arnavutluk": 6961,
      "haftasında": 6962,
      "Kurtuluş": 6963,
      "Ori": 6964,
      "hac": 6965,
      "kimi": 6966,
      "##vik": 6967,
      "##u'nun": 6968,
      "girmiş": 6969,
      "sağlam": 6970,
      "hariç": 6971,
      "türleri": 6972,
      "ertesi": 6973,
      "gerekç": 6974,
      "uzunluğunda": 6975,
      "sisteminin": 6976,
      "duygu": 6977,
      "konuda": 6978,
      "anlamı": 6979,
      "##veriş": 6980,
      "ölümü": 6981,
      "##uyucu": 6982,
      "analiz": 6983,
      "vb.": 6984,
      "TBMM": 6985,
      "55": 6986,
      "65": 6987,
      "Est": 6988,
      "Geli": 6989,
      "Rh": 6990,
      "boğ": 6991,
      "##ges": 6992,
      "##lanab": 6993,
      "vermiş": 6994,
      "##ukat": 6995,
      "girerek": 6996,
      "##tikçe": 6997,
      "başarmıştır": 6998,
      "askerleri": 6999,
      "söylen": 7000,
      "şampiyonluk": 7001,
      "yapımcısı": 7002,
      "##luğun": 7003,
      "tipi": 7004,
      "Bağım": 7005,
      "Hon": 7006,
      "Let": 7007,
      "NATO": 7008,
      "##pi": 7009,
      "##ps": 7010,
      "##izan": 7011,
      "arz": 7012,
      "artan": 7013,
      "anı": 7014,
      "##ope": 7015,
      "##ıza": 7016,
      "tarihine": 7017,
      "tanınır": 7018,
      "içermektedir": 7019,
      "yetersiz": 7020,
      "imkân": 7021,
      "Kurul": 7022,
      "sistemine": 7023,
      "hazırlanan": 7024,
      "görüşme": 7025,
      "bağımsızlık": 7026,
      "yumurta": 7027,
      "kapsayan": 7028,
      "Nobel": 7029,
      "Big": 7030,
      "Hun": 7031,
      "Mans": 7032,
      "Slav": 7033,
      "büt": 7034,
      "lip": 7035,
      "otor": 7036,
      "##mos": 7037,
      "##gon": 7038,
      "içi": 7039,
      "yerli": 7040,
      "sonraları": 7041,
      "Ergin": 7042,
      "atarak": 7043,
      "tabi": 7044,
      "kadınlar": 7045,
      "kullanılabilir": 7046,
      "suçlu": 7047,
      "alıp": 7048,
      "Kanada'da": 7049,
      "##abeth": 7050,
      "doktora": 7051,
      "köprü": 7052,
      "şiddetli": 7053,
      "yöntemi": 7054,
      "Lef": 7055,
      "##liga": 7056,
      "##ome": 7057,
      "geçmektedir": 7058,
      "##sius": 7059,
      "görevinden": 7060,
      "kısalt": 7061,
      "azalt": 7062,
      "insanın": 7063,
      "güçlendir": 7064,
      "askerler": 7065,
      "karakterini": 7066,
      "nitelendir": 7067,
      "##cinsel": 7068,
      "Sivas": 7069,
      "Paşa'nın": 7070,
      "kıyafet": 7071,
      "BM": 7072,
      "Bob": 7073,
      "Ti": 7074,
      "Zen": 7075,
      "dom": 7076,
      "person": 7077,
      "##ıb": 7078,
      "##'lar": 7079,
      "##[YEAR]": 7080,
      "filmlerinde": 7081,
      "ilham": 7082,
      "Konya": 7083,
      "Köpr": 7084,
      "denklem": 7085,
      "müsab": 7086,
      "Güvenlik": 7087,
      "BBC": 7088,
      "God": 7089,
      "Mik": 7090,
      "Selç": 7091,
      "d'": 7092,
      "Öl": 7093,
      "##resi": 7094,
      "##lob": 7095,
      "##zade": 7096,
      "##'ler": 7097,
      "##.6": 7098,
      "##asal": 7099,
      "##limi": 7100,
      "##aşır": 7101,
      "vermeye": 7102,
      "varlığı": 7103,
      "kazanmış": 7104,
      "soru": 7105,
      "öldürüldü": 7106,
      "Murat": 7107,
      "yetişkin": 7108,
      "Yarışması'nda": 7109,
      "Hüseyin": 7110,
      "yatırım": 7111,
      "34": 7112,
      "64": 7113,
      "Cat": 7114,
      "ceph": 7115,
      "dır": 7116,
      "müttefik": 7117,
      "##eksiyon": 7118,
      "oldular": 7119,
      "##adağ": 7120,
      "toplu": 7121,
      "##arth": 7122,
      "yolculuk": 7123,
      "bölümünü": 7124,
      "sistemleri": 7125,
      "yayımladı": 7126,
      "harekete": 7127,
      "Topl": 7128,
      "Kayseri": 7129,
      "spons": 7130,
      "kadrosuna": 7131,
      "Festivali'nde": 7132,
      "faktör": 7133,
      "Rhodes": 7134,
      "Pow": 7135,
      "port": 7136,
      "with": 7137,
      "##ace": 7138,
      "##gini": 7139,
      "##ors": 7140,
      "anılan": 7141,
      "yaşar": 7142,
      "yarısında": 7143,
      "açıklar": 7144,
      "görülmüştür": 7145,
      "Hann": 7146,
      "hakkındaki": 7147,
      "gelişim": 7148,
      "ulaşmıştır": 7149,
      "Holly": 7150,
      "Kırım": 7151,
      "uzaklıktadır": 7152,
      "rahatsız": 7153,
      "sekret": 7154,
      "Aj": 7155,
      "Ga": 7156,
      "Lud": 7157,
      "Yal": 7158,
      "Öğren": 7159,
      "çay": 7160,
      "##mond": 7161,
      "##pat": 7162,
      "##sında": 7163,
      "##'lerin": 7164,
      "olmasından": 7165,
      "olsun": 7166,
      "alması": 7167,
      "##ady": 7168,
      "##ağının": 7169,
      "##iyecek": 7170,
      "[YEAR]'larda": 7171,
      "sağlamıştır": 7172,
      "imha": 7173,
      "hata": 7174,
      "hazırladığı": 7175,
      "paralel": 7176,
      "Live": 7177,
      "##ührer": 7178,
      "Cup": 7179,
      "Saf": 7180,
      "kolu": 7181,
      "ufak": 7182,
      "##türk": 7183,
      "##ois": 7184,
      "Alp": 7185,
      "kalıntı": 7186,
      "üstlendiği": 7187,
      "Studi": 7188,
      "eserin": 7189,
      "terimi": 7190,
      "ulaşan": 7191,
      "makin": 7192,
      "Saray": 7193,
      "sporcu": 7194,
      "Sinema": 7195,
      "bombardı": 7196,
      "Kolordusu": 7197,
      "milliyet": 7198,
      "##IND": 7199,
      "Makedonya": 7200,
      "Konservat": 7201,
      "Bern": 7202,
      "Jes": 7203,
      "Nev": 7204,
      "füz": 7205,
      "##ları'nın": 7206,
      "sözleri": 7207,
      "oluşturulan": 7208,
      "çocuğ": 7209,
      "harekât": 7210,
      "taşıma": 7211,
      "geldiğinde": 7212,
      "cinayet": 7213,
      "hastalığı": 7214,
      "hangi": 7215,
      "sıralam": 7216,
      "porno": 7217,
      "Askeri": 7218,
      "DVD": 7219,
      "J.": 7220,
      "Sig": 7221,
      "Wr": 7222,
      "cüm": 7223,
      "se": 7224,
      "##tes": 7225,
      "depo": 7226,
      "karıştır": 7227,
      "kariyeri": 7228,
      "buluş": 7229,
      "##ov'un": 7230,
      "filmler": 7231,
      "evrim": 7232,
      "##age": 7233,
      "eşya": 7234,
      "yenerek": 7235,
      "##field": 7236,
      "Sarayı": 7237,
      "Euro": 7238,
      "Ödülü'nü": 7239,
      "doğrult": 7240,
      "kıyısında": 7241,
      "kanser": 7242,
      "Dam": 7243,
      "Rah": 7244,
      "Ty": 7245,
      "avan": 7246,
      "##mik": 7247,
      "##tek": 7248,
      "##nel": 7249,
      "##ander": 7250,
      "##ınar": 7251,
      "Türkiye'deki": 7252,
      "şarkıcısı": 7253,
      "tümen": 7254,
      "organize": 7255,
      "ilçesinde": 7256,
      "Adolf": 7257,
      "Jones": 7258,
      "Johan": 7259,
      "##batısında": 7260,
      "bulutsu": 7261,
      "bestelen": 7262,
      "Kafkas": 7263,
      "bronz": 7264,
      "Giovanni": 7265,
      "Just": 7266,
      "kör": 7267,
      "şebek": 7268,
      "##ien": 7269,
      "##çilik": 7270,
      "##hol": 7271,
      "##amin": 7272,
      "##mail": 7273,
      "Alf": 7274,
      "süresi": 7275,
      "karşıtı": 7276,
      "##ings": 7277,
      "ikiye": 7278,
      "alınmış": 7279,
      "Kurt": 7280,
      "lise": 7281,
      "##ugh": 7282,
      "[HIND": 7283,
      "ağırlıklı": 7284,
      "Koca": 7285,
      "Turn": 7286,
      "tasarı": 7287,
      "Messi": 7288,
      "##doğusunda": 7289,
      "Hanedanı": 7290,
      "Blu": 7291,
      "Gol": 7292,
      "Gab": 7293,
      "Gelen": 7294,
      "beden": 7295,
      "kok": 7296,
      "kısıt": 7297,
      "##par": 7298,
      "##ûmet": 7299,
      "##ben": 7300,
      "##wig": 7301,
      "##work": 7302,
      "ayar": 7303,
      "takdir": 7304,
      "##araj": 7305,
      "birliklerinin": 7306,
      "Afgan": 7307,
      "yükselmiştir": 7308,
      "Sedat": 7309,
      "istediği": 7310,
      "##ileştir": 7311,
      "hepsi": 7312,
      "Kosova": 7313,
      "37": 7314,
      "Ner": 7315,
      "Zo": 7316,
      "alab": 7317,
      "dey": 7318,
      "hır": 7319,
      "ucu": 7320,
      "##şe": 7321,
      "##EB": 7322,
      "birini": 7323,
      "##dılar": 7324,
      "##emeye": 7325,
      "Türkmen": 7326,
      "uygar": 7327,
      "adıdır": 7328,
      "kısmen": 7329,
      "##ardo": 7330,
      "taşır": 7331,
      "geçiren": 7332,
      "##amıştı": 7333,
      "toprakları": 7334,
      "yanıt": 7335,
      "##iğeri": 7336,
      "oynamaktadır": 7337,
      "banka": 7338,
      "ağız": 7339,
      "şüph": 7340,
      "eğlence": 7341,
      "aley": 7342,
      "##rüb": 7343,
      "##keli": 7344,
      "##bu": 7345,
      "##lacağı": 7346,
      "yönel": 7347,
      "işi": 7348,
      "varlığını": 7349,
      "alana": 7350,
      "okun": 7351,
      "güçleri": 7352,
      "gelişme": 7353,
      "mevki": 7354,
      "parçacık": 7355,
      "krom": 7356,
      "ilişkiler": 7357,
      "söylemiştir": 7358,
      "İspanyolca": 7359,
      "Nat": 7360,
      "Nah": 7361,
      "Parkı": 7362,
      "aya": 7363,
      "olayı": 7364,
      "olumsuz": 7365,
      "##utbola": 7366,
      "Kurumu": 7367,
      "sessiz": 7368,
      "olayları": 7369,
      "mikro": 7370,
      "geçerli": 7371,
      "sitesinde": 7372,
      "fikr": 7373,
      "malzeme": 7374,
      "reak": 7375,
      "fabrika": 7376,
      "Açık": 7377,
      "İbranice": 7378,
      "danışman": 7379,
      "Bost": 7380,
      "M.": 7381,
      "bı": 7382,
      "bomba": 7383,
      "##şev": 7384,
      "##esh": 7385,
      "başlanmıştır": 7386,
      "Ertesi": 7387,
      "##ozom": 7388,
      "komuta": 7389,
      "##eceğini": 7390,
      "dolaş": 7391,
      "İtalya'nın": 7392,
      "sığ": 7393,
      "baba": 7394,
      "School": 7395,
      "macer": 7396,
      "bahsed": 7397,
      "cumhurbaş": 7398,
      "kuyruk": 7399,
      "Gürcistan": 7400,
      "Böyle": 7401,
      "Liz": 7402,
      "Nov": 7403,
      "ast": 7404,
      "Çık": 7405,
      "##net": 7406,
      "##pt": 7407,
      "##klarını": 7408,
      "##lıyordu": 7409,
      "ente": 7410,
      "##iba": 7411,
      "Altı": 7412,
      "kadının": 7413,
      "adındaki": 7414,
      "karşıya": 7415,
      "asalak": 7416,
      "Enter": 7417,
      "Marie": 7418,
      "müşt": 7419,
      "kanalı": 7420,
      "üyeliği": 7421,
      "Aleksi": 7422,
      "Dışişleri": 7423,
      "görülebilir": 7424,
      "Coun": 7425,
      "Nick": 7426,
      "Çev": 7427,
      "çeş": 7428,
      "##reş": 7429,
      "##müştü": 7430,
      "##s'ın": 7431,
      "##uda": 7432,
      "##.8": 7433,
      "##ğünde": 7434,
      "##enci": 7435,
      "veda": 7436,
      "oluştu": 7437,
      "##cıların": 7438,
      "##mekle": 7439,
      "##adet": 7440,
      "resmen": 7441,
      "dışındaki": 7442,
      "Devletleri'nde": 7443,
      "kanalında": 7444,
      "fırsat": 7445,
      "Krallık'ta": 7446,
      "komplek": 7447,
      "düşünülmektedir": 7448,
      "Litvan": 7449,
      "Bankası": 7450,
      "Rothen": 7451,
      "Grammy": 7452,
      "Cy": 7453,
      "Cin": 7454,
      "Ford": 7455,
      "Hip": 7456,
      "PS": 7457,
      "alay": 7458,
      "betim": 7459,
      "boya": 7460,
      "sesi": 7461,
      "Üs": 7462,
      "##mun": 7463,
      "##sburg": 7464,
      "##gh": 7465,
      "##ekim": 7466,
      "##rac": 7467,
      "##uman": 7468,
      "##tımı": 7469,
      "doğmuştur": 7470,
      "olmayı": 7471,
      "İnternet": 7472,
      "atış": 7473,
      "yetkil": 7474,
      "Burs": 7475,
      "görünüm": 7476,
      "Altay": 7477,
      "mevz": 7478,
      "ilişkileri": 7479,
      "Koç": 7480,
      "manyetik": 7481,
      "oynamış": 7482,
      "##engiz": 7483,
      "44": 7484,
      "Cast": 7485,
      "kül": 7486,
      "soya": 7487,
      "##akta": 7488,
      "##ya'daki": 7489,
      "##ezer": 7490,
      "arasından": 7491,
      "##isip": 7492,
      "adının": 7493,
      "##renin": 7494,
      "harfi": 7495,
      "ayrılan": 7496,
      "buraya": 7497,
      "dahi": 7498,
      "Birliği'nin": 7499,
      "bahç": 7500,
      "yaratık": 7501,
      "sunucu": 7502,
      "korku": 7503,
      "mümkündür": 7504,
      "akademik": 7505,
      "Tolki": 7506,
      "Club": 7507,
      "Dor": 7508,
      "Para": 7509,
      "Time": 7510,
      "Veli": 7511,
      "Ye": 7512,
      "ep": 7513,
      "ith": 7514,
      "yedek": 7515,
      "Çoğu": 7516,
      "##ft": 7517,
      "##irken": 7518,
      "##akar": 7519,
      "##ılmıştı": 7520,
      "##okul": 7521,
      "inhib": 7522,
      "##odoks": 7523,
      "şeker": 7524,
      "açıkça": 7525,
      "düzenlen": 7526,
      "##ia'nın": 7527,
      "Brit": 7528,
      "anlaşı": 7529,
      "kolon": 7530,
      "yürüttü": 7531,
      "Dönem": 7532,
      "işlemi": 7533,
      "Jovi'nin": 7534,
      "gücünü": 7535,
      "dayalı": 7536,
      "Junior": 7537,
      "şunlardır": 7538,
      "39": 7539,
      "Fe": 7540,
      "Kh": 7541,
      "Kart": 7542,
      "Seb": 7543,
      "Sing": 7544,
      "Vit": 7545,
      "fakül": 7546,
      "##ıdır": 7547,
      "##lası": 7548,
      "##enf": 7549,
      "##isiz": 7550,
      "##azen": 7551,
      "anıt": 7552,
      "##ilmez": 7553,
      "geçtiği": 7554,
      "##ara'nın": 7555,
      "filmdir": 7556,
      "albümden": 7557,
      "eğilim": 7558,
      "azın": 7559,
      "Almanya'ya": 7560,
      "taşımaktadır": 7561,
      "Maur": 7562,
      "manastır": 7563,
      "dayanan": 7564,
      "Yapım": 7565,
      "şimdi": 7566,
      "çıkarılan": 7567,
      "AC": 7568,
      "Fas": 7569,
      "Teş": 7570,
      "nun": 7571,
      "tapın": 7572,
      "##,2": 7573,
      "gördüğü": 7574,
      "vergi": 7575,
      "onlar": 7576,
      "katman": 7577,
      "Amb": 7578,
      "evine": 7579,
      "ilçesi": 7580,
      "Otto": 7581,
      "mutlak": 7582,
      "Ağır": 7583,
      "küresel": 7584,
      "fabrik": 7585,
      "Tibet": 7586,
      "Haber": 7587,
      "Net": 7588,
      "caz": 7589,
      "fer": 7590,
      "pap": 7591,
      "um": 7592,
      "##şim": 7593,
      "##tına": 7594,
      "##o'da": 7595,
      "tarihsel": 7596,
      "##ebilmektedir": 7597,
      "yaşındaki": 7598,
      "katal": 7599,
      "filme": 7600,
      "akşam": 7601,
      "yapılacak": 7602,
      "kitle": 7603,
      "kızıl": 7604,
      "olursa": 7605,
      "binlerce": 7606,
      "Atlan": 7607,
      "Tekn": 7608,
      "Hastan": 7609,
      "Scott": 7610,
      "belgesel": 7611,
      "senaryosunu": 7612,
      "International": 7613,
      "Miss": 7614,
      "Ref": 7615,
      "Siyah": 7616,
      "Tot": 7617,
      "af": 7618,
      "risk": 7619,
      "Şek": 7620,
      "##ning": 7621,
      "##cileri": 7622,
      "##ünce": 7623,
      "##aze": 7624,
      "delik": 7625,
      "##ükem": 7626,
      "##ilmesiyle": 7627,
      "verilmektedir": 7628,
      "bulunmuş": 7629,
      "##ürken": 7630,
      "kullanılması": 7631,
      "gösterilir": 7632,
      "İsmail": 7633,
      "kaplama": 7634,
      "deng": 7635,
      "ülkeye": 7636,
      "sayf": 7637,
      "tutul": 7638,
      "Aslında": 7639,
      "izlen": 7640,
      "geliştirme": 7641,
      "150": 7642,
      "kontrolü": 7643,
      "büyüm": 7644,
      "SSC": 7645,
      "bölgelerde": 7646,
      "inceleme": 7647,
      "canlandırdığı": 7648,
      "pulları": 7649,
      "Sırbistan": 7650,
      "Pers": 7651,
      "Sel": 7652,
      "Vil": 7653,
      "bez": 7654,
      "huz": 7655,
      "öv": 7656,
      "##lot": 7657,
      "##lemiş": 7658,
      "göğ": 7659,
      "##ülasyon": 7660,
      "kurgu": 7661,
      "##ecik": 7662,
      "çalışırken": 7663,
      "belge": 7664,
      "##odor": 7665,
      "çektiği": 7666,
      "Parlament": 7667,
      "süreci": 7668,
      "Okyan": 7669,
      "##tıktan": 7670,
      "Sinan": 7671,
      "turnuva": 7672,
      "Aziz": 7673,
      "mekaniz": 7674,
      "demiryolu": 7675,
      "tayin": 7676,
      "Abdullah": 7677,
      "sınav": 7678,
      "Dep": 7679,
      "dö": 7680,
      "##yin": 7681,
      "##sinde": 7682,
      "##erin": 7683,
      "##irli": 7684,
      "##lar'ın": 7685,
      "##lerken": 7686,
      "##rada": 7687,
      "başlayarak": 7688,
      "gereği": 7689,
      "getirmiştir": 7690,
      "##entur": 7691,
      "tabl": 7692,
      "savunu": 7693,
      "konuşan": 7694,
      "saldırıya": 7695,
      "Sanatçı": 7696,
      "tepki": 7697,
      "kullanılmaya": 7698,
      "oradan": 7699,
      "Colle": 7700,
      "Mahkemesi": 7701,
      "Trabzonspor": 7702,
      "zirveye": 7703,
      "tecrüb": 7704,
      "gerekçesiyle": 7705,
      "46": 7706,
      "Cro": 7707,
      "Mol": 7708,
      "Saman": 7709,
      "bol": 7710,
      "refer": 7711,
      "suy": 7712,
      "##siy": 7713,
      "##feder": 7714,
      "##bine": 7715,
      "##ase": 7716,
      "##is'in": 7717,
      "##izmin": 7718,
      "##abilecek": 7719,
      "animasyon": 7720,
      "##chester": 7721,
      "evli": 7722,
      "düşer": 7723,
      "eşcinsel": 7724,
      "Lew": 7725,
      "olmasıdır": 7726,
      "Okul": 7727,
      "bozul": 7728,
      "stil": 7729,
      "##iskop": 7730,
      "kiralık": 7731,
      "kadrosunda": 7732,
      "Eliz": 7733,
      "Jerry": 7734,
      "University": 7735,
      "Win": 7736,
      "Yaban": 7737,
      "Youn": 7738,
      "başlığı": 7739,
      "##tral": 7740,
      "kole": 7741,
      "gruplar": 7742,
      "muhaf": 7743,
      "Premi": 7744,
      "ilerleyen": 7745,
      "Times": 7746,
      "başlangıç": 7747,
      "Yönetmen": 7748,
      "Napol": 7749,
      "çekirdek": 7750,
      "çözünürlük": 7751,
      "Oda": 7752,
      "Yurdu": 7753,
      "cami": 7754,
      "gelerek": 7755,
      "idi": 7756,
      "kıl": 7757,
      "le": 7758,
      "##kâ": 7759,
      "##diye": 7760,
      "##.T": 7761,
      "##gâh": 7762,
      "##KA": 7763,
      "##ily": 7764,
      "##ınız": 7765,
      "##elidir": 7766,
      "##kanlığı": 7767,
      "oluşmuştur": 7768,
      "getirilmiştir": 7769,
      "değin": 7770,
      "Harry": 7771,
      "geliştirilmiş": 7772,
      "kadınların": 7773,
      "İtalyanca": 7774,
      "dikkate": 7775,
      "kütüphan": 7776,
      "Grubu'nun": 7777,
      "Metal": 7778,
      "oynamaya": 7779,
      "ekiplerinden": 7780,
      "47": 7781,
      "Hill": 7782,
      "Müttefik": 7783,
      "Tour": 7784,
      "acı": 7785,
      "diğeri": 7786,
      "gül": 7787,
      "##'yle": 7788,
      "##iro": 7789,
      "##emeyen": 7790,
      "##tian": 7791,
      "##ibe": 7792,
      "işleri": 7793,
      "denen": 7794,
      "Karadağ": 7795,
      "giymiştir": 7796,
      "Partisi'nin": 7797,
      "Tank": 7798,
      "kariyerinin": 7799,
      "Sanatlar": 7800,
      "Jacob": 7801,
      "Yugoslavya": 7802,
      "##şevik": 7803,
      "List": 7804,
      "Meg": 7805,
      "Tür": 7806,
      "Şehrin": 7807,
      "##ae": 7808,
      "##mara": 7809,
      "##jyon": 7810,
      "##aklı": 7811,
      "##lemi": 7812,
      "##uşu": 7813,
      "tarihinden": 7814,
      "##ersey": 7815,
      "girdiği": 7816,
      "bölgesinin": 7817,
      "##tris": 7818,
      "etkisiyle": 7819,
      "##liğinden": 7820,
      "dilinde": 7821,
      "golle": 7822,
      "uğrat": 7823,
      "Matt": 7824,
      "Brown": 7825,
      "boyutlu": 7826,
      "galaksi": 7827,
      "İdman": 7828,
      "Silahlı": 7829,
      "Hollywood": 7830,
      "Ram": 7831,
      "Wolf": 7832,
      "zam": 7833,
      "##mes": 7834,
      "##vey": 7835,
      "##sey": 7836,
      "##bit": 7837,
      "##alif": 7838,
      "##asyonal": 7839,
      "denet": 7840,
      "##sand": 7841,
      "öğrenimini": 7842,
      "Lejyon": 7843,
      "Sonunda": 7844,
      "##diki": 7845,
      "uygulan": 7846,
      "şampiyonluğunu": 7847,
      "Toplam": 7848,
      "avukat": 7849,
      "pullar": 7850,
      "Japonya'da": 7851,
      "dosya": 7852,
      "Edirne": 7853,
      "roket": 7854,
      "dır.": 7855,
      "avantaj": 7856,
      "Messier": 7857,
      "Ail": 7858,
      "Ec": 7859,
      "Hop": 7860,
      "Life": 7861,
      "Wat": 7862,
      "##zen": 7863,
      "##dev": 7864,
      "##elin": 7865,
      "etmeyi": 7866,
      "oyunda": 7867,
      "Albay": 7868,
      "doğa": 7869,
      "zamana": 7870,
      "nef": 7871,
      "##uyan": 7872,
      "harit": 7873,
      "uzunluğu": 7874,
      "soruştur": 7875,
      "yıldızların": 7876,
      "devletin": 7877,
      "geliştirilen": 7878,
      "keşif": 7879,
      "koyu": 7880,
      "kitabında": 7881,
      "ekonomisi": 7882,
      "Örgüt": 7883,
      "Hamburg": 7884,
      "Tokyo": 7885,
      "muharebe": 7886,
      "Antalya": 7887,
      "sıfır": 7888,
      "Prusya": 7889,
      "aleyh": 7890,
      "Boston": 7891,
      "Bursaspor": 7892,
      "Bayan": 7893,
      "Dik": 7894,
      "Nec": 7895,
      "PTT": 7896,
      "Sı": 7897,
      "Vas": 7898,
      "kesi": 7899,
      "voleybol": 7900,
      "zaten": 7901,
      "##eryal": 7902,
      "##aker": 7903,
      "sürülmüştür": 7904,
      "yaşına": 7905,
      "##chi": 7906,
      "baskın": 7907,
      "erdi": 7908,
      "Bey'in": 7909,
      "Adalet": 7910,
      "##luğunun": 7911,
      "Serv": 7912,
      "dergisinin": 7913,
      "Berlin'de": 7914,
      "Arthur": 7915,
      "Nisan'da": 7916,
      "Hatta": 7917,
      "Yerel": 7918,
      "Kahraman": 7919,
      "Belediyesi": 7920,
      "Şeyh": 7921,
      "doğrultusunda": 7922,
      "##ükemmel": 7923,
      "Def": 7924,
      "Hac": 7925,
      "Jane": 7926,
      "Jersey": 7927,
      "Sava": 7928,
      "iyon": 7929,
      "##rin": 7930,
      "##nun": 7931,
      "##bil": 7932,
      "##NE": 7933,
      "##lie": 7934,
      "##isa": 7935,
      "##üyü": 7936,
      "##edral": 7937,
      "gelindi": 7938,
      "yönde": 7939,
      "bölgesine": 7940,
      "aldılar": 7941,
      "Kongr": 7942,
      "sözü": 7943,
      "dilleri": 7944,
      "sayılabilir": 7945,
      "üyeli": 7946,
      "gönüllü": 7947,
      "ölümüne": 7948,
      "seçimleri": 7949,
      "tipik": 7950,
      "sembol": 7951,
      "firma": 7952,
      "Türkçesi": 7953,
      "redded": 7954,
      "Swift": 7955,
      "devrimci": 7956,
      "kademe": 7957,
      "Budizm": 7958,
      "51": 7959,
      "Boz": 7960,
      "How": 7961,
      "Oğu": 7962,
      "Pu": 7963,
      "Tut": 7964,
      "Yazı": 7965,
      "padi": 7966,
      "satı": 7967,
      "yağı": 7968,
      "##tim": 7969,
      "##pet": 7970,
      "##gus": 7971,
      "bulunuyordu": 7972,
      "##kent": 7973,
      "devir": 7974,
      "üretic": 7975,
      "ürettiği": 7976,
      "rolüyle": 7977,
      "##diklerini": 7978,
      "ligin": 7979,
      "teklifi": 7980,
      "halkının": 7981,
      "Kırmızı": 7982,
      "gemisi": 7983,
      "familyasının": 7984,
      "düzeyde": 7985,
      "protesto": 7986,
      "Virgini": 7987,
      "Bing": 7988,
      "Cry": 7989,
      "Cami": 7990,
      "Ever": 7991,
      "Sib": 7992,
      "Trak": 7993,
      "Who": 7994,
      "umut": 7995,
      "vah": 7996,
      "çıplak": 7997,
      "##rası": 7998,
      "##log": 7999,
      "##sus": 8000,
      "##gah": 8001,
      "##iki": 8002,
      "kurmuştur": 8003,
      "##lamaları": 8004,
      "sanay": 8005,
      "##agog": 8006,
      "belirtir": 8007,
      "üstüne": 8008,
      "##olojisi": 8009,
      "Komisyonu": 8010,
      "mahal": 8011,
      "takımıyla": 8012,
      "bunlardan": 8013,
      "araştırmalar": 8014,
      "kaybetmiştir": 8015,
      "sosyalist": 8016,
      "çarpışma": 8017,
      "kamera": 8018,
      "civar": 8019,
      "Papa": 8020,
      "##alimanı": 8021,
      "meclis": 8022,
      "Napoli": 8023,
      "mimari": 8024,
      "Napolyon": 8025,
      "Oğuz": 8026,
      "Mezar": 8027,
      "PA": 8028,
      "Ran": 8029,
      "Varş": 8030,
      "uc": 8031,
      "##ting": 8032,
      "##veti": 8033,
      "##jinal": 8034,
      "##susu": 8035,
      "birinde": 8036,
      "##iyop": 8037,
      "##osunda": 8038,
      "verme": 8039,
      "çıkarak": 8040,
      "birlikler": 8041,
      "yüzyı": 8042,
      "##içi": 8043,
      "isimleri": 8044,
      "kıt": 8045,
      "##onomik": 8046,
      "kavuş": 8047,
      "Malat": 8048,
      "Bedir": 8049,
      "paylaştı": 8050,
      "direktörü": 8051,
      "Devleti'nin": 8052,
      "Yayınları": 8053,
      "Smith": 8054,
      "orkestra": 8055,
      "Bundesliga": 8056,
      "Ludwig": 8057,
      "43": 8058,
      "Fern": 8059,
      "ov": 8060,
      "özerk": 8061,
      "##.7": 8062,
      "##ispor": 8063,
      "##ador": 8064,
      "##ört": 8065,
      "##üye": 8066,
      "kurt": 8067,
      "##eddin": 8068,
      "intik": 8069,
      "##ebilecek": 8070,
      "kaza": 8071,
      "dönemlerde": 8072,
      "Marmara": 8073,
      "Kardeş": 8074,
      "Song": 8075,
      "görünür": 8076,
      "sıv": 8077,
      "olurlar": 8078,
      "Uzay": 8079,
      "Simavi": 8080,
      "Brezil": 8081,
      "ahlâ": 8082,
      "çerçevesinde": 8083,
      "##övalye": 8084,
      "Caddesi": 8085,
      "kahverengi": 8086,
      "Cr": 8087,
      "Gem": 8088,
      "Titan": 8089,
      "Vis": 8090,
      "##ute": 8091,
      "##inler": 8092,
      "##unk": 8093,
      "##laştırma": 8094,
      "##embe": 8095,
      "##imin": 8096,
      "##ülmüş": 8097,
      "##oper": 8098,
      "##lıktan": 8099,
      "bulunması": 8100,
      "Angel": 8101,
      "sürüldü": 8102,
      "konferans": 8103,
      "##uzu": 8104,
      "##ilendir": 8105,
      "##masa": 8106,
      "##chen": 8107,
      "oyunları": 8108,
      "hali": 8109,
      "üçlü": 8110,
      "gelip": 8111,
      "içerik": 8112,
      "biten": 8113,
      "Stre": 8114,
      "artış": 8115,
      "anlatı": 8116,
      "Ekonomi": 8117,
      "kims": 8118,
      "örgütü": 8119,
      "kemik": 8120,
      "teşvik": 8121,
      "Festival": 8122,
      "Taylor": 8123,
      "işletim": 8124,
      "Cezay": 8125,
      "##aboratuvar": 8126,
      "52": 8127,
      "Blo": 8128,
      "Gil": 8129,
      "Gece": 8130,
      "She": 8131,
      "US": 8132,
      "sip": 8133,
      "yedinci": 8134,
      "Çay": 8135,
      "##cinin": 8136,
      "##.G": 8137,
      "##ason": 8138,
      "##lace": 8139,
      "##urlar": 8140,
      "##dırım": 8141,
      "Albert": 8142,
      "Birkaç": 8143,
      "kullanıldığı": 8144,
      "müziğ": 8145,
      "formasıyla": 8146,
      "gözük": 8147,
      "Sanayi": 8148,
      "yakınında": 8149,
      "ortalarında": 8150,
      "konuşulan": 8151,
      "Çin'de": 8152,
      "##ando": 8153,
      "çağdaş": 8154,
      "Kayser": 8155,
      "mahkeme": 8156,
      "Hollandalı": 8157,
      "ismiyle": 8158,
      "##simum": 8159,
      "kalıp": 8160,
      "basınç": 8161,
      "Celsius": 8162,
      "cisim": 8163,
      "skor": 8164,
      "sponsor": 8165,
      "Fen": 8166,
      "Gold": 8167,
      "Wes": 8168,
      "alacak": 8169,
      "spek": 8170,
      "yeğ": 8171,
      "Ömer": 8172,
      "Şeh": 8173,
      "##ule": 8174,
      "##akya": 8175,
      "##orta": 8176,
      "##azz": 8177,
      "##rack": 8178,
      "##aft": 8179,
      "##ağan": 8180,
      "karşılıklı": 8181,
      "sırt": 8182,
      "ölmüştür": 8183,
      "Orkest": 8184,
      "tarihindeki": 8185,
      "yeten": 8186,
      "bakter": 8187,
      "Ordu'nun": 8188,
      "##ross": 8189,
      "hükûmet": 8190,
      "kıyas": 8191,
      "Elf": 8192,
      "km.": 8193,
      "yazarın": 8194,
      "gençlik": 8195,
      "kırsal": 8196,
      "temsilcisi": 8197,
      "oranda": 8198,
      "eleştiriler": 8199,
      "##oğlu'nun": 8200,
      "parçaları": 8201,
      "Royal": 8202,
      "But": 8203,
      "Mada": 8204,
      "Voleybol": 8205,
      "disip": 8206,
      "gide": 8207,
      "sad": 8208,
      "Çanak": 8209,
      "Şen": 8210,
      "##fil": 8211,
      "edilerek": 8212,
      "##lamayan": 8213,
      "Franz": 8214,
      "temas": 8215,
      "Başlangı": 8216,
      "getirir": 8217,
      "korsan": 8218,
      "bırakıldı": 8219,
      "muhale": 8220,
      "finalinde": 8221,
      "isteği": 8222,
      "özgürlük": 8223,
      "Ortodoks": 8224,
      "Clark": 8225,
      "gövde": 8226,
      "gelindiğinde": 8227,
      "Bad": 8228,
      "DS": 8229,
      "Deb": 8230,
      "Kev": 8231,
      "Lost": 8232,
      "SE": 8233,
      "Tip": 8234,
      "fi": 8235,
      "hed": 8236,
      "rüz": 8237,
      "yiyecek": 8238,
      "##şar": 8239,
      "##iret": 8240,
      "##etro": 8241,
      "##malarını": 8242,
      "algı": 8243,
      "ardı": 8244,
      "çıkıp": 8245,
      "##ebilmek": 8246,
      "sürmüştür": 8247,
      "##uke": 8248,
      "akın": 8249,
      "çekici": 8250,
      "şekli": 8251,
      "yolc": 8252,
      "Başka": 8253,
      "gerekmektedir": 8254,
      "devamı": 8255,
      "alınır": 8256,
      "Lig'de": 8257,
      "terör": 8258,
      "##feransı": 8259,
      "köyü": 8260,
      "yürür": 8261,
      "Toprak": 8262,
      "yönetiminde": 8263,
      "yağmur": 8264,
      "Rumen": 8265,
      "Alexander": 8266,
      "Fox": 8267,
      "Sezar'ın": 8268,
      "yörüng": 8269,
      "gidip": 8270,
      "piyano": 8271,
      "Dair": 8272,
      "Yay": 8273,
      "bo": 8274,
      "emp": 8275,
      "kaya": 8276,
      "seg": 8277,
      "##çileri": 8278,
      "##furt": 8279,
      "##arya": 8280,
      "##lanmıştı": 8281,
      "##okulu": 8282,
      "ard": 8283,
      "verilmiş": 8284,
      "##ölç": 8285,
      "kuram": 8286,
      "kurban": 8287,
      "Anne": 8288,
      "sürer": 8289,
      "geçim": 8290,
      "##maktadırlar": 8291,
      "gibidir": 8292,
      "gösterim": 8293,
      "İstanbul'un": 8294,
      "alınması": 8295,
      "Ash": 8296,
      "Aslan": 8297,
      "ayrım": 8298,
      "Kanun": 8299,
      "gazetesi": 8300,
      "bağımsızlığını": 8301,
      "öğrenciler": 8302,
      "dönüşüm": 8303,
      "Que": 8304,
      "kuantum": 8305,
      "ücretsiz": 8306,
      "penaltı": 8307,
      "Körfezi": 8308,
      "Pierre": 8309,
      "yüzyıla": 8310,
      "Bedirhan": 8311,
      "Hap": 8312,
      "Kendi": 8313,
      "Motor": 8314,
      "bacak": 8315,
      "ömür": 8316,
      "şeyi": 8317,
      "##oid": 8318,
      "##'ların": 8319,
      "##âli": 8320,
      "tarihten": 8321,
      "katılır": 8322,
      "##trop": 8323,
      "##gust": 8324,
      "döneminin": 8325,
      "şehre": 8326,
      "##ago": 8327,
      "ABD'ye": 8328,
      "kola": 8329,
      "eserinde": 8330,
      "yarışmaya": 8331,
      "duyurdu": 8332,
      "Belg": 8333,
      "sakin": 8334,
      "subayı": 8335,
      "kupa": 8336,
      "Mahkem": 8337,
      "bileşik": 8338,
      "Premier": 8339,
      "600": 8340,
      "Ron": 8341,
      "##şiv": 8342,
      "##zat": 8343,
      "##bey": 8344,
      "##TP": 8345,
      "##el'in": 8346,
      "önlemek": 8347,
      "kullanmıştır": 8348,
      "##ect": 8349,
      "##ukur": 8350,
      "açılmıştır": 8351,
      "alanları": 8352,
      "bölgeyi": 8353,
      "istik": 8354,
      "koordin": 8355,
      "örneği": 8356,
      "dizayn": 8357,
      "eskiden": 8358,
      "yakınlarındaki": 8359,
      "orduları": 8360,
      "binası": 8361,
      "sundu": 8362,
      "mesle": 8363,
      "Resmi": 8364,
      "Etiyop": 8365,
      "kaydedilen": 8366,
      "rütbesine": 8367,
      "detay": 8368,
      "Bavy": 8369,
      "Ege": 8370,
      "Ni": 8371,
      "Niş": 8372,
      "Nij": 8373,
      "bec": 8374,
      "th": 8375,
      "Ür": 8376,
      "öden": 8377,
      "şif": 8378,
      "##lini": 8379,
      "##kov": 8380,
      "##dorf": 8381,
      "##zh": 8382,
      "##ularak": 8383,
      "##çısı": 8384,
      "##onlar": 8385,
      "##amamıştır": 8386,
      "##aph": 8387,
      "##duc": 8388,
      "##abilen": 8389,
      "##istanı": 8390,
      "ediyordu": 8391,
      "kurmuş": 8392,
      "kurtu": 8393,
      "Türkistan": 8394,
      "yazmaya": 8395,
      "yılında": 8396,
      "işbirliği": 8397,
      "devleti": 8398,
      "varlık": 8399,
      "açıklandı": 8400,
      "##emişti": 8401,
      "tura": 8402,
      "grupları": 8403,
      "Altmış": 8404,
      "Abdül": 8405,
      "Proj": 8406,
      "kaçın": 8407,
      "hızı": 8408,
      "seçimlerde": 8409,
      "ayrılarak": 8410,
      "istediğini": 8411,
      "Steph": 8412,
      "göçmen": 8413,
      "senarist": 8414,
      "olacağı": 8415,
      "arkasında": 8416,
      "meşhur": 8417,
      "asalaktır": 8418,
      "Bavyera": 8419,
      "Cle": 8420,
      "bant": 8421,
      "cer": 8422,
      "kuv": 8423,
      "nih": 8424,
      "yel": 8425,
      "##ville": 8426,
      "##paz": 8427,
      "##ua": 8428,
      "##onna": 8429,
      "##ator": 8430,
      "##itif": 8431,
      "##ğıt": 8432,
      "sonsuz": 8433,
      "arazi": 8434,
      "[YEAR]'ların": 8435,
      "ölçek": 8436,
      "##lamadan": 8437,
      "##lendirme": 8438,
      "izleyen": 8439,
      "ödülüne": 8440,
      "hayatının": 8441,
      "Sha": 8442,
      "Johnson": 8443,
      "sürdürmektedir": 8444,
      "galip": 8445,
      "nitelik": 8446,
      "başlangıçta": 8447,
      "potan": 8448,
      "oyuncunun": 8449,
      "gecik": 8450,
      "çekirde": 8451,
      "Profesyonel": 8452,
      "Mihail": 8453,
      "zincir": 8454,
      "Gelenek": 8455,
      "Hik": 8456,
      "Hale": 8457,
      "Kamp": 8458,
      "Mavi": 8459,
      "Yukarı": 8460,
      "cen": 8461,
      "farkı": 8462,
      "mor": 8463,
      "mükemmel": 8464,
      "##lileri": 8465,
      "##meti": 8466,
      "##öh": 8467,
      "##çilerin": 8468,
      "biriydi": 8469,
      "görsel": 8470,
      "anket": 8471,
      "anısına": 8472,
      "taktik": 8473,
      "katliam": 8474,
      "sıralan": 8475,
      "görevinde": 8476,
      "Ergen": 8477,
      "eklen": 8478,
      "genelinde": 8479,
      "##adık": 8480,
      "koc": 8481,
      "öğrenim": 8482,
      "hazırladı": 8483,
      "kentte": 8484,
      "sınırı": 8485,
      "makam": 8486,
      "kriz": 8487,
      "Ankaragücü": 8488,
      "koydu": 8489,
      "kraliyet": 8490,
      "##lüğüne": 8491,
      "canlandırdı": 8492,
      "##bahar": 8493,
      "niteli": 8494,
      "Kendisi": 8495,
      "donanım": 8496,
      "Bolşevik": 8497,
      "cumhuriyet": 8498,
      "rakibi": 8499,
      "olağanüstü": 8500,
      "prodüktör": 8501,
      "Ticaret": 8502,
      "huzur": 8503,
      "Young": 8504,
      "Klasik": 8505,
      "OS": 8506,
      "Sug": 8507,
      "Toy": 8508,
      "bilm": 8509,
      "demek": 8510,
      "nda": 8511,
      "##memek": 8512,
      "##otez": 8513,
      "##inen": 8514,
      "##üsünü": 8515,
      "ülkesi": 8516,
      "Eng": 8517,
      "öldürür": 8518,
      "nüfusun": 8519,
      "biçiminde": 8520,
      "##idae": 8521,
      "kutsal": 8522,
      "Williams": 8523,
      "Cemiyeti": 8524,
      "kuşatma": 8525,
      "şimdiki": 8526,
      "milletvekil": 8527,
      "sanatçının": 8528,
      "dövüş": 8529,
      "Disney": 8530,
      "Elizabeth": 8531,
      "58": 8532,
      "Ki": 8533,
      "Les": 8534,
      "Olay": 8535,
      "Tav": 8536,
      "gıda": 8537,
      "hop": 8538,
      "yılan": 8539,
      "##rut": 8540,
      "##ydu": 8541,
      "##TÜ": 8542,
      "##asan": 8543,
      "##ay'ın": 8544,
      "##imf": 8545,
      "##azlar": 8546,
      "##makam": 8547,
      "##maktır": 8548,
      "##ülmesi": 8549,
      "bölgeleri": 8550,
      "kurulması": 8551,
      "savaşçı": 8552,
      "Kont": 8553,
      "grubuna": 8554,
      "sisteminde": 8555,
      "This": 8556,
      "partizan": 8557,
      "Beat": 8558,
      "rekabet": 8559,
      "Guev": 8560,
      "Kitab": 8561,
      "Walter": 8562,
      "##pool": 8563,
      "ittifak": 8564,
      "68": 8565,
      "Dark": 8566,
      "Game": 8567,
      "Kle": 8568,
      "Lenin": 8569,
      "ha": 8570,
      "koz": 8571,
      "taç": 8572,
      "Öy": 8573,
      "##kut": 8574,
      "##.E": 8575,
      "##fal": 8576,
      "##alanı": 8577,
      "##omen": 8578,
      "görmek": 8579,
      "yakıt": 8580,
      "asil": 8581,
      "aktris": 8582,
      "yönetilen": 8583,
      "kazanır": 8584,
      "Champ": 8585,
      "basıldı": 8586,
      "dışına": 8587,
      "Bilimler": 8588,
      "gazetec": 8589,
      "[HEB": 8590,
      "Musa": 8591,
      "kitabın": 8592,
      "işgali": 8593,
      "etmişlerdir": 8594,
      "firması": 8595,
      "iptal": 8596,
      "Gökada": 8597,
      "Kilisesi": 8598,
      "Çalışma": 8599,
      "netic": 8600,
      "Alfred": 8601,
      "76": 8602,
      "Nem": 8603,
      "Polis": 8604,
      "Sincan": 8605,
      "restor": 8606,
      "##yaka": 8607,
      "##nu": 8608,
      "##jder": 8609,
      "##'inde": 8610,
      "##binin": 8611,
      "##gam": 8612,
      "##win": 8613,
      "##MS": 8614,
      "##onyalı": 8615,
      "##as'ın": 8616,
      "olmasının": 8617,
      "##asıt": 8618,
      "arama": 8619,
      "Birlik": 8620,
      "##elerle": 8621,
      "zamanlı": 8622,
      "##sion": 8623,
      "##uydu": 8624,
      "serinin": 8625,
      "getirdiği": 8626,
      "yoktu": 8627,
      "Komitesi": 8628,
      "anlamında": 8629,
      "##tıkları": 8630,
      "tutuklandı": 8631,
      "Yakın": 8632,
      "töreni": 8633,
      "yurtdı": 8634,
      "Mozart": 8635,
      "Ernst": 8636,
      "Hans": 8637,
      "Kub": 8638,
      "Lot": 8639,
      "Nar": 8640,
      "PC": 8641,
      "Ric": 8642,
      "Selim": 8643,
      "cadde": 8644,
      "cilt": 8645,
      "elip": 8646,
      "post": 8647,
      "##e'de": 8648,
      "##'lık": 8649,
      "##him": 8650,
      "##onc": 8651,
      "##ulmaktadır": 8652,
      "##raba": 8653,
      "sonlarına": 8654,
      "görmüştür": 8655,
      "ettikleri": 8656,
      "Alb": 8657,
      "##redi": 8658,
      "asla": 8659,
      "varsay": 8660,
      "##düle": 8661,
      "Ayak": 8662,
      "belirsiz": 8663,
      "yapıt": 8664,
      "taşım": 8665,
      "##ernova": 8666,
      "lige": 8667,
      "Abell": 8668,
      "doku": 8669,
      "bağış": 8670,
      "Holding": 8671,
      "##box": 8672,
      "çocuklar": 8673,
      "Tarım": 8674,
      "mücadeles": 8675,
      "Kürd": 8676,
      "ölçüm": 8677,
      "nüfusunun": 8678,
      "emri": 8679,
      "eyaletinin": 8680,
      "Saldır": 8681,
      "hayvancılık": 8682,
      "ülkelerin": 8683,
      "boşan": 8684,
      "Kürtçe": 8685,
      "iplik": 8686,
      "başlattı": 8687,
      "gitarist": 8688,
      "köşe": 8689,
      "tayf": 8690,
      "Kalesi": 8691,
      "Kocaeli": 8692,
      "Entertain": 8693,
      "41": 8694,
      "Nam": 8695,
      "R.": 8696,
      "Sok": 8697,
      "Sub": 8698,
      "Tos": 8699,
      "Yür": 8700,
      "atılan": 8701,
      "gayet": 8702,
      "ho": 8703,
      "pu": 8704,
      "püs": 8705,
      "usta": 8706,
      "şov": 8707,
      "##ys": 8708,
      "##dor": 8709,
      "##II": 8710,
      "##etli": 8711,
      "yapması": 8712,
      "##omer": 8713,
      "##omma": 8714,
      "aran": 8715,
      "açtığı": 8716,
      "Kongre": 8717,
      "anlaştı": 8718,
      "Barb": 8719,
      "kimlik": 8720,
      "edebilir": 8721,
      "dağılım": 8722,
      "Takımı": 8723,
      "Ordusu'nun": 8724,
      "Filip": 8725,
      "Apple": 8726,
      "Demirspor": 8727,
      "Berk": 8728,
      "Güç": 8729,
      "Lüb": 8730,
      "far": 8731,
      "ihan": 8732,
      "tal": 8733,
      "yav": 8734,
      "##uf": 8735,
      "##cül": 8736,
      "##demir": 8737,
      "##asus": 8738,
      "##esir": 8739,
      "tarif": 8740,
      "##oke": 8741,
      "yarısı": 8742,
      "toplanan": 8743,
      "Amatör": 8744,
      "##erküm": 8745,
      "eksen": 8746,
      "düzenlenmiştir": 8747,
      "Avrupalı": 8748,
      "oluşturmaktadır": 8749,
      "aşkın": 8750,
      "gruptan": 8751,
      "##uston": 8752,
      "Özbek": 8753,
      "bırakmıştır": 8754,
      "ilişkisi": 8755,
      "çevresindeki": 8756,
      "boşluk": 8757,
      "Nehri'nin": 8758,
      "ayırt": 8759,
      "Milliyet": 8760,
      "borç": 8761,
      "Kazakistan": 8762,
      "rahip": 8763,
      "tüfek": 8764,
      "Brian": 8765,
      "Entertainment": 8766,
      "67": 8767,
      "72": 8768,
      "Bart": 8769,
      "Hür": 8770,
      "Rol": 8771,
      "mayın": 8772,
      "nis": 8773,
      "pla": 8774,
      "##ea": 8775,
      "##gn": 8776,
      "##amayan": 8777,
      "buhar": 8778,
      "yaşamı": 8779,
      "##rie": 8780,
      "girmeyi": 8781,
      "iklimi": 8782,
      "##raft": 8783,
      "##ştiği": 8784,
      "tahrip": 8785,
      "kendisinden": 8786,
      "geldiğini": 8787,
      "gazetesinde": 8788,
      "olduklarını": 8789,
      "başkanlığını": 8790,
      "ülkelerinde": 8791,
      "projesi": 8792,
      "ayakk": 8793,
      "mutf": 8794,
      "ürünleri": 8795,
      "kalıcı": 8796,
      "Sekret": 8797,
      "tıpkı": 8798,
      "tenis": 8799,
      "sözcüğü": 8800,
      "coğrafi": 8801,
      "AK": 8802,
      "Dol": 8803,
      "Kes": 8804,
      "Las": 8805,
      "Univers": 8806,
      "gri": 8807,
      "vizyon": 8808,
      "##bini": 8809,
      "##aks": 8810,
      "##ekon": 8811,
      "##liser": 8812,
      "##urken": 8813,
      "##iyen": 8814,
      "##ümr": 8815,
      "bugüne": 8816,
      "arke": 8817,
      "org": 8818,
      "##ept": 8819,
      "takımından": 8820,
      "görevlisi": 8821,
      "gerilla": 8822,
      "seçimi": 8823,
      "ülkeleri": 8824,
      "##iyorum": 8825,
      "İspanya'nın": 8826,
      "olayların": 8827,
      "##abilirler": 8828,
      "Albümde": 8829,
      "manz": 8830,
      "krallık": 8831,
      "Afrika'da": 8832,
      "çatış": 8833,
      "madaly": 8834,
      "Başbakan": 8835,
      "Andrew": 8836,
      "August": 8837,
      "##mosfer": 8838,
      "şebekesi": 8839,
      "Aleksios": 8840,
      "padişah": 8841,
      "Varşova": 8842,
      "Çanakkale": 8843,
      "56": 8844,
      "Prag": 8845,
      "Rev": 8846,
      "Sci": 8847,
      "Sad": 8848,
      "bede": 8849,
      "taki": 8850,
      "yi": 8851,
      "Çeşit": 8852,
      "##vel": 8853,
      "##koş": 8854,
      "##larlar": 8855,
      "##ayolu": 8856,
      "görmüş": 8857,
      "tarihçi": 8858,
      "takma": 8859,
      "yaşama": 8860,
      "##sia": 8861,
      "giri": 8862,
      "evlili": 8863,
      "çekimleri": 8864,
      "##ubu": 8865,
      "iyice": 8866,
      "Stra": 8867,
      "sıkça": 8868,
      "Dead": 8869,
      "ağırlık": 8870,
      "etmekte": 8871,
      "İlç": 8872,
      "maliyet": 8873,
      "dergisinde": 8874,
      "##siniz": 8875,
      "adamın": 8876,
      "inanç": 8877,
      "##okrasi": 8878,
      "kompoz": 8879,
      "hipotez": 8880,
      "Gençlerbirliği": 8881,
      "Adı": 8882,
      "CHP": 8883,
      "Hub": 8884,
      "Tel": 8885,
      "Tev": 8886,
      "Up": 8887,
      "Vla": 8888,
      "Your": 8889,
      "hoc": 8890,
      "tüy": 8891,
      "Öğret": 8892,
      "çet": 8893,
      "şaşır": 8894,
      "##elerin": 8895,
      "##paşa": 8896,
      "##kele": 8897,
      "##sayı": 8898,
      "##cal": 8899,
      "##cilerin": 8900,
      "##AC": 8901,
      "##lamasına": 8902,
      "##dıkları": 8903,
      "Anti": 8904,
      "kullanmak": 8905,
      "açar": 8906,
      "işler": 8907,
      "filmlerde": 8908,
      "uyum": 8909,
      "görevden": 8910,
      "##sızın": 8911,
      "kişiye": 8912,
      "ayrılmış": 8913,
      "zorluk": 8914,
      "yaşamaya": 8915,
      "keskin": 8916,
      "Manchester": 8917,
      "Afrik": 8918,
      "sıralarda": 8919,
      "gönderilen": 8920,
      "uçağı": 8921,
      "Mahal": 8922,
      "yönetmenliğinde": 8923,
      "grubudur": 8924,
      "eyaletinde": 8925,
      "bildirir": 8926,
      "Kolomb": 8927,
      "keman": 8928,
      "##memesi": 8929,
      "Frankfurt": 8930,
      "kolayca": 8931,
      "##kurmay": 8932,
      "Kelly": 8933,
      "Eyaleti'nde": 8934,
      "Ambly": 8935,
      "63": 8936,
      "74": 8937,
      "Agu": 8938,
      "L'": 8939,
      "Mis": 8940,
      "Yani": 8941,
      "lo": 8942,
      "piş": 8943,
      "van": 8944,
      "##niyet": 8945,
      "##ses": 8946,
      "##çü": 8947,
      "##çağ": 8948,
      "##ğimiz": 8949,
      "##itre": 8950,
      "almıştı": 8951,
      "##abilmektedir": 8952,
      "##man'ın": 8953,
      "verimli": 8954,
      "##ranç": 8955,
      "yayına": 8956,
      "sahte": 8957,
      "##lamayı": 8958,
      "çeker": 8959,
      "##eff": 8960,
      "sayısının": 8961,
      "##ardin": 8962,
      "Savaşın": 8963,
      "öğrenir": 8964,
      "çıkarıldı": 8965,
      "tabanlı": 8966,
      "askerî": 8967,
      "hizmeti": 8968,
      "meyve": 8969,
      "Daniel": 8970,
      "##sky": 8971,
      "Küre": 8972,
      "Good": 8973,
      "Hamza": 8974,
      "Dolayısıyla": 8975,
      "Liver": 8976,
      "Seksen": 8977,
      "Antonio": 8978,
      "tasarımı": 8979,
      "Geleneksel": 8980,
      "[YEAR]'in": 8981,
      "Cep": 8982,
      "G.": 8983,
      "Hur": 8984,
      "Mev": 8985,
      "bisiklet": 8986,
      "pol": 8987,
      "Şiir": 8988,
      "##şan": 8989,
      "##tg": 8990,
      "##er'ın": 8991,
      "##eton": 8992,
      "##emey": 8993,
      "##itör": 8994,
      "yaparlar": 8995,
      "Allen": 8996,
      "kurmak": 8997,
      "Konferansı": 8998,
      "##labilecek": 8999,
      "mülk": 9000,
      "grupta": 9001,
      "Sand": 9002,
      "sinagog": 9003,
      "yıldızın": 9004,
      "Han'ın": 9005,
      "bırakarak": 9006,
      "polimer": 9007,
      "gönderdi": 9008,
      "periy": 9009,
      "Bakü": 9010,
      "otel": 9011,
      "belirtmiştir": 9012,
      "##tuğ": 9013,
      "dikkatini": 9014,
      "adamları": 9015,
      "kelimesi": 9016,
      "düzeyinde": 9017,
      "benzeyen": 9018,
      "Telekom": 9019,
      "tehlikeli": 9020,
      "platin": 9021,
      "Hükümeti": 9022,
      "Dükü": 9023,
      "istihbarat": 9024,
      "Budist": 9025,
      "cümle": 9026,
      "SSCB": 9027,
      "Cezayir": 9028,
      "muhalefet": 9029,
      "püskür": 9030,
      ".D": 9031,
      ".[YEAR]": 9032,
      "85": 9033,
      "Boş": 9034,
      "Maya": 9035,
      "Pir": 9036,
      "Yör": 9037,
      "Yedi": 9038,
      "##miye": 9039,
      "##ii": 9040,
      "##.İ": 9041,
      "##TC": 9042,
      "##ar'ın": 9043,
      "##öly": 9044,
      "ork": 9045,
      "##tanın": 9046,
      "##erse": 9047,
      "Organ": 9048,
      "elb": 9049,
      "yaşta": 9050,
      "[YEAR]'deki": 9051,
      "düzenlediği": 9052,
      "değişir": 9053,
      "Santa": 9054,
      "Kraliçe": 9055,
      "yıldızları": 9056,
      "uygulanan": 9057,
      "olurken": 9058,
      "kaybeden": 9059,
      "şarkısını": 9060,
      "değiştirildi": 9061,
      "başlarlar": 9062,
      "Yıldırım": 9063,
      "çarptır": 9064,
      "Hacı": 9065,
      "şarkısıdır": 9066,
      "taarruzu": 9067,
      "bölgesindeki": 9068,
      "teorisi": 9069,
      "Island": 9070,
      "ordusunu": 9071,
      "antrenör": 9072,
      "Amblyomma": 9073,
      "Had": 9074,
      "Mağ": 9075,
      "Va": 9076,
      "be": 9077,
      "küç": 9078,
      "pah": 9079,
      "rengi": 9080,
      "ted": 9081,
      "##ić": 9082,
      "##ios": 9083,
      "##sına": 9084,
      "##gız": 9085,
      "birç": 9086,
      "##abi": 9087,
      "gelmesi": 9088,
      "##laşmış": 9089,
      "doğur": 9090,
      "maçlarını": 9091,
      "iktis": 9092,
      "Orman": 9093,
      "##ramanı": 9094,
      "belirlenen": 9095,
      "##uluğunu": 9096,
      "Rusya'da": 9097,
      "dizisinin": 9098,
      "ağab": 9099,
      "Ordus": 9100,
      "Fransa'ya": 9101,
      "bilgileri": 9102,
      "kimya": 9103,
      "miktarı": 9104,
      "hücr": 9105,
      "Rose": 9106,
      "Temmuz'da": 9107,
      "Belediyespor": 9108,
      "pröm": 9109,
      "Karşıyaka": 9110,
      "Balıkesir": 9111,
      "Lefkoş": 9112,
      "Selçuklu": 9113,
      "800": 9114,
      "Dünyanın": 9115,
      "Oh": 9116,
      "Tuna": 9117,
      "Uç": 9118,
      "basım": 9119,
      "##dün": 9120,
      "##lanıp": 9121,
      "##att": 9122,
      "anılır": 9123,
      "##üşü": 9124,
      "topra": 9125,
      "açmıştır": 9126,
      "alanlarda": 9127,
      "##mektedirler": 9128,
      "Karar": 9129,
      "getirilen": 9130,
      "sattı": 9131,
      "üreten": 9132,
      "term": 9133,
      "numarası": 9134,
      "tekniği": 9135,
      "yoksul": 9136,
      "planı": 9137,
      "siyasal": 9138,
      "Adaları": 9139,
      "bunları": 9140,
      "haftada": 9141,
      "sunulan": 9142,
      "açıklamada": 9143,
      "takviye": 9144,
      "stratejik": 9145,
      "bombardıman": 9146,
      "Teşkil": 9147,
      "Kayserispor": 9148,
      "Liverpool": 9149,
      "Bang": 9150,
      "GP": 9151,
      "Gön": 9152,
[...]
