[PAD]
[UNK]
[CLS]
[SEP]
[MASK]
[AMOUNT]
[ARAB]
[ARMN]
[BRAI]
[CURR]
[CYRL]
[DATE]
[EMAIL]
[FOREIGN]
[GEOR]
[GREK]
[HANG]
[HANI]
[HEBR]
[HIND]
[ISBN]
[JAPN]
[THAI]
[TIME]
[URL]
[YEAR]
!
"
#
%
&
'
(
)
*
+
,
-
.
/
0
1
2
3
4
5
6
7
8
9
:
;
<
=
>
?
@
A
B
C
D
E
F
G
H
I
J
K
L
M
N
O
P
Q
R
S
T
U
V
W
X
Y
Z
[
\
]
^
a
b
c
d
e
f
g
h
i
j
k
l
m
n
o
p
q
r
s
t
u
v
w
x
y
z
{
|
}
µ
¼
½
¾
À
Á
Â
Ä
Å
Æ
Ç
È
É
Ê
Ë
Ñ
Ó
Ö
Ø
Ú
Ü
ß
à
á
â
ã
ä
å
æ
ç
è
é
ê
ë
ì
í
î
ï
ñ
ò
ó
ô
ö
ø
ù
û
ü
ÿ
ă
ą
ć
Č
č
Đ
ē
ė
ę
ě
Ğ
ğ
İ
ı
Ł
ł
ń
ň
ō
ő
Œ
œ
ř
Ś
ś
Ş
ş
Š
š
ť
ū
ů
ų
ź
ż
Ž
ž
ƒ
ơ
ư
ǎ
ș
ț
ə
ᶄ
ḓ
ả
ậ
ế
ệ
ố
ộ
ớ
ờ
ụ
�
##a
##r
##ş
##ı
##l
##y
##m
##t
##ö
##e
##v
##i
##n
##p
##k
##o
##j
##d
##z
##û
##s
##'
##u
##ç
##c
##h
##ü
##.
##7
##x
##5
##8
##f
##b
##g
##w
##ğ
##P
##1
##0
##6
##9
##ą
##é
##4
##è
##î
##M
##B
##á
##3
##â
##C
##R
##İ
##S
##H
##A
##D
##2
##[
##Y
##E
##]
##I
##Z
##T
##O
##æ
##í
##X
##K
##q
##ă
##ê
##ä
##ñ
##Ş
##ᶄ
##,
##W
##N
##V
##ō
##G
##L
##F
##Ü
##U
##ə
##ė
##ß
##ù
##ó
##ë
##ő
##Q
##à
##ū
##č
##ć
##Ç
##ł
##J
##ž
##Ö
##ã
##ś
##å
##ǎ
##ē
##ě
##š
##ì
##Ğ
##(
##Ê
##ò
##É
##ų
##ø
##ô
##ę
##ń
##ï
##ź
##ș
##ř
##ť
##ż
##ÿ
##ň
##�
##ț
##½
##ả
##ḓ
##ớ
##+
##ů
##ơ
##ờ
##)
##ế
##/
##ụ
##-
##Ä
##ệ
##œ
##ư
##ộ
##Â
##^
##ố
##<
##Ú
##Š
##Á
##ậ
##=
##ar
##an
##er
##in
##ın
##ir
##en
##lar
##il
##ak
##de
##da
##le
ve
##al
##un
##ler
##on
##as
##ır
##la
##ek
##es
##li
bir
##ay
##lan
##at
##ur
##et
##şt
##is
##or
##am
##AR
##el
##YE
##AR]
##YEAR]
##dı
##lı
##iy
##ün
##ul
##ik
##aş
##ür
##dan
##em
##im
##ap
##di
ol
##ında
##inde
##it
##ah
##ıl
##az
##'n
##ya
##den
##ol
##ey
##ma
##du
##te
##mı
de
##dır
##ta
gö
##ra
##dir
##ine
##ların
##mi
##iz
##ası
##st
##ları
##ık
##ük
##ğı
al
##ini
tar
##larak
iç
##üm
##ab
##ti
##esi
##ok
son
##leri
##ki
yap
olarak
ile
##us
baş
##um
##ği
##ce
##ış
##ez
bu
##av
##ından
##ev
##inin
##af
##mak
##ştir
##ştır
##lik
##ıs
##üz
##om
ar
##ci
da
##ad
kar
##iler
##ım
##ön
##ağ
##ını
##AT
##lk
##E]
##DAT
##DATE]
gör
olan
##ut
##ca
için
an
et
##oğ
##ilm
##eç
##os
##ül
##man
##tı
##ist
oldu
##'da
##'de
##ına
##op
##aki
##ru
##mıştır
Bu
is
##lu
yer
##aya
##ark
bul
##me
ay
##len
taraf
##iş
##ro
ver
##lık
##asında
##ih
en
ön
oy
##cı
##mek
##uş
##ib
##ran
sonra
tarafından
##zer
##miştir
##eş
##cu
##ız
bulun
ed
##inci
##ör
##üy
Al
##isi
##eri
##aç
##ğu
##ürk
##ması
##yon
##öl
##yla
kur
##ının
##eh
ilk
kul
##iye
or
##cak
##aha
##daki
##alı
##'in
##ip
An
##lerin
##ic
Türk
##ed
##unda
##tadır
ken
in
##eni
##lay
tarih
##tan
çık
##uşt
##eb
##'nin
##ıldı
kad
##üş
sür
##'nın
##ada
##ayı
##şı
kon
##unu
##ers
##anı
##mış
##ov
Bir
##eli
geç
##uz
kullan
##ilen
##maktadır
gel
##arı
bil
##'ın
üzer
##re
ad
##uştur
ise
##ibi
daha
##ken
##üyük
##laş
çok
tak
##ig
##iyle
##miş
dön
##ec
böl
yön
yaz
##ot
##ilir
##men
##tedir
on
##iv
##let
##oy
yaş
##ter
yar
kal
tek
##uk
##erek
yay
##mas
##ğer
##aman
##ildi
##dığı
gibi
gün
##id
yıl
##öy
##ılan
gen
top
aç
##ster
##he
##art
sah
##ili
çal
##eler
es
##inden
büyük
##eye
kat
karşı
##unun
##rı
##ısı
iş
doğ
##üt
##ele
arasında
##ara
##ch
##lü
kadar
##lam
dev
##ade
sır
##up
##avaş
film
##larda
##ans
##esinde
##rup
yak
##larında
##büm
Ar
##cü
as
##ede
##leş
##if
öz
zaman
##ladı
##si
iki
##ret
olm
çalış
##ing
##sa
##ri
##por
##sel
##dür
uz
##iyet
##ye
göster
var
[YEAR]'
il
kay
alan
##ren
İs
##lığı
##larını
maç
birlik
İn
Am
##arkı
##iyon
##ep
öl
##arak
##dü
##lara
kaz
##est
Ay
##mektedir
oyun
##ezon
gir
pro
ik
##erk
##'a
Av
ak
Alman
takım
hal
ne
uy
##ac
##gil
##uv
##una
##tir
yük
oyn
##üç
albüm
##nı
##ale
##ayan
bel
yeni
par
Fran
ev
##yi
##ika
sezon
Or
görev
##tal
##od
olduğu
yüz
##iç
##tır
##lerini
##maya
##uy
##diği
düş
ger
##lığ
bölg
tarihinde
##'un
##öz
sağ
##ten
##dur
##amp
yönet
##iğer
veya
##ne
Türkiye
##ğini
##tr
çek
##lerinde
alt
kazan
##gu
##ünya
tan
##liği
bağ
##imi
dönem
Er
şek
##gi
yan
##larının
##bol
##atı
##ral
kap
ara
##ştı
adı
##üs
##asyon
düz
##ilmiştir
seç
##ağı
kend
den
##ünde
##üncü
##larına
dur
göre
özel
##sız
##niv
##oz
##nivers
yaptı
##rıca
##ram
##san
deği
ele
şeh
##ındaki
##lem
##ley
birlikte
##ça
##lerde
##han
##'nde
##yan
at
##niversit
üç
mil
kıs
##lama
etti
adlı
##'e
##ob
##esine
el
kiş
ülk
her
İngil
hay
##ef
##istan
##'ya
##AM
##çek
har
Amer
san
##der
diğer
tam
müz
##lerinin
yayın
##ka
##oli
##dül
ser
##NT
önem
##azı
##mp
der
şarkı
Ch
##OU
sahip
##AMOU
##NT]
##AMOUNT]
bulunan
ek
öğ
##ordu
tür
ada
##ünü
kurul
ama
##usu
##ğunu
##ub
##rub
kom
ya
##olo
ist
neden
##erkez
Gen
##kan
aynı
##ılır
etk
En
yol
##uh
##üp
aldı
sonu
##enin
##likle
##stan
oluş
ort
say
On
hak
##tik
geli
boy
##sek
önce
içinde
[YEAR]'de
##ag
##eti
##lerinden
##eyi
kö
tem
belir
hem
##lardan
##mesi
##'nun
##se
##00
gerçek
kab
##larından
yapı
##ece
AB
bas
fark
gelen
##ard
##çe
##iyat
res
The
##ılmıştır
##lus
taş
##lerine
önemli
##ide
##lere
##uzey
##ileri
for
açık
Dünya
##luk
##'nda
savaş
başladı
##yı
##arat
##tar
düzen
İk
##hur
Mar
şekil
##lanan
Avrup
er
Kar
##çok
##emi
Kon
##lab
##raf
eğ
genel
##esini
##'te
##akat
##ıldız
##adı
##utbol
do
##oğu
##ge
Üniversit
##ilmek
##ampiyon
ABD
kez
biri
ko
üst
bilin
mü
##tü
##met
##ulu
tüm
söz
##ecek
Avrupa
yapılan
get
ör
##bir
Ro
##ck
Baş
ok
bölüm
##öyle
değiş
gerek
##van
##liğ
durum
getir
Dev
içer
##rak
üzerinde
Savaş
ask
Rus
Gün
sal
##tör
##ich
su
##esinin
##eg
##ılı
[DATE]'de
eş
vardır
dış
##ocu
diz
##iyas
devam
sist
##muştur
##leştir
##ent
##lat
olduğunu
kan
oluştur
aş
##ilik
##landı
yüksek
##bul
##lendir
birçok
##yet
##ia
olmuştur
tamam
##ast
##oloj
merkez
Ayrıca
sat
ağ
##vet
##meye
##umhur
##aber
az
##üşt
##'dan
##ow
##stanbul
üzerine
ikinci
İkinci
iyi
##isinde
##kada
##arator
İstanbul
##og
##mparator
alın
##tür
eski
sen
##üçük
##landır
Par
kor
Os
##masına
isim
##inal
##üne
şekilde
##su
##cek
##ilmiş
insan
grub
##ama
farklı
İngiliz
##duğu
çev
tur
Yah
kit
üret
##ud
##'ye
tut
Ak
bazı
göz
Üniversitesi
kendi
grup
üzere
As
##'daki
bit
##alan
##şti
met
Amerik
Birinci
San
öğren
Le
sin
of
##ava
ayr
Ancak
##layan
çıkar
##çı
futbol
yet
##masını
##ılmış
##edi
##ket
##'i
olmak
bağlı
faz
##olu
##spor
dil
rol
##dar
##na
sayı
##kı
değ
Cumhur
##layı
yakın
##eşit
##siyon
##üf
ilg
uzun
##tur
##ina
ancak
##adece
##ust
##per
kabul
##yo
Ne
müzik
ben
çalışma
sor
##ber
##rar
iz
##dından
eğit
##larla
bak
St
sanat
başla
##ımı
im
oyuncu
geçir
##undan
##çi
##uvvet
##lek
##dım
güç
##amı
çocu
harek
Kral
Son
##asar
##ğü
##yal
ordu
"'
##üb
Br
##oman
geri
kız
sonr
##dik
##aat
##lak
[YEAR]'te
İtal
Kur
haz
Bur
Lig
çeşit
küçük
zor
eser
##ion
yaklaş
fazla
##muş
##lardır
##ğını
Ordu
##gan
##'den
##ort
##ilerin
##unca
hat
##lerden
##lo
doğru
##'ta
gol
##det
##sı
yıldız
sadece
##tib
##elen
ter
ödül
##fer
##RL
eder
Kan
Mil
##eral
başarı
süre
##alık
##şk
İlk
##üc
##luğu
git
mo
sistem
##fa
hayat
##ern
##leme
Almanya
##ehir
##lin
##ton
kayn
##RL]
10
bulunmaktadır
onun
başar
karar
sev
sırasında
##br
Üç
##arası
eden
fil
Osman
##ısında
##ünün
yayım
olup
##ant
##ınır
Cumhuriyet
lis
Sov
dör
##siz
görül
##kları
ardından
##yıl
şehir
##ser
Bil
##oh
[DATE]'da
##aret
Beş
hazır
Har
giy
##pan
##ırak
Savaşı
##ilmektedir
kent
##ros
yarış
uygu
olma
##lük
##'ne
hük
##for
##lacak
Han
Hal
ses
Sovyet
itib
##indeki
##ünden
##üştür
yen
##oğun
Öz
kısa
##gram
##son
düşün
bırak
görün
##bi
ili
num
yaşam
##tor
duy
Alt
##deki
lig
##asına
##ğin
gaz
##lerle
poli
bur
Film
##ou
yüzyıl
boyunca
##mayı
saldır
değer
tekn
dir
art
##las
##les
##ali
kes
##ıp
[C
rağ
##üv
üy
Sh
[YEAR]'da
çeşitli
haf
##gün
##ht
tah
##ilmesi
Fransız
##sal
yok
rağmen
ber
kı
yaptığı
Fransa
Kom
##asındaki
zamanda
tekrar
##min
tab
##asının
asker
ail
##'ı
El
gön
kendis
yardım
uzak
##kanı
Ab
##YRL]
ün
##anın
##landa
sı
##ly
ortaya
İmparator
In
olur
##lanmıştır
Man
##atik
##'na
Gal
un
##ılması
Osmanlı
kuru
##a'nın
##udi
##deş
##kü
yaklaşık
##end
sık
##lararası
Daha
##inc
##ütün
öldür
eğitim
Ber
##gı
hiç
##to
##lenen
karak
program
list
sav
söy
##tiv
has
altında
Her
Ödül
##sil
taşı
##üdür
bin
seb
kişi
Pro
##yor
##onya
Böl
milyon
bilg
Th
##uncu
##esiyle
şampiyon
bab
##unan
##tere
ait
##acak
olması
Kuzey
nüf
te
##ekiz
##rans
edildi
[DATE]'te
Af
Üçüncü
kayb
beraber
hareket
sınır
Bey
değil
yerine
##ebilir
ede
kuvvet
mah
##ince
##müştür
##tif
hüküm
anlam
yeniden
##oş
sonunda
devlet
ulus
the
geliştir
##este
##tern
güney
kuzey
can
Bel
##labilir
##urg
##eyen
geniş
##estek
yüksel
orta
##ümüz
tele
yapım
tes
##fes
##ang
ayrıca
dik
##mıştı
çıkan
Kup
##of
Amerika
ilgili
hakk
kadın
##ştırma
##eleri
##enk
Avust
şehr
oğ
şir
##gin
almıştır
Devlet
İngiltere
sıra
geliş
##tiği
Birleş
muh
##üny
##ift
[AR
New
##kaç
gönder
At
uç
destek
##düncü
##iyor
İspan
kaç
##ova
Güney
plan
çalı
##ry
konu
hız
##lığını
ulaş
nedeniyle
##esinden
Büyük
çıktı
##orm
anla
elde
km
mak
mev
dah
başka
##osyal
Ma
##lî
per
sezonunda
siyas
dal
##mir
yazar
şark
##pe
köy
##ilah
dok
genç
##ültür
toplam
##usunda
dünya
Bar
##cusu
trans
Oy
##izyon
Es
##ore
parç
Doğu
Part
##ktan
##anan
Car
Den
##ug
hiz
Ank
Bak
##ver
##land
##ime
filmi
sar
##ond
Roma
bağı
kr
##eden
##sam
##isinin
##ılmaktadır
Hol
##ider
##ana
Amerikalı
kır
##ınıf
ilişk
mez
Kupası
olay
Kı
sinem
##ya'da
konuş
sırada
##emek
##bo
arkada
geldi
topl
kaynak
sun
Şampiyon
ölüm
##yordu
##asını
ot
oluşan
##larıyla
Pr
alır
Wil
kazandı
##mam
bulunur
##ideo
##pr
##lerdir
kuş
##fi
##can
seçim
Ankara
giriş
##gar
##ışma
dört
##eki
12
tanım
Cumhuriyeti
tekli
Ulus
onu
##kek
##ork
Şarkı
çevr
Yar
bey
##nek
Genel
gelir
birkaç
imz
##ha
##ga
çocuk
##aren
halk
edilen
gazet
Ek
final
Ada
##leti
adıyla
değiştir
Altın
Yunan
fakat
yapan
Yahud
##dy
özellikle
çiz
##ord
takımı
##amıştır
##ie
##ğinde
##osu
##'deki
##mişti
##alt
yerleş
##ektör
Müz
##ilecek
##maz
##AB
De
ayrı
tanı
karakter
##cade
İsv
##meni
oper
Birleşik
Jap
##ba
##adde
##leriyle
##üven
anlaş
##gun
##ya'nın
Çin
##ation
##lanır
[H
kardeş
beş
pat
##azi
Bun
Bunun
yas
bütün
sınıf
##orn
Mus
Yeni
gerçekleştir
15
kullanılan
Re
##şık
yür
##ici
[ARAB
belirt
dahil
Dem
komut
##vizyon
karş
nok
ana
##umu
hemen
##ari
Tar
##abilir
20
Dok
dav
##'yı
##onom
sonucu
Mah
Bul
verilen
bar
##GC
mode
##elik
##lanmış
##iya
kalan
##yas
hizmet
##gın
##luğ
Muh
kaldı
Aynı
##ök
verdi
katıldı
##leyen
benzer
Dör
toprak
##tu
##lendi
ünlü
##cısı
##uluk
##'s
ağır
savun
birbir
amacı
bilinen
itibaren
arasındaki
silah
##tay
din
kullanı
beri
keş
isimli
dolayı
mey
##ohn
##ij
bun
##tesi
İz
##eled
Fakat
mes
##taş
etmiştir
numar
inş
etmek
yanı
##anda
##ens
Albüm
##'u
uğ
albümü
Ben
yaşında
üçüncü
kav
##lamak
yine
pek
##ydı
##lim
if
##rim
##co
yönetmen
kas
##kin
##iyer
##iyatro
bilim
millî
sonuç
hakkında
yapmıştır
##gel
##brıs
Kıbrıs
Tek
##eme
kim
##and
olduk
elek
İngilizce
##burg
Top
içerisinde
##asyonu
##baş
mücade
Ser
Yahudi
Birliği
##ron
##isyon
##kat
##umlu
Arap
transfer
##tem
Ali
Kat
##ind
Batı
kil
Se
kitap
##AN
##iyordu
##ost
John
koy
suç
bağım
Mac
kayı
##meyi
temel
İl
temsil
##ize
mek
oran
başkan
##tığı
##qu
##ruz
##ula
##yalet
roman
##ke
##NA
sahiptir
değişik
oğlu
Grub
tasar
saat
maçta
##th
şirket
çağ
üye
çift
##ğında
##liğini
##isini
##eder
NGC
öğret
liste
##azar
Türkiye'de
##urt
Kara
görüş
yönetim
mal
çar
Dan
eleştir
biç
adını
##aban
..
##'yi
dönemde
##cağı
##rol
sürdür
aday
##sk
kitab
100
##rat
##rika
##diler
ta
##RE
##ilece
##adığı
kültür
kontr
##efer
merkezi
Kır
Kız
profes
##ilere
Sch
ayında
dışında
kol
Der
Ko
Ok
yapımı
##ğine
##şta
##gen
askeri
##üsü
Amerikan
part
Kür
organ
id
Deniz
##lenmiştir
##mesini
##ve
##amil
Kal
ilç
ona
Bas
11
televizyon
man
##zı
ülkeler
forma
##suz
şekl
bah
##ni
yarı
##laştı
##lis
aldığı
piyas
ifade
Sp
tarihi
##ert
bulunduğu
Orta
##ars
##masıyla
okul
grubu
renk
##ücü
##manın
gökada
kli
##dana
günümüz
şu
##eph
pop
başlar
araştırma
Mal
##oğlu
üyesi
Partisi
bek
Mon
La
##bay
##ümü
iste
##masının
alı
##müş
##ell
##tin
##oğraf
Tan
##izm
çalıştı
##laştır
kral
oynadı
elektr
gal
##mesine
)'
form
##ej
##lüğ
##o'nun
derg
düny
söyle
ölç
Pet
dem
sonraki
sahn
olmayan
başarılı
##ong
İtalyan
[G
##ikâ
örnek
##ire
kale
##ris
He
tanın
sonuc
adlandır
##ansı
Dördüncü
almaktadır
dayan
mücadele
##üler
turn
ki
deniz
genellikle
##öylece
##oun
##FA
şey
##arruz
döneminde
##our
dak
geçen
##ahat
Be
bağlan
erkek
satış
edil
##aj
##rek
##mez
[HAN
yarat
parça
Sam
sey
yoğun
cin
##lor
##ladığı
Berlin
gez
##BA
resmi
##int
##REK
yanında
dikkat
[GREK
edilir
##alar
özellik
futbolcu
nüfus
em
fa
güven
##uma
Tur
Anad
16
##tık
İran
##güt
##uan
##otor
üniversit
##ayın
gem
##neğin
teknik
Beşinci
##uzuncu
Dav
küt
##be
##iyan
##oloji
Ligi
Merkez
##sen
##ağını
Paris
##ile
##makta
kaybet
Sa
##masından
##taydı
para
kontrol
saldırı
##atör
bitir
iddi
hafta
bağımsız
Ste
Tem
rad
oldukça
##leşme
##io
13
##uldu
yıllarda
##cut
##arlar
##akül
##ick
Sar
Ad
##rail
sanatçı
boz
##ph
##cılık
bulundu
öğrenc
burada
sinema
beste
Anadolu
edilmiştir
biçim
##aktadır
##omb
General
York
##yl
küm
sahibi
hiçbir
video
ışık
ekonom
Mart
##esel
##rab
18
mik
##teki
biridir
uluslararası
##itler
##iyi
uyar
Kr
büy
Ör
##lamıştır
edeb
hüc
##sin
##di.
günü
keşf
çöz
hava
dağ
##sik
eki
##aba
##aln
##ıldığı
çap
Tüm
Rusya
bunun
##ice
kulüp
##bak
kariyer
önc
30
sosyal
filmin
geçti
adam
inşa
##düğü
25
##ısını
##ısına
##akip
İsrail
##'nden
##aşa
##yonel
sezonu
Pol
##ho
Lu
imparator
madde
##iyah
##forman
eyalet
kurulan
##alnız
##isine
Galat
Lis
Sal
atan
hayvan
olacak
##lav
kullanılır
Azer
##liam
göç
##estiv
##iir
##teş
Yıl
ür
and
##iği
Rob
yaşayan
beyaz
##ilim
model
vur
olduğ
Afrika
##ji
İsveç
##olojik
##I]
sonucunda
14
kamp
çarp
##dir.
girdi
##taki
yazı
Yir
##tüd
##ack
NBA
##ekli
anlat
kam
ilan
##anlığı
Ge
##ham
proj
##alle
Eski
ismi
Has
başlamıştır
Pa
spor
Eur
Türkçe
##yanın
Bal
ortak
kuruluş
##rik
##ola
##dığını
verir
##ehri
dönüş
##era
altı
Ev
tip
##ener
dağı
##orum
##ilerek
##adem
ettiği
Genç
TV
giz
hede
##üyle
##lenir
kulüb
##za
ülke
amaç
Kay
##lemek
##imleri
##itan
##evi
##tüdyo
rek
##lüğü
##imler
May
sol
##ılma
Su
SS
ayak
Char
##ment
Dokuzuncu
idar
mevcut
Grubu
hikâ
ila
##yalı
##uştu
toplum
##ank
Beşik
##ayet
##edinci
##lığına
Ha
hav
##yen
##kın
##esi'nde
yat
İş
Sen
Beşiktaş
##r.
başına
karşılaş
haline
Başkan
Sanat
Ödülü
şeklinde
senar
inan
Tak
İmparatorluğu
çoğu
##her
kanal
17
##nik
##ite
##asaray
Go
iht
sem
gele
çoğun
##iydi
haber
st
Ah
Bat
tic
##ehr
Gu
performan
Can
defa
##str
sebeb
babası
teh
##yol
Galatasaray
##imar
şarkısı
Ed
çalışan
yani
örgüt
zorunda
##eğ
##istik
##odern
##ff
başında
engel
Port
And
uygun
##i'nin
##des
Bölg
mahk
##meden
##ünkü
##berg
iler
##ünist
maçında
Met
Ot
##lardı
amacıyla
başkanı
##ilerini
faal
Don
Kul
21
##ane
##maktaydı
##kil
Hollanda
##ida
vardı
bölgede
##lüm
başlayan
işg
güçlü
piyasaya
tep
Kanada
bölgeler
Avustral
Bon
Per
Avustur
Roman
Sır
cez
##mer
##talık
arkadaş
Biz
##ırı
motor
ism
##res
taarruz
Hay
başken
##med
##ceki
##ğa
İtalya
batı
##üzel
yönünde
altın
sayıda
Em
##iliği
##ker
##rens
Altıncı
Sin
Fakül
sefer
ince
sebep
Sta
yerel
Bo
##air
##best
##avi
veren
Diğer
av
##uvar
Mek
üzerinden
Özel
yalnız
bile
##dük
geçer
##etim
Lond
##rom
kaldır
canlandır
ann
Bay
##emiştir
Ger
Mak
stüdyo
##iss
tiyatro
##iğ
asıl
faaliyet
oynan
mem
##asından
##au
##ner
oyuncusu
kayıt
##abet
oynam
bölgesinde
İyi
etmektedir
Doğ
özg
aşağı
ola
pul
##ith
pay
soy
olmuş
50
sab
##isk
mezun
sit
##ulan
Ordusu
##elediye
##tey
##ock
edilm
am
##yken
##ene
sistemi
öldürül
##har
##ildiği
zar
fot
kah
yayınlanan
Kızıl
Yön
öy
##rist
##asıyla
derece
koş
değildir
profesyonel
##areb
##anlık
konusunda
hükümet
##din
##esidir
##ilerinin
çevir
ziy
##rich
etkil
Gaz
##bah
##ilerine
bildir
gerçekleş
##onk
##ise
##alıdır
verdiği
sayısı
kendisine
Yük
adet
konser
uzaklık
hedef
kir
İç
teor
Bazı
MÖ
##ırlar
mut
dair
##arıyla
##mal
Un
bat
##isidir
Mo
##mesiyle
numaraya
boş
sayesinde
Kaz
hes
kut
##masında
##lanması
##uyu
düşük
##hangi
düzenlenen
turnuv
##ger
sak
##ısından
yöntem
nes
önceki
çat
##ukuk
Bab
Oli
##cılığı
Kad
##dam
gösterir
Fil
iddia
##ital
yaygın
Müs
Ang
Me
##ıntı
##ames
ant
##enn
parti
Kol
##madan
Müzik
ileri
etkin
##ternet
##aka
siyah
Meh
Uz
##idi
türü
yolu
yüzyılda
sıcak
yık
##ğın
oynanan
siyasi
Co
##laması
Ermeni
seçildi
fik
##ınca
##emen
##all
##ısının
##cılar
İki
olabilir
sorun
yör
##lidir
##sun
##.B
##lığa
Ho
Kit
Ven
##mada
versiyon
ABD'de
##ray
bilinir
##liğinde
William
Nor
Uy
fır
##ısıyla
##ekizinci
Ham
##lığında
hap
yaban
##go
attı
Res
Sur
olmasına
yapıldı
bölge
gelenek
Ara
ders
##izik
seslendir
ener
keşfed
Is
don
meydana
oyunu
##üper
yürüt
##one
##ami
ba
kızı
parçası
##ledi
Kürt
sok
vat
##şehir
idi.
çıkış
kötü
lider
##adi
Mich
şiir
##asa
##isay
nit
artık
mer
##langı
kardeşi
Grup
##ko
##hi
edi
kendini
19
Pan
##üle
kısm
maçı
herhangi
Mor
İspanyol
Yedinci
kem
##ünyanın
Do
So
##illa
##ded
sona
Uluslararası
Mec
Şehir
Fakültesi
alarak
hey
##ons
##stit
##va
##imini
verildi
ederek
Japonya
kop
##dın
##osta
İzmir
Londra
Nis
##bilir
yazılı
Buna
Bill
Sc
civ
işlem
karşısında
##'dir.
##old
anlamına
Kor
dar
##red
##els
anda
kullanıl
toplan
##ketbol
Mos
Yap
##'la
##lamaya
opera
keli
##onik
katkı
filmde
grubun
Hitler
birleş
Ph
##eng
Krallık
...
24
Ön
etmiş
##mekte
##layarak
bilgi
Ap
##tein
sonrasında
##ame
##vat
##ân
Oyun
deney
##pek
##rop
##vek
##'ün
##ısır
Mayıs
##muz
##taj
yazdığı
kazanmıştır
##culuk
famil
puan
##arken
Ermen
##leşti
##'ni
edilmiş
Kem
Kuvvet
Macar
Jos
olsa
##mem
##dikten
baz
##maları
##leri'nde
tamamen
##ier
##üst
##ity
##asım
Kore
bugün
Köy
birinci
##larındaki
konum
kapsam
serbest
yapılmıştır
##omet
Futbol
##yu
##ight
Mısır
Cem
Pat
##dikleri
##ill
##lisi
tutuk
Burada
##onksiyon
ora
doğu
##onu
fir
##arında
Art
##ingle
Sovyetler
##edik
22
Haz
##lah
##ultan
##tand
##ere
köken
Yüksek
İspanya
Ale
tav
yağ
##rad
##hend
politik
##ormal
Star
Val
teş
Ulusal
Bizans
##ino
##ülen
Türkç
Ama
Kent
Şampiyonası
Jon
##yıldız
##manı
döndü
iken
##meleri
doktor
Mat
##üğ
kurum
Fer
bunu
Japon
Geor
taşın
izin
otom
##ylül
##tiler
##cağını
##mışlardır
fonksiyon
##ıt
tart
Üniversitesi'nde
Tarih
ma
Gran
Fin
##'ndan
adına
Ros
##üce
kısmı
diren
nokta
Bulgar
Te
##öm
FI
##öv
##vi
Nehri
Qu
##tiş
yardımcı
Mad
##omi
##etik
##ezar
##lıklı
imzal
Nisan
ordusu
uygulama
Gir
mağ
Sosyal
##lilik
ortal
##istan'ın
kurulmuştur
eşit
teslim
Ter
##lıkla
işgal
Lat
yoktur
Azerbay
dan
ip
##esi'nin
##lenmiş
radyo
Ef
##mızı
kazanan
##endi
Harek
yorum
görüntü
direktör
DNA
tas
Com
sub
##ani
##laya
düzey
Azerbaycan
Di
red
sürekli
itibarıyla
ulusal
arkadaşı
otur
tarihli
Eylül
##ai
James
##deniz
kişilik
söyler
Demir
##ısız
alanı
ateş
##ciler
yazarı
Gi
##dak
ülkede
##liğe
nüfusu
##okr
ordus
siyaset
Ekim
Yak
halinde
nedenle
##teydi
Hot
Mes
nin
metre
günümüzde
açı
yana
başrol
hastalık
bilgisay
gezeg
##medi
araç
Başkanı
##lasik
Spor
Hat
Mas
Po
##engin
##ışı
komp
Dön
hücre
fin
##oks
kuşat
hesap
Sekizinci
##yası
takımının
kurulmuş
Col
##dır.
Polonya
işle
##rafik
hikây
fotoğraf
dek
mas
##may
listesinde
ziyaret
##a'da
benz
Rich
##are
Wal
##ulmuştur
nokt
Eb
Halk
dünyaya
Charles
terk
##ision
##letvek
parlak
Parti
##atif
içeren
##kar
##meyen
yapmaktadır
##ırken
##oth
şehri
mada
##iyeti
kütle
Mü
Wh
von
##iran
gelmiştir
filminde
resim
ayrıldı
oluşur
popüler
performans
kurdu
üzerindeki
yapımcı
##kün
##izi
takımyıldız
durumda
Bro
oda
Göl
verilmiştir
##neği
##rosu
ürün
Jo
Yüz
ülkenin
gözlem
40
Rum
hep
İr
Olimp
##undaki
##'nı
Con
Hav
modern
olası
serg
Avusturya
diy
##sh
adında
kuruldu
mat
boyut
Dağ
##uru
##üştü
Sim
Ver
olab
rast
single
kendine
##alığı
Dr.
Je
tamamladı
dördüncü
takip
##cel
şarkıcı
hayatını
##emektedir
Yarış
Mur
hast
kurtar
gösteren
kendisi
Hak
##anlar
çıkmıştır
tane
hale
numara
Mehmet
Böylece
kaf
##tul
##fik
vatanda
Festiv
Tele
UE
hâ
##lında
Ta
bes
ıs
##ood
##ilya
yüzünden
dizi
Az
Kö
fizik
gider
##anlı
##isyen
hızlı
Ku
##sch
yapmış
UEFA
dans
dünyanın
giren
alındı
Kap
tör
##ica
kesin
yapmak
kendisini
##po
##liy
ressam
##keti
Temmuz
ekonomik
Örneğin
##eles
##aspor
##ileceği
Gar
yayınlandı
arası
geçmiş
23
Hen
yılı
yayımlanan
##board
Kadın
gece
##car
##lukla
Tr
sunu
oynadığı
terci
##ze
Frank
kitabı
Robert
Mer
siv
Şub
##emin
doğdu
Aş
Eğ
öner
eseri
bölümü
Sultan
şid
orman
Paşa
Uk
rap
zir
ner
organiz
Jack
d.
##do
gizli
Mc
Tor
Tim
##dat
sağlayan
uçak
Ceph
FK
##lediği
karış
My
deste
davran
gördü
kavram
Yer
##fet
##aması
tarz
Portekiz
yabancı
soğ
yerleşim
Hır
##my
katı
26
Gür
Los
##olis
görülür
polis
##hendis
eg
poz
yum
##an'ın
##lım
içine
kork
başkenti
Jov
##layısıyla
##elerde
taşıyan
Tom
##eşil
yüzden
##uyordu
buna
##mayan
##fat
##laşı
##tion
takımın
yanlı
çalışmaları
Kim
kod
##elt
##olf
ortam
Devleti
canlı
Tay
hip
kolay
ın
##lanma
etraf
Billboard
Nazi
##gur
##lip
kara
görevi
Musta
##ney
##menin
sahne
Mosk
tercih
We
mimar
##lov
##ski
##'tan
##ash
##ştan
ettir
Kil
yerini
çünkü
süren
altına
yenil
müm
zengin
##iden
##oya
Ant
korum
Liv
ulaştı
##ilerde
##esindeki
belli
değerlendir
##ach
mekan
Bah
Fener
##lığın
şehrin
Yirmi
özgür
##altı
başlangı
teda
Ağ
İslam
##ess
##ate
tarım
istem
Oper
##üldü
mümkün
##arş
belg
mahalle
yalnızca
başta
Rad
##ûm
##udur
ayır
##ecektir
malz
Hava
etmeye
alanında
Türkiye'nin
işlet
öldü
##ündeki
baskı
Günümüz
klip
##çiler
##ğinden
##ükle
yıllar
metal
dakik
ih
##ward
götür
David
Ol
gid
##ayi
##abı
##lenme
Bakanlığı
Müslüm
rock
##uluğu
Britan
Ukray
diş
konusu
yazdı
sonrası
##yse
##liğine
üretim
##ori
All
görevini
For
Süper
dakika
bilgisayar
kanı
kup
##itz
başlat
##mann
##olog
sebebiyle
Fri
##ilebilir
##lanmaktadır
edilmektedir
##ğust
kapat
Nik
##yum
ark
##bahçe
bay
##sine
demir
bağlantı
Kuvvetleri
##tandart
posta
##sta
##okal
dol
emek
almış
##elerinde
sağlar
miktar
Pap
You
##bon
##bat
doğal
##acaktır
Sev
##yn
##enek
##ulur
yaşadı
ölçü
Gör
ef
yapılmış
##luğunu
bakım
##adir
katıl
kaydet
kuvvetleri
Kend
güzel
sta
sene
pas
yarar
Haziran
Min
##ael
Özellikle
##ğustos
sp
##'ten
sava
##ğret
yönelik
aktif
sözleşme
Avustralya
Kah
indir
##iel
genelde
gitti
rahat
gitar
gezegen
Flor
Müdür
##los
##jen
##ese
bomb
normal
##fon
savunma
zarar
27
dili
ku
Ülk
##pit
Mag
Sav
bal
şim
##tika
##sim
##dek
arada
Paul
İrlanda
Mark
tük
##mesinden
##teri
##kel
##ğe
##urdu
##ette
##elerinin
adamı
yetiş
Boy
Sezon
Çağ
##adaki
Kurulu
##elediy
Mustafa
Moğ
bö
buz
##iforn
unvan
Olimpiyat
Ju
##ucu
##ult
olmadığı
to
birim
hala
çapında
Fenerbahçe
##zon
##asıl
onları
aile
##in'in
kullanım
albümün
Filmin
İsviç
ekip
Eğit
sektör
##lâ
##'le
sonradan
giydi
şehrinde
Bor
##lerce
yaşadığı
köpr
eşi
Hind
Lou
##gr
doğr
uzay
çevre
başardı
##ona
isyan
oynayan
satışa
ortalama
nerede
ey
kalı
##sü
kural
koşul
Dar
Fars
Küçük
Ocak
ilgi
Milli
Peter
tehlik
Ağustos
Et
##ann
gelmektedir
tablo
Belç
yükseldi
Kasım
takımında
şiddet
Krallığı
hatta
Da
arka
üyeleri
geleneksel
Moskova
biy
sek
##iri
vermiştir
yakal
gazete
Trab
##ilip
milletvek
uğr
No
plat
##daş
kullanılmaktadır
kişinin
Enstit
karşın
lim
##danı
öne
internet
[YEAR]'den
müziği
basketbol
Gr
Çocu
##işleri
alınan
Video
Yaş
##mesinin
Ba
##raman
yerleştir
oluşturur
kaynağı
Beyaz
200
güc
##çesi
##bin
##iyade
##diğini
kayded
prot
##obil
etkili
tahmin
kasab
Angeles
28
II
kış
##aket
##lamen
##ester
Arn
böylece
la
üs
##cisi
##lıkları
çatışma
takımyıldızı
##dem
##lıca
etkisi
bölümünde
Ukrayna
Cez
sap
saha
yıllık
içindeki
satın
çocuğu
Mir
hen
##ayla
şirketi
Feder
RNA
Sw
##ena
##lamaktadır
İnsan
Bla
seri
##lya
##.A
Güneş
Prens
cep
tale
##zerk
çıkart
devr
Adam
Lov
##emesi
##eyn
##laşma
Fransa'nın
sivil
Gö
Irak
##aları
##amak
##ukarı
ticaret
Zaman
diye
##mut
##us'un
Sah
tarihleri
yüzey
Tam
##mar
##ung
##isiyle
araya
azal
yeter
lisans
Komut
Arapça
kökenli
Yine
mar
##ld
##oc
##ındır
hakim
Konstan
Rom
##uyor
Tiyatro
Yayın
##ling
##'dır.
##usal
##trat
kişiler
kök
eğitimi
Şubat
Gre
belediye
sim
##giller
Wor
rak
rüt
şair
##landığı
birlikleri
kıy
gür
üc
orij
düşman
Gazet
FIFA
cem
mac
##irler
##itesi
##tılan
donan
Kut
ac
##ovision
yönetimi
##hane
sanatç
##tis
##ğından
##und
##amadı
sinyal
Komünist
##mamış
Gök
del
hukuk
Çek
##eth
##ümüş
##okrat
##meler
vatandaş
Final
##N]
##ata
##mıyla
kalmıştır
karşılık
##lığının
kaps
molek
gelecek
re
##asi
##lılar
##ülü
üstün
düşünül
değişiklik
FC
Gazi
##eği
##çak
##eyle
yapmaya
##egor
Eurovision
##doğu
##onomi
kullanılmıştır
çalışmaya
akım
aktar
Almanya'nın
Michael
##şte
bulut
dalında
civarında
Alex
Grand
klasik
yavaş
##RT
insanların
Eğer
yapıl
##istan'da
Kons
durumu
birey
##amaz
edebiyat
Uygur
standart
yedi
İst
##erler
birleştir
##rix
sağladı
derin
ödülü
Kralı
##gre
yapar
anal
üniversite
mevcuttur
bazen
iy
##amb
kadros
esn
türüdür
sarmal
##elsef
orada
War
frek
##ğına
durdur
tasarım
biçimde
Hük
Park
kum
nasıl
plak
##dae
basın
Çok
##ano
##lamış
etme
açısından
Avrupa'da
Akadem
kırmızı
Suriye
İsviçre
ücret
##ayıf
##başı
##lon
almak
##tiğini
Mahk
yaşındayken
Şah
##lıdır
seviy
Fransızca
Cor
Diy
##kest
bulunmuştur
##gue
başarısız
ihtiy
Trabzon
Ac
sekiz
##tez
yaptık
##ott
sağlık
yönetic
orijinal
mark
yeri
bileş
yarışma
mekt
ır
şart
##deb
##ish
##form
##ational
annesi
##üstü
Naz
Rec
##çu
##.5
buldu
##mişlerdir
##oyu
##elerini
kısım
İngiltere'de
henüz
##doğ
##'nün
evren
ilgilen
kıyı
##en'in
day
yurt
##ıma
##lıklar
yardı
aktör
harf
listelerinde
madalya
Belçika
Şark
Okulu
ilçesine
han
yayı
yeti
##TV
sürüm
##laşması
resm
dışı
##ileceğini
dağıt
World
Fa
Geç
Pal
Sü
med
##minci
##alim
##madı
kararı
Brez
80
##ela
sabit
zirv
neredeyse
test
##'yu
kullanarak
İstanbul'da
Asya
Merkezi
kür
vaz
##lanarak
##orf
görülen
yüzyılın
bahs
Fo
Vak
meş
##sak
##larıdır
finalde
Bunlar
Müslüman
Moğol
Eli
Sezar
İb
##rid
asist
serv
aşırı
seyahat
Haç
Vol
##iet
##ny
devre
girmiştir
öğrenci
söyledi
asıllı
Kemal
rütb
şah
##yap
##,5
edilmesi
sert
Kam
ah
ban
elektrik
Jean
kanıt
Cel
ister
##rag
iletiş
##ever
yere
##lenmesi
##erson
tanıt
kaybetti
Venedik
hapis
Eğitim
Kıs
##way
yapılır
yerde
kons
bilinmektedir
Yahudiler
bunların
Günümüzde
60
Pas
##eliği
takımına
teklisi
29
Küb
Men
zayıf
##sika
##bar
Millet
uzaklıkta
ö.
##e'nin
yaparak
kategor
yayımlandı
Konstantin
##ıcı
geçiş
Cumhurbaş
Festivali
##adan
##udu
##gılan
içerir
politika
hasta
Ödülleri
teklif
barış
Tah
Van
##a'ya
##igh
maçına
etkilen
##liğin
ağaç
kamu
Kültür
bor
ters
açıkladı
Tok
böyle
çoğ
##tarı
##dt
##lardaki
##yaleti
ikti
Derneği
çoğunlukla
büny
##nam
##elli
##ulmuş
köş
dolayısıyla
##layıp
güneyinde
kayıp
enerji
Alek
Ke
Sey
gücü
pen
##ole
##ath
##ett
##ita
##ilme
süreç
ABD'nin
Stady
Pe
hid
##isel
alanda
kentinde
girişim
Lin
Maç
psik
##olik
araz
yandan
Karl
Rusça
##bert
##brah
toplamda
mec
nedeni
ortadan
saray
Yardım
Başkanlığı
keşfedilmiştir
tr
tat
##ğan
pazar
##sur
##çta
##ora
gerekir
Muhareb
mesaf
Yönet
90
Nap
niş
##lendiği
örneğin
##alandı
bina
mu
şöyle
##maş
gök
yaşan
katılı
işaret
kapı
komünist
açıklama
çizgi
##yasından
dram
oyunun
sağlamak
Kaliforn
Kulüb
Enstitüsü
ref
##cin
##bek
##ât
##ike
kenti
devrim
[YEAR]'li
Sonra
Sağ
##yolu
açılı
Devletleri
cemaat
##yar
##ema
başv
verilir
##iyatrosu
teknoloj
muhareb
Sak
Tun
cüce
mm
##ematik
kesim
##çev
##che
##amış
##üyor
getirildi
tespit
Yirminci
Çocuk
Belediy
Ex
cid
Aralık
Amerika'da
Ra
herk
yemek
##kır
##ideri
katılan
özgün
Erkek
öğretmen
Yarışması
##ıyor
##geç
##elç
##likleri
doğum
gösterime
çekildi
kurucu
kuzeyinde
Muham
George
emekli
mon
Rock
Cen
Mic
sarı
göl
onların
##elere
halde
denk
Bölümü
Sil
##malı
##âr
günlük
araştır
makale
Sırp
Tab
cm
dip
##mon
##imli
##afız
##ruk
sıral
çağr
##ütte
aslında
dönemin
Şir
##wn
##eld
çalışır
Thom
maden
tören
egemen
Cal
##liler
korun
olmadığını
Ken
cev
birinc
##ebek
##leyerek
istif
Almanya'da
futbolcudur
Farsça
City
##yle
##y'nin
##wood
başlarında
##örü
doğrudan
babasının
familyasından
Hor
Yıldız
##âh
aralarında
öncesi
70
rö
##rah
biraz
##ife
halen
belirli
eylem
##üttefik
35
Dil
Play
fab
tay
vak
##uklu
Hers
Sat
##mamıştır
##er'in
##dal
veri
akadem
Franc
kralı
sergilen
Kaliforniya
ham
##lum
düşür
ailesi
Fried
Record
Dur
Mün
Mem
it
men
nın
val
vokal
##engi
erken
kanat
##layıcı
barındır
##koç
Kir
Ur
Ve
ış
##lom
##sat
prob
##lemesi
galib
fikir
ölçüde
45
Taş
##cının
##ington
yasak
Edeb
Lib
Seç
bölgesi
yönettiği
komutanı
cins
Edward
Sek
idam
nak
durumunda
şampiyonu
Kazak
Louis
Sun
Sol
##ven
doğan
geçirdi
po
rom
tıp
def
##aga
olduğundan
IP
##imiz
##aport
kadro
basit
yetiştir
Wind
festiv
lideri
yir
##SA
##larca
ilçe
Almanca
denir
##lemeye
komş
ismini
Bol
Spe
Tat
##odi
##oley
##use
##ağa
bölün
oyunc
oynamıştır
hakkı
başlamış
Sonr
formula
36
##ilmişti
listesine
32
Gül
mens
##ian
##uel
##fab
##atürk
olmaya
sorumlu
Richard
Jun
cumhur
##nak
##kur
##'taki
##cilik
##imark
##ceğini
Bursa
Ligi'nde
Takım
Ahmet
ruh
##no
İskoç
hastan
öğretim
Danimark
Süley
Din
Of
düzenli
##ows
çalışmalar
Atatürk
mezar
frekans
Bağ
Göz
hit
kade
##ilerinde
##elebi
gösterildi
##yaspor
heykel
stady
duvar
min
##bet
##uri
etmesi
eline
##own
bunlar
##tratej
To
bundan
lib
prens
##elerine
istasyon
##maşık
beğ
##ura
##mız
enz
güneş
maça
##birliği
rolü
oranı
Meksika
Kilis
##lamento
31
Hrist
Pin
##'teki
##espor
özelliği
ödülünü
Sab
dam
porn
##mit
verilm
kenesi
isten
Oyuncu
Panzer
Britanya
pr
##ceği
##afer
gören
##lub
yaşlı
##içek
##ograf
##okratik
giderek
Akademisi
Süleyman
Fr
Söz
gec
Çelebi
##cası
##amet
##tep
insanlar
filmidir
senary
paylaş
öykü
300
Form
Mu
ab
saf
##ülmüştür
Birçok
##edeki
##lerindeki
beşinci
yönetmenliğini
kilis
seyir
Kas
Say
Sup
West
des
##iyana
ilet
önünde
Erz
sınırları
ilaç
Uzun
##ati
etki
kalab
bölgeye
çekim
düşünce
programı
Poli
müs
##lili
birisi
artır
Akdeniz
golünü
ölümünden
atandı
sokak
finale
Ebu
Friedrich
geçerek
Lea
olacaktır
Balkan
Ir
##fak
##erçev
##amaya
##ları'nda
filminin
evlen
dönemi
hızla
##luğunda
Jovi
Ob
##rip
##'ü
##ağında
aracılığı
Max
davet
galak
Hein
Love
##brahim
Fat
Kn
ces
fak
##ıştır
##gor
##esiz
##ella
Anton
gereken
dünyada
Kupası'nda
Belediye
Ze
di
felsef
hiss
Çal
##veç
##ğinin
##day
##üme
kullanıldı
oluşmaktadır
çıkardı
Savaşı'nda
##off
kariyerine
mahkûm
Jac
Tiyatrosu
Viyana
balık
gar
göstermektedir
yoluyla
ihtiyaç
Dış
yola
öde
##dit
##ezi
##avut
hafif
çalıştır
Yunanistan
emr
pozisyon
pil
##kân
##on'un
##oru
edin
##ilenin
##cht
yönetmeni
ayrılır
##ijital
##ömür
Ban
Ey
Emin
Yaz
##ille
birimi
##lenmektedir
tarihlerinde
seçilen
isteyen
edecek
##oft
##ometre
Kör
Yazar
cis
##lerdi
##isinden
çekir
müzisyen
dolar
bitk
##lüğünü
nesil
Norveç
Aşağı
Far
Prix
giden
##ydi
##batı
##tic
vermek
[YEAR]'ten
Christ
ciddi
romanı
Lo
nükle
##so
oldukları
Ann
yazılan
yıllarında
çekilmiştir
##tikten
Records
500
Adana
Fi
Pop
TRT
gemi
##mey
##hel
yılın
serisi
benim
seviye
taht
Şampiyonlar
Kulübü
Muhammed
Yol
##raj
protein
aktiv
albümüdür
Meclisi
Cephesi
resmî
##don
##uta
##iyeri
hatt
ligi
olduğuna
aşağıdaki
enerj
Joseph
Federasyonu
##oleybol
emir
çerçev
##ota
halka
dizisinde
ayrıl
oyuncular
bilgiler
Batman
yazılım
Arnavut
Bundan
Hint
dini
##iyel
Ort
değişim
##liğinin
##yetik
##yasal
yanlış
Il
Siv
yı
halkı
elinde
Chris
eriş
listesi
şarkının
tartış
esnasında
Küt
##ty
içeri
sonuna
görür
gösterdi
derec
etkileş
##ğretim
Cas
Lit
bası
##ıyordu
##pen
görüle
kazandır
bıraktı
Profes
##que
Tümeni
Madrid
iletişim
Pen
##say
##süz
##lesi
##urta
##rav
##os'un
esir
sezonunun
##lerdeki
##tikleri
klibi
fiziksel
ten
çök
##rit
karanlık
##osunu
Ameri
sezonda
komutan
birbirine
adlandırılan
Kos
best
leh
yansı
İbrahim
##mo
##ux
##lemiştir
çekilen
değişen
##ücut
##ford
sahnelen
Hasan
Black
Cam
##tle
##okol
endü
##ersiz
Leon
özellikleri
ağı
##âtı
ins
adım
senesinde
organizasyon
Bank
##şi
##del
##oslav
##işi
##caktır
müdür
dizisi
toplantı
Sic
hoş
park
##we
sürec
oluşturan
Kolordu
Sm
tren
##ban
##ira
##'nü
kendisinin
Yunanca
milletvekili
Hristiyan
Bos
Jim
Vic
eğer
##dah
##ullah
##emli
##emez
başlıca
##chel
eleme
temiz
üretimi
süp
şef
##laz
##urum
##eyrek
##malar
karmaşık
##ayıp
Aydın
##uluğ
terim
Albümün
kapsamında
şans
##köy
birden
##ayas
##istin
yazılmış
##ive
attığı
haft
makine
imza
ticari
King
Mey
İli
##tısı
olumlu
görevlendir
altındaki
olmadı
otomobil
Kısa
Tol
sakat
##ja
##ence
##danın
kart
çalışması
milli
benzeri
Hüküm
Dir
Hukuk
Red
Vir
net
önde
günde
açtı
evlilik
##yici
Onun
gerekli
hayatına
Yahudilerin
subay
##VD
##ileb
birliği
kullandığı
Ardından
ikinc
hayran
dışarı
karakteri
galibiyet
Formula
Som
##acağı
önder
general
katılmıştır
##lamadı
yükselen
elektronik
uğraş
Fre
zamanında
altyap
kurulu
kabil
Bununla
imzaladı
League
Lan
kuy
##bilim
##cia
##uth
##tıcı
[YEAR]'e
evlendi
sezonun
##dur.
sözcü
Araştırma
vazgeç
Stadyumu
A.
coğraf
##unlu
##ello
yetk
eserleri
Elli
unsur
Bakanı
sürdürdü
büyü
çözüm
güreş
Şarkının
Hüs
Çünkü
##nes
##o'ya
##cük
##tepe
alfab
başbak
ettiler
yaratı
doğusunda
yayınladı
kaçır
edip
[U
kans
##gisi
##astır
##ilerden
kurtul
sürede
sergil
önceden
Karab
ailesinin
ilişkin
bilimsel
##memiş
Chan
yukarı
##yer
##mur
almaya
inc
geçmiştir
eşlik
topluluk
ülkelerde
Sosyalist
Aç
kov
mavi
##.0
antik
girer
##üphan
muhtem
Latin
.)
Kale
One
Sef
raki
rej
şüp
##ğünü
yaptır
##lup
çıkarı
işçi
davranış
pasaport
IS
Li
Not
##lanabilir
##ürlük
##tip
##ısal
Bugün
kullanan
##ademi
##leyic
başladığı
renkli
molekül
Güven
Ker
Slov
paket
İsa
##zi
##ush
vermektedir
albümünün
atom
Maria
anlatır
Yılın
stat
Bin
Sor
kuz
##mür
##zan
##cus
##gör
doğumlu
uzman
gösterilmiştir
aksine
türlü
savaşı
aşam
Katolik
Kitap
Hindistan
Dal
##jant
başlandı
gelmiş
tank
kapas
bask
savaşın
dalga
kültürel
Thomas
33
Var
not
rakip
##fı
##isti
##opolis
üretilen
giyen
amaçlı
senaryo
tartışma
dakikada
Del
Ka
cam
saç
##bur
##AP
##asıdır
dost
İstanbul'a
Cumhuriyeti'nin
silahlı
Yönetim
Gölü
Hırvat
cih
yeşil
Şu
şar
##'si
##itir
geçici
kullandı
tanınan
öyk
mektup
hidro
Tu
ch
sur
##unma
bulundur
Başbak
##lacaktır
hükümdar
güvenlik
Andre
mahkem
efsan
ib
ide
Özerk
şun
##cer
##.S
##illi
göm
ikisi
sanayi
yaşamaktadır
arttır
problem
Fu
##ius
onay
Arjant
Babası
malzem
istifa
vir
##iller
##etin
karısı
Antal
##over
hayatı
Karşı
Oscar
bazıları
Efendi
talep
Dom
Fir
Ren
##sas
##ardı
##diz
aydın
##mekteydi
##eşal
[YEAR]'lerde
kanun
Bunların
eleştirmen
Diyar
düğ
may
odak
##ala
##ağına
takv
çekti
ederler
ligde
Gençler
cephe
Kab
Lev
Pek
disk
nehir
##pa
##hr
##MN]
##TA
##ony
##steri
##esi'ne
yayınlan
sözleş
getirdi
bitirdi
Önce
Henry
Juli
Eser
Hu
Kuş
ton
##ulması
##ya'ya
çalın
Devr
Abd
ceza
numaradan
Kaf
gay
##çisi
##ato
##atistik
sahipliği
yasa
alış
tepk
Macaristan
Müdürlüğü
Jer
Kış
dos
nö
##lit
##ederal
kullanımı
##içe
mühendis
oluşturduğu
Savaşı'nın
festival
Aşk
Lar
Sist
dök
##vanı
geldiği
anlamda
telefon
antren
bakımından
Yug
dijital
##BM
yakalan
köle
aşk
sayılı
Millî
matematik
soğuk
İbran
mensup
Cap
Yet
tec
##sul
##es'in
yaprak
ekran
Bunlardan
##ehrin
oynanmıştır
##yüz
##var
##hat
##gü
##iyatı
##emedi
##iter
kalın
bastır
yakınlarında
Windows
Yugoslav
sk
tor
##mel
##dim
##ğren
olanak
##ersin
yönlendir
##otik
Ordular
Hane
yörün
hastalı
platform
ailenin
döv
hane
stratej
çab
konuk
gerektiğini
olmakla
dir.
belirtti
kilometre
istedi
gerçekleşen
Finland
doldur
stadyum
##ücu
##lemektedir
##ald
sonlarında
##avy
oluşum
Hall
kaydetti
diplom
Bra
Des
Hey
ışı
##fe
##ağın
##ilmesini
ilinin
takımda
şarkıyı
Abb
kuvvetlerinin
Reich
Tanrı
Bütün
Tal
fiyat
süt
sömür
##güne
vefat
##etti
##apın
##ılmasını
yapısı
##cıları
karşılığında
alınmıştır
hazırlık
seçimlerinde
kahraman
sanatçısı
biz
sın
tuz
vücut
##inç
##ırh
##likler
zamanlarda
metin
değeri
Teknik
küme
Filistin
tedavi
rakam
Milletler
Hel
Kel
Sem
pet
##BC
##leridir
değişken
##elendir
kopya
katkıda
aj
Şey
birer
birisidir
##ilerinden
##ilmesine
sürdü
onlara
##sızlık
hikâye
bugünkü
teşkil
direniş
Alan
Elek
du
İd
dep
kalır
kişisel
komedi
başladılar
tahta
##ternatif
Barış
katıldığı
cinsel
kulübü
böcek
Francis
aracılığıyla
lar
##sini
##his
##IN
##ayda
##iklet
##'nu
bulur
önüne
##esto
##ılıç
bitki
duyur
anlaşma
sınıflandır
mesaj
rapor
Ca
Hy
Moz
Silah
mit
##ts
##'yla
##bor
##indi
##onun
##ştık
##avar
açılan
maçın
görevine
Bulut
##bakır
Na
##tab
Buda
##üyordu
kene
çıkmış
yanına
satan
yıldızı
Doktor
unvanını
Münih
Fred
Roth
lak
lej
yitir
##HP
##ure
##ikal
##'ndaki
arasına
dönüştür
adayı
##luğa
bünyesinde
Cla
Güzel
Yen
##rey
yaşanan
eğitimini
Kırk
kümesi
Romalı
Cumhurbaşkanı
Diyarbakır
lejyon
##madığı
esin
albümde
##orth
hükümeti
danış
Dük
Eyaleti
##ku
##uç
##wa
##emiş
esas
##portaj
##türü
##isyonu
Hem
##SC
##arlı
##liye
##ayarak
##ater
##eyin
##ülük
suik
uçuş
uğra
idare
başkent
Maked
Ermenistan
ırk
MTV
tel
##ple
##ue
##ary
##ekt
tarafında
##lamaz
yayınlanmıştır
turda
Ödülleri'nde
imzalan
reklam
toplumsal
reddet
siyasetçi
açıdan
Kutsal
yirmi
Rod
Çince
##ild
##oker
orkest
inti
##elerek
##elerden
sırasıyla
üstlendi
##leksiyon
hatır
kasaba
edilebilir
Eskişehir
olağan
##kale
birinin
seçilmiştir
dile
versiyonu
Dre
Fır
Mel
play
##kas
##kom
##by
##leyici
##ima
olmasını
anlay
aylarında
yazmıştır
Konser
grubunun
Bölge
tesis
##ound
yatır
çoğunluğu
tehdit
Gerçek
Gor
Yarı
düştü
ilerle
zehir
##kür
##'dur.
##lel
##amik
##lenerek
sürümü
asit
eleman
hakları
müdah
Akademi
St.
şehirde
Fransa'da
aittir
##mamaktadır
Dis
Diz
bür
Ün
ısı
##şah
##ılarak
##ilin
##ılmasına
##abor
gruba
görülmektedir
kampan
##öval
Jackson
yeterli
beğen
Day
Med
Str
gümüş
mim
##iliyor
##oni
##aten
##ılmaya
anti
hayata
dergisi
besteci
Balt
Sür
Tep
dava
##ls
##.2
##ılmaz
bölgenin
Türkiye'ye
tanrı
aşık
konuşma
Muhafız
öncesinde
Konstantinopolis
röportaj
Devrimi
Bek
Eyalet
ic
op
etik
##ıldığında
yazılmıştır
milyar
off
kurucusu
Vakfı
herkes
Stal
Viet
set
##cy
##ted
##asız
tarihinin
prodük
dergi
sözcük
başarısı
çıktığı
operasyon
ordusunun
pilot
Bit
Mih
Tib
##malıdır
##tre
##nan
##R]
yapılması
##elim
kalp
olmuştu
uydu
##uvarı
kendilerine
müzi
sınıfı
komutasındaki
Gençlik
bölgedeki
High
Pom
Ten
Yan
mi
##ğının
##ited
##ech
uzan
albümünde
evi
kendilerini
hayal
boyu
üstlenmiştir
gerektir
Prof
dokuz
medya
Körf
Arjantin
Cer
Mimar
atı
Şim
##án
##kender
##idd
durumlarda
yıldızlar
halkın
kimyasal
Lisesi
##.Bu
Eş
Kav
dolu
##memiştir
##lıp
ayrılmıştır
perde
kısmında
Meclis
tedav
maruz
Spears
Dağı
MS
Tro
ob
web
##elle
##denin
tarzı
##igür
yargılan
Mareşal
taşındı
Fal
Medi
Mersin
Wash
Yas
ez
##lıyor
inf
İskender
albümünü
iliş
İsveç'in
finans
yapımcılığını
Nil
mod
nadir
##öğretim
##'lı
##cil
##gusal
zamanla
albümleri
salon
çizg
Mühendis
Brezilya
Micros
Victor
EP
Kum
Tic
fayda
##şam
##ble
##ler'in
##ilmeye
istih
formasını
Kanal
sıf
Tarihi
Ray
na
##memektedir
##.D
##ila
##etiyle
güncel
##heim
yüks
İmparatoru
sıkı
Bölüm
##ilecektir
Dört
Karadeniz
imparatorluk
Hitler'in
Harekâtı
Ag
Clar
Gram
Lim
Si
mad
##'t
##uc
##lenebilir
Ern
saniye
eksik
gerçekleşti
okulu
hareketi
edildiği
kullanılarak
rekor
performansı
mağlup
Antlaşması
Washington
gidi
ötürü
üz
##line
##mesinde
##umsuz
##makla
aralık
yerleşti
kalk
maçları
dizide
Asker
yayımlanmıştır
##tifak
olaylar
İlçesi
partinin
Denizi
Martin
Phil
gazeteci
Edebiyat
400
Arab
Nob
vb
çaba
##.1
alternatif
##uml
genişlet
sunuldu
kilise
başvur
Microsoft
Dun
##antep
##aşı
##eck
onur
takımlar
savaşa
Özgün
kısaca
çevresinde
Music
kullanıcı
Gürc
Radyo
Florida
Küba
Vik
zırh
##ulları
olduktan
[YEAR]'lı
yolcu
düzenleme
merkezinde
koruma
İtalya'da
sıradan
Genellikle
Grubun
sebebi
yardımıyla
bron
piyan
solo
##cık
##ayn
##ete
yapab
süreli
##anılan
##edek
maçlar
##ody
şarkıdır
çocukları
profesör
adlandırılır
sabah
kelime
Gaziantep
Div
Sadece
rah
##dun
##iliyordu
##tain
Bud
kalit
kapan
kaptan
Birleşmiş
numaralı
diyabet
Düş
It
IC
Mi
Roy
şub
##dağ
##atür
etnik
##ovan
gerilim
sayede
##alandır
sevgil
Paris'te
Kulüp
katılım
Balık
piyade
##raz
##sis
##gücü
kurduğu
sağlaya
duruma
ekonomi
yetenek
yaşamış
Prus
üyesidir
vurgu
İmparatorluğu'nun
Otuz
batısında
etkinlik
nişan
Plan
alet
Ölüm
çiçek
##acağını
şarkılar
geçirdiği
hattı
dalg
patlama
çözün
reform
kalabalık
ilişki
Pak
Ses
toz
##ric
##ior
##oda
##ilt
yapılmaktadır
##osa
göstermiştir
günümüze
sıcaklık
Sonraki
38
Mit
##lament
##dık
##ülür
döner
takımlarından
tanesi
istatistik
Lee
çıkardığı
Köyün
işlev
protokol
petrol
Jan
Modern
Siyas
Yeşil
##ıf
##s'in
##itik
##ilerle
yerlerde
yargı
işç
gösterilen
evinde
arab
resep
eğlen
Kraliyet
terfi
unvanı
tanıştı
Şampiyonası'nda
liman
yaptıkları
Him
##sar
##.3
##.K
##ciğer
takıma
kalmış
araba
meslek
Heinrich
Bru
dük
##muştu
##kal
##gesi
katılma
uzat
kaybol
istek
sayım
dizinin
görünt
yaşamını
##incan
gelişmiş
tanınmış
Samsun
desteği
etrafında
Haçlı
42
Ix
Tıp
Vad
pan
tez
Üy
##yasının
##darı
##ero
kaldığı
karşılaştı
forması
koç
kentin
##bola
elektron
##lüğe
Televizyon
karışık
müdahale
Boğ
CD
Emir
ker
##gele
##anak
##oph
##lenin
##düs
atmıştır
Chica
rolünü
olmadan
##maması
Adası
altıncı
editör
Konseyi
##odidae
Danimarka
##aborat
Au
Gro
Universit
zinc
çeyrek
##eda
##ates
yılda
açıldı
oyuna
sinir
değildi
Kurtul
##ferans
onunla
değerli
Intern
derecede
Ceza
Super
Zelanda
Hit
Lor
Piyade
peş
süv
tüf
çub
##je
##hal
bulunmaktaydı
##acık
belde
Devrim
ayrıntı
sorgu
şampiyonluğu
Carl
meydan
Sırb
arkadaşları
noktası
servis
komşu
kenesigiller
intihar
Edir
Way
tır
##ysa
##ks
##cın
##ebe
ikili
Üniversite
Ask
İran'ın
miktarda
Savunma
ışın
Bağı
Seri
sh
##ding
##aza
##izasyon
Ana
[YEAR]'dan
iklim
kazandığı
##eceği
Avrupa'nın
##ıplak
Show
Karaca
Basketbol
semt
Yaklaş
macera
iktidar
Bri
Lak
Paş
Pier
Sir
Tra
ka
süs
zafer
Çift
şer
göreve
çalışmalarına
bakış
Bilim
sığın
yükselt
gönderildi
Büyükşehir
gerçekleştirilen
Taarruz
yenilg
Erzurum
incelen
Ele
mür
##fen
##IA
##üks
##umb
##üllü
öncü
toplama
uyan
düşen
ortasında
yaklaşım
Bella
Ankara'da
##ordin
enzim
suikast
Rho
Ul
mis
suyu
ye
##ıda
##'li
##ón
##alak
##astik
##ısıt
[YEAR]'lerin
ört
bölümde
sınırlı
format
Cadde
##fan
##omba
taraftar
Antik
yarım
kalma
ödüllendir
görüldü
kıya
yasal
##general
Londra'da
cevap
##helm
Elektr
ap
itir
ulaşı
##rem
##vin
##eta
##ets
anne
ondan
yılların
karşılaştır
uzanan
##lığından
ettiğini
##ografik
düşünc
taşıyı
otob
uğram
başkanlık
oynandı
darb
Muharebesi
Gaga
Karak
National
Rap
reh
sig
##ool
##enler
tanış
sayfa
ederken
##sizlik
Demokrat
modeli
başkanlığı
çalıştığı
memur
United
Poe
savaşta
Komutanlığı
Ixodidae
Bre
ir
ölü
##isiklet
##imet
konus
yaralan
oyunculuk
akıl
Onuncu
alınarak
çalışmalarını
soruml
şehrinin
Yahudileri
Mahalle
beklen
Bulgaristan
Fatih
American
Chicago
Ala
Mut
Pic
##kim
##ğiyle
##10
konak
zamanlar
kişidir
oğl
yürüy
bozuk
öğrencisi
ekibi
Ahmed
Bölgesi
Romanya
amatör
tüket
üste
endüstr
Sicilya
Ast
lay
##liliği
##.4
##iti
##ıklı
bulan
sahil
gösterdiği
Orhan
üstünde
Parlamento
bağlıdır
yenilen
Carlos
Demokratik
Vietnam
Bran
Night
Soy
Web
vücu
##dunun
##ins
##meli
enf
denilen
bakan
inşaat
çağır
Herschel
Tw
figür
rok
yor
yapma
##usta
dönen
yönt
katılmış
işe
Mary
okudu
isimler
eserler
hayatta
Avustralya'da
cihaz
Finlandiya
Mez
Nic
his
Çar
İdar
##ail
##ras
##tro
##'l
alma
##üman
ayı
aylık
##uva
kazanarak
tamamı
merkezine
insanları
##spor'a
Cumhuriyeti'nde
darbe
Philip
Eminem
48
##zo
##ball
##imasyon
yaparken
başı
##ATO
köpek
belirgin
##liğindeki
oluşturdu
##antum
unut
programında
köylü
Wilhelm
kısmını
Du
Hab
Sy
Stan
##ileş
##ory
##likte
##istiyan
bulmak
öngör
ediyor
##ebilen
kullanır
kişilerin
Inter
birbirlerine
sahneye
muhtemelen
Nur
Sk
ata
dü
det
nde
##TT
##areti
##ont
##rağı
##omo
##estor
sinemaya
Saint
York'ta
idari
kemer
Latince
Kudüs
kapasit
Düz
Pi
gr
hab
kere
##siye
##ühr
##barat
##ayasa
çalışmıştır
çeken
##ilmekte
koleksiyon
getiren
##çılık
zorunlu
##lasman
##ılmasıyla
sıklıkla
anlatan
dersleri
Giovan
fos
grafik
mir
ölen
##low
##uyla
##ğunda
##IM
olmaktadır
gösteri
yapıldığı
karbon
##istler
##masıdır
genetik
aracı
Rusya'nın
taban
ulaşım
##luğuna
ihtim
##dükten
olacağını
korumak
Opera
Baltık
Bunu
hasar
kg
süper
vide
Üst
İt
##kol
##cas
##die
depr
##ilidir
yüzde
geriye
şarkıları
sahipti
Filmde
Hayat
Hıristiyan
Şirket
layık
75
Fame
Federal
sos
##sinin
##lev
göv
##uss
##ısındaki
Budiz
vererek
kapalı
serisinin
devamlı
metro
Bilg
yardımcısı
sunulmuştur
Müzesi
Bundes
bağımlı
listede
özgü
otomatik
Sağlık
açılış
nükleer
Francisco
reseptör
Yaklaşık
Air
Dig
Hil
Ru
Sarı
TBM
bl
kâ
şansı
##vir
##seri
##hib
yerinde
kenar
tarihte
arasındadır
filmleri
çalışmaktadır
ikna
albümünden
merkezli
send
müzikal
Real
Kole
Denizli
kaleme
proje
Haw
bölgelerinde
yayılım
Bosna
O'
##led
birik
aray
##mediği
##elek
Almanyası
okum
yetene
Özg
İmparatorluk
Program
kaybed
birbirinden
İzlanda
İşçi
Doğan
kahver
Arnavutluk
haftasında
Kurtuluş
Ori
hac
kimi
##vik
##u'nun
girmiş
sağlam
hariç
türleri
ertesi
gerekç
uzunluğunda
sisteminin
duygu
konuda
anlamı
##veriş
ölümü
##uyucu
analiz
vb.
TBMM
55
65
Est
Geli
Rh
boğ
##ges
##lanab
vermiş
##ukat
girerek
##tikçe
başarmıştır
askerleri
söylen
şampiyonluk
yapımcısı
##luğun
tipi
Bağım
Hon
Let
NATO
##pi
##ps
##izan
arz
artan
anı
##ope
##ıza
tarihine
tanınır
içermektedir
yetersiz
imkân
Kurul
sistemine
hazırlanan
görüşme
bağımsızlık
yumurta
kapsayan
Nobel
Big
Hun
Mans
Slav
büt
lip
otor
##mos
##gon
içi
yerli
sonraları
Ergin
atarak
tabi
kadınlar
kullanılabilir
suçlu
alıp
Kanada'da
##abeth
doktora
köprü
şiddetli
yöntemi
Lef
##liga
##ome
geçmektedir
##sius
görevinden
kısalt
azalt
insanın
güçlendir
askerler
karakterini
nitelendir
##cinsel
Sivas
Paşa'nın
kıyafet
BM
Bob
Ti
Zen
dom
person
##ıb
##'lar
##[YEAR]
filmlerinde
ilham
Konya
Köpr
denklem
müsab
Güvenlik
BBC
God
Mik
Selç
d'
Öl
##resi
##lob
##zade
##'ler
##.6
##asal
##limi
##aşır
vermeye
varlığı
kazanmış
soru
öldürüldü
Murat
yetişkin
Yarışması'nda
Hüseyin
yatırım
34
64
Cat
ceph
dır
müttefik
##eksiyon
oldular
##adağ
toplu
##arth
yolculuk
bölümünü
sistemleri
yayımladı
harekete
Topl
Kayseri
spons
kadrosuna
Festivali'nde
faktör
Rhodes
Pow
port
with
##ace
##gini
##ors
anılan
yaşar
yarısında
açıklar
görülmüştür
Hann
hakkındaki
gelişim
ulaşmıştır
Holly
Kırım
uzaklıktadır
rahatsız
sekret
Aj
Ga
Lud
Yal
Öğren
çay
##mond
##pat
##sında
##'lerin
olmasından
olsun
alması
##ady
##ağının
##iyecek
[YEAR]'larda
sağlamıştır
imha
hata
hazırladığı
paralel
Live
##ührer
Cup
Saf
kolu
ufak
##türk
##ois
Alp
kalıntı
üstlendiği
Studi
eserin
terimi
ulaşan
makin
Saray
sporcu
Sinema
bombardı
Kolordusu
milliyet
##IND
Makedonya
Konservat
Bern
Jes
Nev
füz
##ları'nın
sözleri
oluşturulan
çocuğ
harekât
taşıma
geldiğinde
cinayet
hastalığı
hangi
sıralam
porno
Askeri
DVD
J.
Sig
Wr
cüm
se
##tes
depo
karıştır
kariyeri
buluş
##ov'un
filmler
evrim
##age
eşya
yenerek
##field
Sarayı
Euro
Ödülü'nü
doğrult
kıyısında
kanser
Dam
Rah
Ty
avan
##mik
##tek
##nel
##ander
##ınar
Türkiye'deki
şarkıcısı
tümen
organize
ilçesinde
Adolf
Jones
Johan
##batısında
bulutsu
bestelen
Kafkas
bronz
Giovanni
Just
kör
şebek
##ien
##çilik
##hol
##amin
##mail
Alf
süresi
karşıtı
##ings
ikiye
alınmış
Kurt
lise
##ugh
[HIND
ağırlıklı
Koca
Turn
tasarı
Messi
##doğusunda
Hanedanı
Blu
Gol
Gab
Gelen
beden
kok
kısıt
##par
##ûmet
##ben
##wig
##work
ayar
takdir
##araj
birliklerinin
Afgan
yükselmiştir
Sedat
istediği
##ileştir
hepsi
Kosova
37
Ner
Zo
alab
dey
hır
ucu
##şe
##EB
birini
##dılar
##emeye
Türkmen
uygar
adıdır
kısmen
##ardo
taşır
geçiren
##amıştı
toprakları
yanıt
##iğeri
oynamaktadır
banka
ağız
şüph
eğlence
aley
##rüb
##keli
##bu
##lacağı
yönel
işi
varlığını
alana
okun
güçleri
gelişme
mevki
parçacık
krom
ilişkiler
söylemiştir
İspanyolca
Nat
Nah
Parkı
aya
olayı
olumsuz
##utbola
Kurumu
sessiz
olayları
mikro
geçerli
sitesinde
fikr
malzeme
reak
fabrika
Açık
İbranice
danışman
Bost
M.
bı
bomba
##şev
##esh
başlanmıştır
Ertesi
##ozom
komuta
##eceğini
dolaş
İtalya'nın
sığ
baba
School
macer
bahsed
cumhurbaş
kuyruk
Gürcistan
Böyle
Liz
Nov
ast
Çık
##net
##pt
##klarını
##lıyordu
ente
##iba
Altı
kadının
adındaki
karşıya
asalak
Enter
Marie
müşt
kanalı
üyeliği
Aleksi
Dışişleri
görülebilir
Coun
Nick
Çev
çeş
##reş
##müştü
##s'ın
##uda
##.8
##ğünde
##enci
veda
oluştu
##cıların
##mekle
##adet
resmen
dışındaki
Devletleri'nde
kanalında
fırsat
Krallık'ta
komplek
düşünülmektedir
Litvan
Bankası
Rothen
Grammy
Cy
Cin
Ford
Hip
PS
alay
betim
boya
sesi
Üs
##mun
##sburg
##gh
##ekim
##rac
##uman
##tımı
doğmuştur
olmayı
İnternet
atış
yetkil
Burs
görünüm
Altay
mevz
ilişkileri
Koç
manyetik
oynamış
##engiz
44
Cast
kül
soya
##akta
##ya'daki
##ezer
arasından
##isip
adının
##renin
harfi
ayrılan
buraya
dahi
Birliği'nin
bahç
yaratık
sunucu
korku
mümkündür
akademik
Tolki
Club
Dor
Para
Time
Veli
Ye
ep
ith
yedek
Çoğu
##ft
##irken
##akar
##ılmıştı
##okul
inhib
##odoks
şeker
açıkça
düzenlen
##ia'nın
Brit
anlaşı
kolon
yürüttü
Dönem
işlemi
Jovi'nin
gücünü
dayalı
Junior
şunlardır
39
Fe
Kh
Kart
Seb
Sing
Vit
fakül
##ıdır
##lası
##enf
##isiz
##azen
anıt
##ilmez
geçtiği
##ara'nın
filmdir
albümden
eğilim
azın
Almanya'ya
taşımaktadır
Maur
manastır
dayanan
Yapım
şimdi
çıkarılan
AC
Fas
Teş
nun
tapın
##,2
gördüğü
vergi
onlar
katman
Amb
evine
ilçesi
Otto
mutlak
Ağır
küresel
fabrik
Tibet
Haber
Net
caz
fer
pap
um
##şim
##tına
##o'da
tarihsel
##ebilmektedir
yaşındaki
katal
filme
akşam
yapılacak
kitle
kızıl
olursa
binlerce
Atlan
Tekn
Hastan
Scott
belgesel
senaryosunu
International
Miss
Ref
Siyah
Tot
af
risk
Şek
##ning
##cileri
##ünce
##aze
delik
##ükem
##ilmesiyle
verilmektedir
bulunmuş
##ürken
kullanılması
gösterilir
İsmail
kaplama
deng
ülkeye
sayf
tutul
Aslında
izlen
geliştirme
150
kontrolü
büyüm
SSC
bölgelerde
inceleme
canlandırdığı
pulları
Sırbistan
Pers
Sel
Vil
bez
huz
öv
##lot
##lemiş
göğ
##ülasyon
kurgu
##ecik
çalışırken
belge
##odor
çektiği
Parlament
süreci
Okyan
##tıktan
Sinan
turnuva
Aziz
mekaniz
demiryolu
tayin
Abdullah
sınav
Dep
dö
##yin
##sinde
##erin
##irli
##lar'ın
##lerken
##rada
başlayarak
gereği
getirmiştir
##entur
tabl
savunu
konuşan
saldırıya
Sanatçı
tepki
kullanılmaya
oradan
Colle
Mahkemesi
Trabzonspor
zirveye
tecrüb
gerekçesiyle
46
Cro
Mol
Saman
bol
refer
suy
##siy
##feder
##bine
##ase
##is'in
##izmin
##abilecek
animasyon
##chester
evli
düşer
eşcinsel
Lew
olmasıdır
Okul
bozul
stil
##iskop
kiralık
kadrosunda
Eliz
Jerry
University
Win
Yaban
Youn
başlığı
##tral
kole
gruplar
muhaf
Premi
ilerleyen
Times
başlangıç
Yönetmen
Napol
çekirdek
çözünürlük
Oda
Yurdu
cami
gelerek
idi
kıl
le
##kâ
##diye
##.T
##gâh
##KA
##ily
##ınız
##elidir
##kanlığı
oluşmuştur
getirilmiştir
değin
Harry
geliştirilmiş
kadınların
İtalyanca
dikkate
kütüphan
Grubu'nun
Metal
oynamaya
ekiplerinden
47
Hill
Müttefik
Tour
acı
diğeri
gül
##'yle
##iro
##emeyen
##tian
##ibe
işleri
denen
Karadağ
giymiştir
Partisi'nin
Tank
kariyerinin
Sanatlar
Jacob
Yugoslavya
##şevik
List
Meg
Tür
Şehrin
##ae
##mara
##jyon
##aklı
##lemi
##uşu
tarihinden
##ersey
girdiği
bölgesinin
##tris
etkisiyle
##liğinden
dilinde
golle
uğrat
Matt
Brown
boyutlu
galaksi
İdman
Silahlı
Hollywood
Ram
Wolf
zam
##mes
##vey
##sey
##bit
##alif
##asyonal
denet
##sand
öğrenimini
Lejyon
Sonunda
##diki
uygulan
şampiyonluğunu
Toplam
avukat
pullar
Japonya'da
dosya
Edirne
roket
dır.
avantaj
Messier
Ail
Ec
Hop
Life
Wat
##zen
##dev
##elin
etmeyi
oyunda
Albay
doğa
zamana
nef
##uyan
harit
uzunluğu
soruştur
yıldızların
devletin
geliştirilen
keşif
koyu
kitabında
ekonomisi
Örgüt
Hamburg
Tokyo
muharebe
Antalya
sıfır
Prusya
aleyh
Boston
Bursaspor
Bayan
Dik
Nec
PTT
Sı
Vas
kesi
voleybol
zaten
##eryal
##aker
sürülmüştür
yaşına
##chi
baskın
erdi
Bey'in
Adalet
##luğunun
Serv
dergisinin
Berlin'de
Arthur
Nisan'da
Hatta
Yerel
Kahraman
Belediyesi
Şeyh
doğrultusunda
##ükemmel
Def
Hac
Jane
Jersey
Sava
iyon
##rin
##nun
##bil
##NE
##lie
##isa
##üyü
##edral
gelindi
yönde
bölgesine
aldılar
Kongr
sözü
dilleri
sayılabilir
üyeli
gönüllü
ölümüne
seçimleri
tipik
sembol
firma
Türkçesi
redded
Swift
devrimci
kademe
Budizm
51
Boz
How
Oğu
Pu
Tut
Yazı
padi
satı
yağı
##tim
##pet
##gus
bulunuyordu
##kent
devir
üretic
ürettiği
rolüyle
##diklerini
ligin
teklifi
halkının
Kırmızı
gemisi
familyasının
düzeyde
protesto
Virgini
Bing
Cry
Cami
Ever
Sib
Trak
Who
umut
vah
çıplak
##rası
##log
##sus
##gah
##iki
kurmuştur
##lamaları
sanay
##agog
belirtir
üstüne
##olojisi
Komisyonu
mahal
takımıyla
bunlardan
araştırmalar
kaybetmiştir
sosyalist
çarpışma
kamera
civar
Papa
##alimanı
meclis
Napoli
mimari
Napolyon
Oğuz
Mezar
PA
Ran
Varş
uc
##ting
##veti
##jinal
##susu
birinde
##iyop
##osunda
verme
çıkarak
birlikler
yüzyı
##içi
isimleri
kıt
##onomik
kavuş
Malat
Bedir
paylaştı
direktörü
Devleti'nin
Yayınları
Smith
orkestra
Bundesliga
Ludwig
43
Fern
ov
özerk
##.7
##ispor
##ador
##ört
##üye
kurt
##eddin
intik
##ebilecek
kaza
dönemlerde
Marmara
Kardeş
Song
görünür
sıv
olurlar
Uzay
Simavi
Brezil
ahlâ
çerçevesinde
##övalye
Caddesi
kahverengi
Cr
Gem
Titan
Vis
##ute
##inler
##unk
##laştırma
##embe
##imin
##ülmüş
##oper
##lıktan
bulunması
Angel
sürüldü
konferans
##uzu
##ilendir
##masa
##chen
oyunları
hali
üçlü
gelip
içerik
biten
Stre
artış
anlatı
Ekonomi
kims
örgütü
kemik
teşvik
Festival
Taylor
işletim
Cezay
##aboratuvar
52
Blo
Gil
Gece
She
US
sip
yedinci
Çay
##cinin
##.G
##ason
##lace
##urlar
##dırım
Albert
Birkaç
kullanıldığı
müziğ
formasıyla
gözük
Sanayi
yakınında
ortalarında
konuşulan
Çin'de
##ando
çağdaş
Kayser
mahkeme
Hollandalı
ismiyle
##simum
kalıp
basınç
Celsius
cisim
skor
sponsor
Fen
Gold
Wes
alacak
spek
yeğ
Ömer
Şeh
##ule
##akya
##orta
##azz
##rack
##aft
##ağan
karşılıklı
sırt
ölmüştür
Orkest
tarihindeki
yeten
bakter
Ordu'nun
##ross
hükûmet
kıyas
Elf
km.
yazarın
gençlik
kırsal
temsilcisi
oranda
eleştiriler
##oğlu'nun
parçaları
Royal
But
Mada
Voleybol
disip
gide
sad
Çanak
Şen
##fil
edilerek
##lamayan
Franz
temas
Başlangı
getirir
korsan
bırakıldı
muhale
finalinde
isteği
özgürlük
Ortodoks
Clark
gövde
gelindiğinde
Bad
DS
Deb
Kev
Lost
SE
Tip
fi
hed
rüz
yiyecek
##şar
##iret
##etro
##malarını
algı
ardı
çıkıp
##ebilmek
sürmüştür
##uke
akın
çekici
şekli
yolc
Başka
gerekmektedir
devamı
alınır
Lig'de
terör
##feransı
köyü
yürür
Toprak
yönetiminde
yağmur
Rumen
Alexander
Fox
Sezar'ın
yörüng
gidip
piyano
Dair
Yay
bo
emp
kaya
seg
##çileri
##furt
##arya
##lanmıştı
##okulu
ard
verilmiş
##ölç
kuram
kurban
Anne
sürer
geçim
##maktadırlar
gibidir
gösterim
İstanbul'un
alınması
Ash
Aslan
ayrım
Kanun
gazetesi
bağımsızlığını
öğrenciler
dönüşüm
Que
kuantum
ücretsiz
penaltı
Körfezi
Pierre
yüzyıla
Bedirhan
Hap
Kendi
Motor
bacak
ömür
şeyi
##oid
##'ların
##âli
tarihten
katılır
##trop
##gust
döneminin
şehre
##ago
ABD'ye
kola
eserinde
yarışmaya
duyurdu
Belg
sakin
subayı
kupa
Mahkem
bileşik
Premier
600
Ron
##şiv
##zat
##bey
##TP
##el'in
önlemek
kullanmıştır
##ect
##ukur
açılmıştır
alanları
bölgeyi
istik
koordin
örneği
dizayn
eskiden
yakınlarındaki
orduları
binası
sundu
mesle
Resmi
Etiyop
kaydedilen
rütbesine
detay
Bavy
Ege
Ni
Niş
Nij
bec
th
Ür
öden
şif
##lini
##kov
##dorf
##zh
##ularak
##çısı
##onlar
##amamıştır
##aph
##duc
##abilen
##istanı
ediyordu
kurmuş
kurtu
Türkistan
yazmaya
yılında
işbirliği
devleti
varlık
açıklandı
##emişti
tura
grupları
Altmış
Abdül
Proj
kaçın
hızı
seçimlerde
ayrılarak
istediğini
Steph
göçmen
senarist
olacağı
arkasında
meşhur
asalaktır
Bavyera
Cle
bant
cer
kuv
nih
yel
##ville
##paz
##ua
##onna
##ator
##itif
##ğıt
sonsuz
arazi
[YEAR]'ların
ölçek
##lamadan
##lendirme
izleyen
ödülüne
hayatının
Sha
Johnson
sürdürmektedir
galip
nitelik
başlangıçta
potan
oyuncunun
gecik
çekirde
Profesyonel
Mihail
zincir
Gelenek
Hik
Hale
Kamp
Mavi
Yukarı
cen
farkı
mor
mükemmel
##lileri
##meti
##öh
##çilerin
biriydi
görsel
anket
anısına
taktik
katliam
sıralan
görevinde
Ergen
eklen
genelinde
##adık
koc
öğrenim
hazırladı
kentte
sınırı
makam
kriz
Ankaragücü
koydu
kraliyet
##lüğüne
canlandırdı
##bahar
niteli
Kendisi
donanım
Bolşevik
cumhuriyet
rakibi
olağanüstü
prodüktör
Ticaret
huzur
Young
Klasik
OS
Sug
Toy
bilm
demek
nda
##memek
##otez
##inen
##üsünü
ülkesi
Eng
öldürür
nüfusun
biçiminde
##idae
kutsal
Williams
Cemiyeti
kuşatma
şimdiki
milletvekil
sanatçının
dövüş
Disney
Elizabeth
58
Ki
Les
Olay
Tav
gıda
hop
yılan
##rut
##ydu
##TÜ
##asan
##ay'ın
##imf
##azlar
##makam
##maktır
##ülmesi
bölgeleri
kurulması
savaşçı
Kont
grubuna
sisteminde
This
partizan
Beat
rekabet
Guev
Kitab
Walter
##pool
ittifak
68
Dark
Game
Kle
Lenin
ha
koz
taç
Öy
##kut
##.E
##fal
##alanı
##omen
görmek
yakıt
asil
aktris
yönetilen
kazanır
Champ
basıldı
dışına
Bilimler
gazetec
[HEB
Musa
kitabın
işgali
etmişlerdir
firması
iptal
Gökada
Kilisesi
Çalışma
netic
Alfred
76
Nem
Polis
Sincan
restor
##yaka
##nu
##jder
##'inde
##binin
##gam
##win
##MS
##onyalı
##as'ın
olmasının
##asıt
arama
Birlik
##elerle
zamanlı
##sion
##uydu
serinin
getirdiği
yoktu
Komitesi
anlamında
##tıkları
tutuklandı
Yakın
töreni
yurtdı
Mozart
Ernst
Hans
Kub
Lot
Nar
PC
Ric
Selim
cadde
cilt
elip
post
##e'de
##'lık
##him
##onc
##ulmaktadır
##raba
sonlarına
görmüştür
ettikleri
Alb
##redi
asla
varsay
##düle
Ayak
belirsiz
yapıt
taşım
##ernova
lige
Abell
doku
bağış
Holding
##box
çocuklar
Tarım
mücadeles
Kürd
ölçüm
nüfusunun
emri
eyaletinin
Saldır
hayvancılık
ülkelerin
boşan
Kürtçe
iplik
başlattı
gitarist
köşe
tayf
Kalesi
Kocaeli
Entertain
41
Nam
R.
Sok
Sub
Tos
Yür
atılan
gayet
ho
pu
püs
usta
şov
##ys
##dor
##II
##etli
yapması
##omer
##omma
aran
açtığı
Kongre
anlaştı
Barb
kimlik
edebilir
dağılım
Takımı
Ordusu'nun
Filip
Apple
Demirspor
Berk
Güç
Lüb
far
ihan
tal
yav
##uf
##cül
##demir
##asus
##esir
tarif
##oke
yarısı
toplanan
Amatör
##erküm
eksen
düzenlenmiştir
Avrupalı
oluşturmaktadır
aşkın
gruptan
##uston
Özbek
bırakmıştır
ilişkisi
çevresindeki
boşluk
Nehri'nin
ayırt
Milliyet
borç
Kazakistan
rahip
tüfek
Brian
Entertainment
67
72
Bart
Hür
Rol
mayın
nis
pla
##ea
##gn
##amayan
buhar
yaşamı
##rie
girmeyi
iklimi
##raft
##ştiği
tahrip
kendisinden
geldiğini
gazetesinde
olduklarını
başkanlığını
ülkelerinde
projesi
ayakk
mutf
ürünleri
kalıcı
Sekret
tıpkı
tenis
sözcüğü
coğrafi
AK
Dol
Kes
Las
Univers
gri
vizyon
##bini
##aks
##ekon
##liser
##urken
##iyen
##ümr
bugüne
arke
org
##ept
takımından
görevlisi
gerilla
seçimi
ülkeleri
##iyorum
İspanya'nın
olayların
##abilirler
Albümde
manz
krallık
Afrika'da
çatış
madaly
Başbakan
Andrew
August
##mosfer
şebekesi
Aleksios
padişah
Varşova
Çanakkale
56
Prag
Rev
Sci
Sad
bede
taki
yi
Çeşit
##vel
##koş
##larlar
##ayolu
görmüş
tarihçi
takma
yaşama
##sia
giri
evlili
çekimleri
##ubu
iyice
Stra
sıkça
Dead
ağırlık
etmekte
İlç
maliyet
dergisinde
##siniz
adamın
inanç
##okrasi
kompoz
hipotez
Gençlerbirliği
Adı
CHP
Hub
Tel
Tev
Up
Vla
Your
hoc
tüy
Öğret
çet
şaşır
##elerin
##paşa
##kele
##sayı
##cal
##cilerin
##AC
##lamasına
##dıkları
Anti
kullanmak
açar
işler
filmlerde
uyum
görevden
##sızın
kişiye
ayrılmış
zorluk
yaşamaya
keskin
Manchester
Afrik
sıralarda
gönderilen
uçağı
Mahal
yönetmenliğinde
grubudur
eyaletinde
bildirir
Kolomb
keman
##memesi
Frankfurt
kolayca
##kurmay
Kelly
Eyaleti'nde
Ambly
63
74
Agu
L'
Mis
Yani
lo
piş
van
##niyet
##ses
##çü
##çağ
##ğimiz
##itre
almıştı
##abilmektedir
##man'ın
verimli
##ranç
yayına
sahte
##lamayı
çeker
##eff
sayısının
##ardin
Savaşın
öğrenir
çıkarıldı
tabanlı
askerî
hizmeti
meyve
Daniel
##sky
Küre
Good
Hamza
Dolayısıyla
Liver
Seksen
Antonio
tasarımı
Geleneksel
[YEAR]'in
Cep
G.
Hur
Mev
bisiklet
pol
Şiir
##şan
##tg
##er'ın
##eton
##emey
##itör
yaparlar
Allen
kurmak
Konferansı
##labilecek
mülk
grupta
Sand
sinagog
yıldızın
Han'ın
bırakarak
polimer
gönderdi
periy
Bakü
otel
belirtmiştir
##tuğ
dikkatini
adamları
kelimesi
düzeyinde
benzeyen
Telekom
tehlikeli
platin
Hükümeti
Dükü
istihbarat
Budist
cümle
SSCB
Cezayir
muhalefet
püskür
.D
.[YEAR]
85
Boş
Maya
Pir
Yör
Yedi
##miye
##ii
##.İ
##TC
##ar'ın
##öly
ork
##tanın
##erse
Organ
elb
yaşta
[YEAR]'deki
düzenlediği
değişir
Santa
Kraliçe
yıldızları
uygulanan
olurken
kaybeden
şarkısını
değiştirildi
başlarlar
Yıldırım
çarptır
Hacı
şarkısıdır
taarruzu
bölgesindeki
teorisi
Island
ordusunu
antrenör
Amblyomma
Had
Mağ
Va
be
küç
pah
rengi
ted
##ić
##ios
##sına
##gız
birç
##abi
gelmesi
##laşmış
doğur
maçlarını
iktis
Orman
##ramanı
belirlenen
##uluğunu
Rusya'da
dizisinin
ağab
Ordus
Fransa'ya
bilgileri
kimya
miktarı
hücr
Rose
Temmuz'da
Belediyespor
pröm
Karşıyaka
Balıkesir
Lefkoş
Selçuklu
800
Dünyanın
Oh
Tuna
Uç
basım
##dün
##lanıp
##att
anılır
##üşü
topra
açmıştır
alanlarda
##mektedirler
Karar
getirilen
sattı
üreten
term
numarası
tekniği
yoksul
planı
siyasal
Adaları
bunları
haftada
sunulan
açıklamada
takviye
stratejik
bombardıman
Teşkil
Kayserispor
Liverpool
Bang
GP
Gön
Müf
şiş
##lış
##dus
yapmayı
##utsch
##istal
##ingen
##ingrad
sağlamaktadır
yangın
kapak
##'ndeki
atıldı
istasyonu
yapılar
Dünya'nın
şehirdir
Hanım
Halen
görünen
Atina
Roma'da
kaynakları
Çin'in
topraklarına
kuruluşu
Donan
Peru
cezasına
İçişleri
noktada
Whit
yumuş
tüken
mesafe
##soci
aktivit
Hırvatistan
deplasman
etiketiyle
Himm
süvari
kuvveti
Brad
Ep
Hikâ
Işık
Pav
Reg
fen
he
tit
yalan
Şam
##con
##binde
##lanmasına
##stri
bulunuyor
##edisi
##ree
yazında
evr
evde
dönemine
haric
etkileri
saygı
düzenlendi
farklılık
sistemin
başaran
Harp
uygulaması
yenilik
teknoloji
tahliye
kuşağında
Deği
Kırgız
Basket
Steve
Anadolu'da
kariyerini
ürünü
Robin
annesinin
##aux
Japonya'nın
Girl
ipod
Broad
kavramı
bayrak
savaştan
##tics
Annesi
88
Dr
His
Nüf
Pazar
Riv
Sınıf
feth
por
##rig
##lop
##kop
##uck
##cağına
##hak
##.9
dedi
##izmi
##usa
verim
##eleriyle
[YEAR]'ta
takımları
neg
bölgesel
##tron
bağlam
##üsünde
düzelt
seçilmiş
harc
şarkıyla
kararlaştır
##brek
buradan
Carol
takımıdır
##lüğünde
nüfusa
Temsil
Resim
Ressam
Türkçeye
tasvir
Columb
yanlısı
Linux
akademisyen
Aşağıdaki
misaf
kâğıt
intikam
H.
Sof
eyaleti
vol
yal
çelik
##acı
##mat
##nen
##ual
##AS
##DE
##iner
##iral
##ass
##ılmasından
##dum
##tia
başından
aralı
Türkler
tarihe
çıkması
##artman
akış
##leyip
oksi
getirmek
tamamlandı
başarısını
Savaşı'ndan
üyelerinin
askerlik
Indi
hassas
yapımında
Devletler
alırlar
biçimi
dayanır
250
Suudi
Hoca
Scar
deneyim
Compan
Walker
White
Timur
Komutanı
hakimiyet
dağıtım
Bağdat
sevgilisi
Bi
Boh
Hum
Kast
Len
Pre
Süp
Saat
Tru
Us
Yum
##DP
##lanmaya
##atan
##iser
anayas
##opa
işken
parlamento
evre
yüzü
Eric
ülkeyi
gerçekten
dolay
Üniversitesi'nden
Associ
gittiği
Shak
maksimum
Maj
köyünde
Oyunun
teklidir
kimse
kitapları
##ques
merkezidir
##suzluk
##oundt
bitiren
rady
hücum
sebeple
sorunları
Team
ülkedeki
Kaptan
değişiklikler
hapishan
Hersek
İskoçya
felsefe
Seferi
şarap
imzalanan
Ünlü
infaz
Serie
becer
69
Gag
Hong
SN
Zir
bon
##tuk
##bür
##inn
##une
##eter
##amo
##ston
olanlar
dönmüştür
yazan
yaralı
##iliğe
büyüklük
var.
akraba
parmak
##cektir
göze
uzunluk
İngiltere'ye
redde
Joe
Sistemi
anlayış
Lakers
mürette
Topluluğu
yağış
sıvı
kolayla
Çeşitli
AG
Cengiz
Ela
Op
Sum
Um
prop
Öte
Şeri
##tın
##DS
##unt
etmişti
taraftan
enstr
kongre
##oto
##olist
dernek
aldıktan
öncelikle
formayı
İktis
Marg
Kong
insanlara
izleyic
başlaya
geride
Hanlığı
şehrine
anlaşmaz
topraklarında
Serbest
tasarlanmış
gökadadır
yarattığı
çarpış
TV'de
cezası
##mediğini
sahada
vatandaşları
iyileştir
yöneticisi
bileşen
etkileşim
ikincisi
maddi
zırhlı
Wayne
00
49
73
AM
Bazen
Die
Hiz
Lord
Pil
ima
##'dir
##cay
##.M
##ürler
etmesini
yerden
tarafı
vermesi
##ova'nın
kullanmaya
sırayı
##ingham
ilki
alanlarında
akciğer
yönetti
Chi
üstü
çıkarmıştır
imal
sevg
gelişen
romanından
kültürü
özellikler
Sait
Azeri
sitesi
kapsamlı
Richie
kurtarmak
ısrar
çatışmalar
Green
bireysel
süreçte
dramatik
sıralamasında
azınlık
göğüs
College
Başlangıçta
hediye
yürürlüğe
Bül
CE
Edi
Fik
Jor
Kaş
Kılıç
Tes
Turg
WW
niyet
sız
sans
##uğ
##mic
##izy
yapının
##ülüğ
verilmesi
##uku
karşıt
##guay
element
Konfeder
bölümleri
sentez
tutum
oyuncuların
Milletvek
moda
duyar
savunan
İngiltere'nin
topluluğu
120
Mahmut
sonuçlar
elektro
##kınma
Kanadalı
nesn
açığa
Yüzük
olabileceği
single'ı
katılmak
III
konsol
başbakan
Miami
segment
Stephen
.Dr.
negatif
62
Baba
Ci
Gine
Kidd
Leh
Rub
Tech
dür
ge
rit
tüc
trafik
##nie
##uff
##ín
##,4
##lamı
##atlı
##ison
##üntü
##omorf
kullanılmış
yazıldı
yaşamıştır
topçu
çekmiştir
seçme
atmosfer
elinden
##usuf
oluşmuş
##aganda
kabile
tamamlayan
Üniversitesi'ne
gitmek
dokun
Yahudilere
Toplum
Malta
alıcı
büyüy
anlatılır
Norman
edici
pozitif
işletme
Karabağ
rejim
Stalin
Parlamentosu
##oundtrack
66
Bag
Meş
Nak
Oğ
Trans
eli
fel
fesh
lok
vs
##oma
##ste
##ctor
##feri
##,3
##aklar
##aklık
##lete
##alisyon
##ember
anak
kurş
kurgusal
##ilirken
##idge
##rett
olmalıdır
maçlarında
döneme
dönemlerinde
##üphane
haklarını
##ogle
başarıyla
yüzyıldan
kuvvetli
Genelkurmay
Google
Sinem
deneysel
Mayıs'ta
konumuna
Gazetec
Kütüphan
şefi
Yarımada
itiraf
zamanı
Ky
Yalnız
[T
mel
nehri
sef
zemin
##aca
##o'yu
##.O
##bun
##iley
vek
##emburg
olgun
##ası'nda
anah
##row
##ebb
sürgün
yılları
açan
öldüğü
ikil
gerektiği
sorunu
oyuncuları
geçirmek
gittikçe
uygulamaya
destekleyen
alıyor
ilerleme
cezalandır
South
uygulamaları
##donez
büyüdü
Dizinin
icra
Üyeliği
Konservatuvarı
kromozom
57
54
96
Bus
Ly
bebek
je
mali
##loy
##ode
##ces
##bab
##în
##G]
##lad
yapay
##oss
bulmuştur
##cılığa
##ansiyon
##leşmesi
zamanın
olmam
olmaması
görevli
tanık
türet
köt
düzensiz
##ılıyordu
yayımladığı
hazırlanmış
duyduğu
plana
Bakan
çevresi
kitapta
dayanmaktadır
parçalar
memnun
sorunlar
hikâyesi
vatandaşı
Kadınlar
ortamda
mekanik
hanedan
ayrıntılı
deprem
Nel
Yusuf
eb
jür
keç
nimf
silin
##sp
##âs
##lanmasını
olunca
##ası'nın
##abab
##rog
Anayasa
yazmış
##ivan
asistan
##rensi
prote
paramet
görevde
ülkesinde
müze
başlamıştı
Sonuç
ilişkili
olayın
İlçe
alıyordu
karşılaşmada
Kazan
Mehmed
Houston
Soci
Artistik
tavsiye
Dağları
teklisidir
psikolojik
Maxim
ideal
Pakistan
Öğretmen
C.
Camp
Duk
Tac
Wit
tıb
yuvar
çam
##rum
##şap
##tak
##ular
##fiye
##führer
##akları
##ista
##ılmak
yapacak
##affen
##ileriyle
##ımsı
sürülen
##oter
çalgı
katk
sıraya
filmini
olmaz
akımı
yönetici
##asyonlar
kişiyi
sanal
Endonez
gerekse
oluşturmak
Station
Harold
otuz
##altına
şirketin
##ayınca
atanmıştır
yazıları
oyunudur
mercek
dişi
yaptıktan
Faik
Yardımcısı
Cenev
Orijinal
nefret
##öhret
[AMOUNT]'den
Adan
Hep
Sus
laboratuvar
sekizinci
##odu
##sah
##cunun
##larken
##lap
##lamıştı
##lamanın
##atları
verg
verici
kurb
##anıp
eve
çekilmiş
denetim
harita
Roger
##isindeki
Üniversitesi'nin
futbolu
rolünde
değerleri
uzaklaş
##lymp
Kupası'na
##kins
##zığ
kariyerinde
hedefi
ayakta
Ödülü'ne
##ometrik
Kentin
organizasyonu
Bahç
aşamasında
Bulutsusu
uğradı
bozukluk
videosu
##holm
Samanyolu
Lewis
Camii
Aguiler
Dub
Guy
Ja
Jeff
Kenn
Tit
Vel
bilen
jan
ust
vade
yam
zih
Şiş
##mm
##name
##kt
##oul
##çap
##üd
##,8
##akalar
##lamasını
##liz
##lig
##kie
başa
başlayıp
içinden
anlar
etken
##tılı
bulunmamaktadır
##erick
##layınca
karşılığı
doğmuş
yakından
##sidir
##retti
kazı
takımını
uyumlu
geril
çekiş
##lamalar
istil
üstlen
bilinç
geçirir
##lastik
uzaklaştır
sıkıntı
kaçtı
gerçekleştirdi
savunması
çağrı
kaleci
öğrencileri
Kaynak
ayaklanma
Mekte
besin
gizlice
üstünlük
fakir
Bruce
##IME]
Koleji
Ergenekon
##ümrük
Dili
Jay
Lind
Lady
Olymp
Tony
Wood
sadık
##rü
##out
##d.
##sit
##sının
##'ında
##'lu
##ğim
##OA
##alama
##unç
##on'a
##etler
##eller
##iyse
##itter
##melerini
ordunun
##lerince
topladı
uyarı
belki
aradan
denem
duruş
##obi
diğerleri
sertif
##ecep
bölümünün
değişimi
##son'ın
uzaklığı
hakkını
Laur
Yılmaz
kulübün
kulübünde
Ermenice
parçasıdır
valisi
liberal
Stadyumu'nda
baskısı
virüs
Braun
yenilgiye
sığır
Network
Kevin
eliptik
Ata
Dizi
E.
Get
Lüks
Post
Zor
dis
fet
mant
İleti
##riz
##lilerin
##öp
##uli
##uya
##AF
##emb
başlık
##ado
##ilmesinin
##uşturucu
##ots
esk
##leşmiş
göstermek
alanlar
ölmüş
akar
yayınlanmış
eklenmiştir
türünde
kuruludur
##uhaf
forvet
Başak
bitiş
yarışması
kıv
sıç
geliştirilmiştir
Ekonomik
kavga
içerisindeki
şirketinin
Sarah
hapse
Haziran'da
biyolojik
tanıtım
Pink
seyirci
iletken
sürecinde
kampanya
miras
reaksiyon
Sugabab
ayakkabı
Hizmet
Cev
Giz
Nas
Orada
Plat
Tang
Xbox
Yav
deri
kus
me
şeri
##ılabilir
##vador
##ng
##.C
##12
##,6
##ştik
##ra'nın
##usen
##uts
##ülmektedir
##opher
kurarak
Anna
çalışmış
komün
sayılır
önceleri
##labilmektedir
tutar
kaybı
patlak
birbirleriyle
partisi
Tanzan
tanındı
güvenli
Salonu
isminin
olmuşlardır
seslendirilen
Ekim'de
Rumeli
mimarlık
Maçı
##kırım
insanı
müdürü
süpernova
neticesinde
İletişim
Biy
Gümüş
KK
Keş
Leg
Male
Rud
bank
glik
tok
vit
İpek
##düz
##sın
##boy
##esince
##mişte
##opter
##mede
verileri
yazısı
kalmayı
kaydı
takımla
takımdan
##agan
##ilmekteydi
oluşturulmuştur
ağz
Kanunu
Milano
Harris
yarışı
bırakır
anlamlı
oğulları
muhab
İspanya'da
Güneydoğu
şarkısının
köydür
krizi
kırık
sunduğu
Şampiyonu
çocukların
Peters
Samb
keşfet
anlatılmaktadır
Goya
gelebilir
Venez
Georgi
Havalimanı
Olimpiyatları'nda
kapsar
yardımı
kategorisinde
barındıran
hisset
Fiat
##lazma
hidrojen
Yetmiş
EPSA
taşıyıcı
##kânı
yetenekli
Champion
Basketball
AS
Bond
Günü
Sas
Soğ
amin
peri
çif
##pin
##jek
##sor
##uar
##atın
##usuna
##üller
##sterdam
##artesi
##iliğini
##leşen
[YEAR]'ye
Amsterdam
görece
adaya
boyun
Savaşları
tamamlamıştır
giymiş
kenttir
programları
kişiden
##enko
tanımlanır
beyin
Schw
gökadalar
Steven
sezonudur
baştan
olasılığı
hiper
doğrusal
Erkekler
edecektir
yansıt
Kuşat
##hisar
Boğaz
Özgür
çocuğun
cerrah
Kürdistan
ihanet
misafir
Bale
Cav
Fur
Fab
Four
Gel
Got
MV
PL
Tri
Villa
Waffen
adanın
baraj
futbola
log
çak
Şer
##mini
##vis
##siyel
##'ini
##cast
##DL
##unum
##şten
##olk
alkol
çıkmaya
geçmesi
gününde
##cher
Artık
iline
görevleri
##lemesini
ülkesinin
##ecekti
Avrupa'daki
##latma
kanad
sistemini
yarışmada
olmasıyla
hükümdarı
mevsim
Genelde
patron
Heart
erkekler
Goya'nın
ihtiya
gerçekleşmiştir
##kardeş
başlangıc
Kahire
Edebiyatı
sendrom
Erginleri
yurtdış
Association
Aug
Helen
Sec
kılıç
str
##zie
##ude
##well
##IP
##ance
##ildikten
##stem
##cev
##omatik
##meliy
ayının
##mekten
##ico
##ifor
##port
maçını
ölür
aksiyon
özelliğini
##larındandır
bilinmemektedir
##uluğa
durumun
salonu
##ılıp
Leic
eserlerini
yendi
yoksa
Abdü
bilgisi
telesk
kaçan
konularda
hizmete
profesörü
bağlantısı
Luft
fikri
Fakültesi'nde
##liyle
desteğini
kökeni
insül
Larva
bizzat
dükkân
personel
Gabri
inhibitör
Savaştan
Lübnan
FM
North
ate
casus
pir
slog
İh
şok
##şen
##yanı
##oon
##uela
##.H
##eron
##ake
vekil
##lacağını
##strat
##tions
yerler
yerleri
aygı
endi
maçlarda
##odik
atar
##çekim
yolunda
Kariyer
##ia'da
tutan
##lass
haftalık
hareketleri
kaynaklar
kaynaklarda
belirtilmiştir
İlhan
Petrol
şeyler
toplumun
karşılaşma
liderleri
soğut
##doğan
tatlı
görüleb
diplomatik
lakabı
otobüs
Pictur
blok
müşter
kolaylaştır
53
Aman
Ful
Köl
Kadı
MK
Nok
Ober
Open
PM
hol
rob
##,7
##GB
##alım
##amaktadır
##imsi
##eydi
##ımasız
kuran
uyuşturucu
görevlerinde
gerçe
yolları
açıklamıştır
##owski
Leop
##çılar
##ohum
düşünülen
Beyonc
güneyde
girişimi
karakterler
##bach
Polonyalı
Emre
soylu
bildirdi
mutlu
Ferdin
benzet
##ûmeti
gökyüz
benims
Channel
uyandır
Bağımsız
suyun
Leicester
Beyoncé
59
Best
Dede
Gra
Lil
Lam
MP
Nih
TS
ade
graf
hamil
kaş
soundtrack
yeme
Şili
şöhret
##riyet
##lal
##vard
##idir
##cesi
##xi
##enberg
##ildiler
##ayol
##atlar
##atay
içme
andır
##ilmesinden
edilecek
##ics
##ical
güne
##iliğine
devral
nefes
yüzlerce
kapital
##lemeyi
eğr
gereksin
oluşturul
Leo
dilde
ilgisini
Stone
Halil
direkt
Barbar
##mamak
bunlara
yarıçap
Law
bitirdikten
Kullan
öyle
Baby
seslendirdiği
toplant
Henri
Sezonu
Tahran
Seçim
Sonrasında
Christopher
basılan
Wrest
potansiyel
Company
amino
78
95
East
Lyn
P.
Penn
Ruh
Recep
Ya
hası
had
lenf
ödüle
##rez
##ous
##sw
##caya
##AD
##IT
##al'ın
##eytin
arşiv
##osuna
bulgu
yaşarlar
##adel
##tıraş
Gence
etkisini
Ener
Marc
Karah
koalisyon
aşama
aşiret
##landığını
yayımlan
Manastır
programda
söylenir
söyleyerek
anlaşması
oranında
sahiptirler
sürdüren
İsrail'in
aşağıda
##.Bir
Oyunları
##layab
Murph
hâlâ
kesinlikle
ahşap
##uluğun
sözleşmesi
şubesi
Taarruzu
sipar
Nijer
Toyota
Deli
Eleştir
Küm
Pto
Yolu
masa
ring
sön
solist
tetik
usul
##a'yı
##last
##play
##kça
##olar
##ds
##,1
birine
##iyesi
##usunun
Buck
##rov
teker
alanına
oyunlar
albüme
düşmüştür
yapıp
yapıya
önemlidir
##tüdy
gerekti
farklıdır
Bilgi
##yorlardı
gençler
gerçekleştirildi
Selan
öğretmeni
okulda
Berlin'in
bulundukları
konumunda
kurdular
Magn
uzaylı
Prenses
yeterince
evrenin
##ografi
seviyede
sağlayacak
yeteneği
vizyona
organı
işkence
propaganda
87
84
93
Down
Gusta
Laz
PK
Yos
Yurt
giş
##tz
##eo
##niz
##çuk
##erto
##enti
##lee
##stra
##ağından
etap
##terek
##iliğin
yayınladığı
ilginç
##inaj
bakır
başlaması
orduya
eserlerinin
sevdiği
değiştirdi
karşısına
davul
numarada
sonuçları
Spiel
dayanıklı
Turizm
##atörü
Grubu'nda
ilave
soyundan
edilmesine
Moore
kafa
hâline
ressamın
Sahne
Uygurca
cinsiyet
Profesör
larva
Blue
tablosu
Yabancı
Örgütü
Lüksemburg
Sambora
AP
Cul
Fizik
Ov
Ox
S.
Yok
Zh
pey
rep
öt
Şövalye
##adır
##rısı
##hard
##göz
##UR
##ende
##laştık
##esiydi
##ememiştir
##izme
almayı
##likten
ani
##ose
yeraltı
##iciler
##lamamıştır
varsa
İnş
akrab
halif
şarkıların
ABD'deki
bilinmeyen
tümüyle
bölümünden
tuttu
dilin
başarılar
görüldüğü
yenildi
listesidir
kuvvetler
mevk
köyde
mezunu
romantik
Dergisi
uyarlanan
##ılmadan
idaresi
Bölgesi'nin
dersler
Yapılan
tutuklu
Hareket
ormanlık
Tayland
kamuoy
drama
Sakson
hamle
galaks
Spears'ın
ulaşımı
haberi
sekreter
Orkestrası
Cephe
Lefkoşa
Fah
Gy
Kid
Mike
Rey
Rab
Yener
kadir
li
nehr
om
sam
ster
zek
çöl
##rick
##mund
##ned
##olan
##dol
##stein
##sever
##'dır
##'tir
##'sı
##.Y
##IS
##FC
##anları
##diven
##abilmek
##abileceği
##usunu
##evleri
verit
verdiler
enstit
Anth
Türkleri
kalması
##chus
kaplı
##ştığı
düzlem
denize
derleme
kömür
##sea
Theodor
##liğiyle
satarak
Burton
Ligue
Milan
kararlı
sesli
##ouch
askerlerin
öldürdü
##tive
geliştirdi
dalda
dünyadaki
klibin
şeyin
Said
öğrencilerin
Model
kısmının
Girit
eşitlik
ordusuna
tarzında
Gürcü
acımasız
kesiminde
sergilenmektedir
Tatar
reddetti
müsabaka
cumhurbaşkanı
##etroit
WWE
##loyd
Selanik
79
Ces
Cab
Hard
Kâ
Kiş
Kaç
Kork
Long
Uğ
##eğin
##oo
##dön
##maç
##mağı
ettikten
##osunun
kurma
Türklerin
##lamasında
özet
##try
deneme
##lamada
ülkeden
kost
Road
olmaktan
sayıları
oyuncularından
Harvard
duydu
duyarlı
Shar
ailesine
Elser
Galler
##endisi
güneydoğu
Oyunda
Roma'ya
ayrılıp
Albümden
Dance
şeklindeki
Monte
söylediği
Turk
bestelediği
##yll
Luci
faaliyetleri
kahramanı
beslenir
katılmaya
##lonun
Face
Cumhurbaşkanlığı
trib
sıralama
birincisi
cinsinden
##kurgu
Meydanı
başbakanı
torunu
sömürge
Mimarlık
yükseli
arayüz
Virginia
ardında
Hart
Land
Por
ameliy
rektör
traf
şik
##.F
##besi
##biye
##CP
##EL
##lema
sürmektedir
konut
##oviç
geçip
dönerek
yayını
##cha
filmlerin
kazanılan
##trol
kazanmak
bağır
bağlayan
seçenek
belirlen
yapıları
gözaltına
sayılan
golü
düşünür
duygusal
buradaki
saldırısı
eğitimine
muhalif
gerçekleştirdiği
benzerlik
Benim
Alice
tasarlanmıştır
beklenen
edilmişti
çaplı
Lisesi'nde
olacaktı
karşılaşır
şeklindedir
Androm
Hayvan
Gazze
turnuvada
nesne
antlaşma
oturan
böbrek
Kasım'da
sözcüğ
A.Ş
Sloven
müziğini
Gaziantepspor
pahalı
82
Dip
Detroit
Fle
Gez
Haf
Radi
Teb
belediy
klav
Üzer
##ré
##linin
##kırı
##gul
##geler
##enh
##ekyll
##etta
##isiydi
##apur
olgu
##aham
##maktan
##osit
##ayalet
##ovski
##rica
uzmanı
[YEAR]'a
evin
##gie
Cher
Child
##ılırken
yollarını
##lerindendir
Dünya'ya
Kars
kocası
##omanyetik
giydiği
parçalan
kritik
kristal
topraklarını
Benzer
içerisindedir
piyasa
Kızılder
Uzak
Apol
Ermeniler
Türkçede
imzalamıştır
kıyılarında
Kamu
Yönetimi
Tiyatrosu'nda
Somali
alışveriş
otorit
Afganistan
Kartal
yavru
Gaga'nın
anahtar
ihtiyacı
Spielberg
Ağa
Award
Dost
Ras
Sul
Vers
bayan
hek
mı
mag
mang
olamadı
ray
rev
Çoğun
##via
##ies
##çent
##üla
##ía
##onca
##lamasıyla
##amuk
olun
olmasa
##ılgın
##ini'nin
##evî
##ev'in
çoklu
işleme
gösterilmektedir
maçlı
düşüş
düşmüş
sağlanır
##oba
belirlemek
tümör
okuyucu
eşleşme
oluşturulmuş
Parç
turizm
##lesine
söyleyen
binanın
##ternasyonal
kuzeydoğusunda
gönderdiği
özelliklerini
##icks
verirler
Avusturyalı
motoru
canlandırmıştır
gerçekleşir
House
direnç
Florans
Aleksand
çağrıldı
##nooker
Göztepe
minim
pornografik
derecesi
görevlendirildi
uzanır
Loren
Digital
Power
Litvanya
disiplin
Öykü
Köln
Bük
Cent
F.
More
Spr
ec
ex
est
vasıt
##yazı
##mud
##och
##gir
##EC
##ES
##OM
##äl
##esin
##macht
karı
etmez
##ilmeleri
çıkma
yıllardan
sahib
İng
Aykut
yüklü
##üsüne
bölümüne
Sankt
ödüllü
Miller
saldırgan
arttı
şampiyonluğa
olaydan
alırken
yerleşik
kardeşler
11'de
geminin
gemileri
Luis
İşlet
##strük
##idal
memel
hükümetinin
ziyade
Morgan
puanla
tavır
Massa
tamamladıktan
bağlantılı
yararlan
sektörüne
Finali
Tablo
Kütah
düğüm
Mühendisliği
Victoria
sayımına
koçluğunu
yürüyüş
Teknoloji
Bingöl
Street
##şarj
Venezuela
Aust
Ateş
Bis
Boli
Dim
I'
Klip
Ola
Pit
SA
Wol
Za
aff
pak
zev
##luluk
##zig
##sist
##çinin
##ct
##ão
##espe
##raç
##sten
##ümcek
##tici
##iber
kadını
##ildiğini
##sell
##oza
Asya'da
Stut
geçirmiştir
değerler
Amerika'nın
şehristanı
ulaşmak
Taraf
Teksas
Kırık
kolordu
Kalkınma
ülkelere
demokratik
örneklem
teorik
Yapı
Simon
mahalledir
Kaliforniya'da
postan
röportajda
Eyaletin
Eminem'in
Dairesi
##âlih
haricinde
büyüyen
71
700
DJ
Dic
Gun
Hir
Out
Ry
Tig
fran
gur
güv
pres
Çiçek
İm
İvan
##satı
##PD
##CA
##arl
##das
##lanacak
##olas
##ımın
Alli
##ebir
bilimi
kalkan
günlerde
filmlerinin
##ansk
[YEAR]'teki
##uver
Franç
sezonunu
görevlerini
##ampir
Erol
yaptığını
şarkıya
##ube
içindedir
tema
Marcus
bölümden
grubunu
turist
Bryan
Liga
Hanna
Ther
That
kuzeyde
Death
Kıbrıslı
oynadıktan
güvenilir
Step
zorundadır
heyec
Patinaj
mağara
Hareketi
rastgele
dakikasında
Britanyalı
sektöründe
saptan
360
Christian
Dream
Howard
Mezarlığı
Murphy
##espeare
Beni
Dram
Gur
Gog
Isa
Kop
Pho
SK
Veg
Wehr
misyon
nam
ulaştır
çür
##soy
##ink
##ettiş
##ürn
##ılmasında
##dırma
##tica
artar
karasal
##ayacak
ilköğretim
Anayas
süresince
geçit
kullanmaktadır
adları
##igan
güneye
topu
Arp
özür
zamanki
##rice
##estir
halini
müzaker
şarkılardan
yolda
sayısal
hakem
düzenledi
Avrupa'ya
bakıldığında
Manç
kuvvetlerini
kuzeybatısında
dallarında
yazarlığı
bilimkurgu
romanın
organik
##phal
Örnek
zarf
konserler
kutu
antlaş
##tandard
hâl
Exp
defans
damg
kuzeye
##dimir
yörünge
##SCO
Cermen
Arabistan
ödüllendirildi
Turnuv
çeşidi
##peten
Sibir
Hikmet
niteliğinde
##jderha
ağabeyi
Margaret
Ferdinand
[DATE]'den
Bö
Bed
Che
Diş
Emp
Juan
Mini
Viv
co
fan
no
vil
yem
çatı
##fur
##gat
##atosu
##iyye
##ito
dedek
##rand
tarihçiler
çıkmaktadır
##ebilmesi
konulu
##laşan
özdeş
gösterimi
##içesi
döneminden
##ozof
sergi
okur
isimlendir
gözden
Sant
kızkardeş
Buradaki
Kang
giymektedir
olmaları
bırakıp
tabak
tanımlar
yönetimine
örnekler
tanınmıştır
Davis
Mart'ta
yazılar
İtalya'ya
Uygu
mağlub
##layacak
rastlanır
geçmişi
Olimpiyatları
acil
seviyesi
yayılan
bahseder
tatil
menaj
Pinyin
Jacques
öyküsü
düğün
sütun
herkesin
maddenin
Siyasal
Group
takdirde
yeğeni
kıyasla
Barbara
Mahallenin
##tgart
yumuşak
Columbia
vektör
Andromeda
Stuttgart
81
A2
Corn
Das
Dou
Gord
Kov
KOA
Sz
SC
Tap
Uru
con
ester
gey
tir
taz
vad
##rok
##şak
##yam
##'su
##ET
##onz
##onto
birleşme
##ely
##mia
##umun
arı
##önü
Buz
yerle
doğduğu
Ark
Arch
göstererek
oyununda
bağlanır
yaptılar
sanatı
##oliz
sayısına
öncelik
durumuna
##ustik
çalışmalarında
duyan
##lash
öldürmek
anlamlara
konuları
Şampiyonluğu
değiştirilmiştir
mekân
oğludur
yarattı
Bölgesi'nde
teori
çıkışlı
doğuda
##okras
kütleli
durumdadır
desteğiyle
gürül
##ragon
##weig
Sistem
Stanley
Köprüsü
entegre
kompozisyon
Vladimir
oksijen
Yarımadası
teleskop
kostüm
KOAH
Bür
CS
DC
Hız
Hob
Hemen
Pla
Run
UNE
Yelt
Zer
ni
tık
tuş
traj
vas
çember
öm
##reb
##cını
##gusu
##ğday
##MP
##SD
##arch
##anta
vez
##alp
##alis
##etleri
yapısını
##avuş
##oslov
önlem
##iper
sürük
##erspor
yazıp
yaralandı
yıllara
çalışmak
##inger
ikamet
##oby
ülkesine
kurulduğu
sayısız
Mario
##adışı
isimdir
##amadığı
##ina'nın
şehirler
yarışmayı
kendisiyle
kaynaklara
sunul
tanımlamak
çocukluk
yerleşen
kullanıma
meyv
Batılı
kilit
örnekleri
Sami
Paris'e
Tümen
İsrail'e
Lisans
edilmesini
Fakültesi'nden
İzmir'de
Cemal
##mayla
kütlesi
##liydi
katılarak
bayrağı
Görev
Müdürü
pencer
Bölümü'nde
Californ
damar
önderliğinde
kuzeni
Helsin
prodüksiyon
Viktor
enfeksiyon
sosy
Bilgisay
lipaz
##iskopos
kolester
Etiyopya
Bohem
Shakespeare
Bülent
tıbbi
MVP
77
Cüce
Ital
Jason
Jekyll
Sayı
Yun
feder
mül
meden
tac
tüp
tiyat
Çağı
##lut
##miyor
##tel
##ote
##dara
##sy
##aly
##alog
tarayı
##alılar
##masyon
kadardır
##ansız
##ria
kayda
üçte
önemi
ABC
##ides
Başarı
durumunu
koro
##ediğini
terc
yaşamına
listelen
söyley
gönderme
konularında
ulaşmış
Partinin
##ensis
bununla
Lucas
maddesi
sebepten
hükümetin
keşfedildi
fonksiyonu
Gior
araçları
mask
olabileceğini
Gary
bayram
tabloda
Angeles'ta
Çekoslov
Yardımcı
Atatürk'ün
hastalığın
çabuk
Viking
kaliteli
Denizlispor
mevkiinde
Lizzie
Sugababes
UNESCO
Helsinki
04
Feli
Mid
Posta
Ral
Rem
Riley
Trop
Ut
lek
qu
sil
##nit
##savar
##wen
##illiği
##dela
##desi
##ety
##lımı
##iya'nın
##iks
##ement
##usun
##üldüğü
##üydü
kadrosu
sürg
##ifik
##ing'in
adada
aldığını
Dünya'da
sözlü
futbolcusu
##linik
burs
artması
Instit
Manis
tela
Kupası'nı
Wild
belirtilen
ağırlığı
okulun
Berlin'e
sanatçılar
maddeler
olduğunda
Kitabı
Ermenistan'ın
Eylül'de
noktasına
rastlan
##schweig
zararlı
Ağustos'ta
yakaladı
bahset
vakit
yaratıcı
ibadet
Eskişehirspor
##övaly
Körfez
Askerî
Philadel
konusundaki
ucuz
rüzgar
Kitabın
Universal
Himmler
Braunschweig
şikayet
Yeltsin
Philadelph
Cre
Dak
Faz
Rıza
Sap
Tas
[J
pusu
pembe
tap
Çöl
İmam
şan
##rib
##pson
##oit
##ER
##in'
##da'nın
##ikatür
##tav
##tij
##işim
##lıkta
konumu
yüzölç
##oban
etkiler
belirlenmiştir
erke
##leştirme
yüksektir
tamamlan
##ogen
grubunda
imkânı
oyunculardır
kızın
zorla
tablos
kuzeybatı
testi
desteklemek
topraklarının
günümüzdeki
yoğunluğu
kamer
Galatasaray'ın
##dükleri
Bayram
memuru
Soul
doktorasını
Yüzbaşı
yenilgi
gökbilim
Silver
Satur
lehç
##APN]
ibaret
Hitit
Studio
Okyanusu
Ecza
Elazığ
Ptolema
Uğur
1'
83
98
Cey
Cum
Cih
Felsef
Hz
Herk
Hazar
Jam
Kağan
Sâlih
Ton
Yemen
aşı
astr
elendi
gram
ocağı
talim
##şek
##kaya
##xter
##graf
##andan
##lic
##atra
##athan
##isar
##or'un
almışlardır
##esif
##omp
bulduğu
verilebilir
##edilen
##ıldığını
döndür
açılır
birliklerini
albümdeki
sağlan
millet
yayınlamıştır
istila
End
##see
resimler
sindir
Savaşı'na
Komp
Internet
kuvvetlerine
News
km'
dokuzuncu
Carlo
##pres
Çinli
verdiğini
Benj
tasarlanan
Spart
Space
üniversitede
dönüşür
babasıdır
Angola
Şehirde
birleşerek
José
konumda
politikası
Rady
klipte
efekt
kule
kalıt
##süel
kadroya
hattını
Jimmy
güreşçi
Fırat
Şimdi
nadiren
Elec
nispeten
püskürt
vs.
yuvarlak
katkısı
Anthony
Aut
Amas
Aile
Eis
Emek
Fot
LP
Pul
Ted
Tif
düşt
oli
pre
plastik
tim
Üret
##zım
##umi
##cına
##ciliği
##üya
##HA
##ırt
##escu
##üksel
##abil
başk
başlıklı
##aver
bulunmakta
Alas
sürdüğü
dönme
filmindeki
Aram
zamanların
İskan
girmesi
profil
##ales
düşmanı
seçilir
eks
yollar
kodu
örg
Russell
saltan
metab
ayrılması
sistemler
filtre
milyondan
çevrilidir
finali
anlaşmaya
patenci
sonuçlandı
radikal
uyarlaması
dağlık
Sudan
yatay
##ress
amcası
Kemer
Arts
olasılık
##ship
rapçi
Ağrı
Tokat
korunması
menz
Kiril
Hükümet
Somal
altyapı
coğrafya
tedavisi
Vadisi
çubuklu
oğlunun
bütç
referan
Belgrad
demektir
puanı
Hürriyet
birçoğu
Broadway
Turgut
glikoz
AR
AV
Eh
Eth
Fort
Hug
Nehr
deki
fant
ked
planda
tohum
Şehri
##yeni
##ei
##pınar
##hy
##ınan
##akal
##ştiler
##dışı
##iminde
##dent
sonlandır
başlanan
##ez'in
##eveyn
##tılar
verdikleri
##icisi
adres
##cho
##ayana
evlenmiştir
##gion
ülkesini
serisinde
Cha
komisyon
sözlerini
Rour
kanlı
öğrendi
bakınız
Brüksel
gitmiştir
teknolojik
listeye
kaybeder
muhafız
Barcel
gelirler
tanımı
komutasında
modelidir
oranla
yönetimini
bahçe
kütüphane
Temel
uyarlanmıştır
öncülük
soluk
##ankre
German
amb
şehridir
Hakk
Toronto
##laşımı
bayra
şimdiye
Boys
basketbolcu
Adams
Şubat'ta
moleküler
Şahin
dayalıdır
çoğunu
başvuru
Viyana'da
birimidir
lehine
ISU
Abbâs
Pomp
nişancı
Samsunspor
süvar
Elektronik
domuz
Tolkien'in
Leningrad
Şerif
enstrüman
tüccar
Petersburg
robot
François
92
Beh
Dah
Fay
Fark
Lab
Rot
Sün
Stüdyo
by
stüdy
Çukur
##reli
##şet
##nin
##nat
##,9
##GP
##onların
##ikat
##ılmasının
##eyt
##madığını
##stil
yapmakta
##ibb
kurumu
##tana
##ayıt
geçmeden
zamandan
dönemdeki
elli
önemini
şarkılarından
eklendi
komik
kombin
istiyordu
yolunu
sayısını
farkında
resimleri
Karta
bölümler
oluşturuldu
çıkarlar
rollerinde
müzikleri
Kurucu
Lig'e
başarır
tabaka
##küdar
Protes
güneybatı
kuzeydoğu
kırk
Yargı
gerçekleştirilmiştir
dahilinde
##ronik
Mont
##ılmadı
isminde
kayıtları
Venüs
oturdu
ettirdi
tehlike
kasabasında
Celtics
cemaati
Sakar
Tunes
Horasan
teşkilat
Hyde
rehber
düet
grev
uygarlık
Hacette
Fernando
##gamber
Kolombiya
aygıt
Pictures
Protestan
99
Hamil
Py
Plak
Reş
Vah
Walt
pist
prim
Ümit
##àn
##inik
##dad
##usundaki
başlamadan
##ca'nın
ispat
ender
bulunabilir
Türkü
gelmişti
günlerinde
yıldön
çalışarak
girip
sezonuna
seçmen
duran
türün
yoluna
##egal
tutsak
Asıl
metot
Stok
##muşlardır
Prot
Produc
##ebilirler
güneybatısında
oğul
ulaşır
Yarışma
Müzesi'nde
kaldılar
listelerine
koltuk
dünyayı
batıda
batıya
turnuvaya
Doctor
Georg
##shire
materyal
Cephesi'nde
Bahr
kupayı
İstih
Foot
Yardımcılığı
gündeme
Tuğ
Devrimci
kalarak
şerit
İttifak
portre
deyiş
bıçak
Üsküdar
fakülte
Maurice
paylaştığı
sansür
Oxford
Wehrmacht
61
Bet
Dy
Nan
Nes
Normal
Off
Pay
Rek
Rok
Sık
Town
Ziya
alev
car
kub
lan
lüks
tün
tef
trop
İler
##mis
##viş
##kon
##zy
##ğmen
birimleri
##ümlü
karın
##ibar
##ibal
##yonun
oraya
##enix
sürece
addır
onar
yayılmış
##ladılar
Almanlar
bölgeden
ekmek
istis
boyunda
Marco
oluşturmuştur
grubundan
üretilmiştir
Aksu
grupların
bitti
State
geçirmiş
eserini
##bie
##lastı
ailesiyle
Bell
dikiş
hızlandır
Baron
sunmaktadır
patlayıcı
Seat
değişikliği
##ount
Davut
imparatoru
gizemli
Taksim
geleb
Emmy
##dinav
fırtına
Girls
When
Hakan
giderken
uçakları
Çağatay
marka
Pasifik
iktidarı
hitap
cesaret
muhtemel
İdari
Tolkien
Afrikalı
holomorf
Barbaros
mağlubiyet
[AMOUNT]'
Alay
Cross
Dest
Juv
Koz
Lé
Mul
Nag
Süv
TÜ
Til
Vist
##anus
##enli
##unspor
##lerler
##ulus
alçak
##eva
kararıyla
##ımını
##ınağı
dönüm
günün
##anspor
düşmesi
yöneten
##gio
seçkin
saygın
ergin
getirilir
İngilizler
turu
Stark
geçirerek
başarıyı
filozof
itibarı
programını
taşıdı
geliştirmek
destekli
transferi
##mamalıdır
##emediği
listelerde
derginin
dayanarak
Samuel
saldırılar
saldırıları
Lise
Bölgede
tepe
Performan
kiralan
gösterirler
çıkışı
##ülebilir
##hendisi
Matematik
komplo
ihraç
köprüb
Yaşam
sinyali
zirvesine
rövan
First
Medya
tırman
Zoey
fikrini
muhafaz
istikrar
Müfettiş
silindir
A.Ş.
Hacettepe
[DATE]'ta
Are
Bod
CIA
Dans
Mé
NH
Nehir
Sco
Tir
]'
boks
ero
fon
prom
yy
zaf
##rul
##v6
##sav
##çının
##wald
##áv
##İT
##EM
##ED
##erken
##iyes
##yab
yapış
##ınıp
anayasa
kente
##ebileceği
süreyle
sürgüne
katlı
yakalandı
Amiral
sağladığı
##trik
çekmek
Chel
istemiştir
sayısında
boyn
Dünya'dan
bakanı
Sony
başarıya
Almanya'daki
giydir
yaşamak
askerlerinin
Pres
kuşak
çevrim
değiştirerek
dinamik
Katedral
İran'da
anlatmaktadır
Kaymakam
engellemek
Doğru
Babasının
fırsatı
haps
heykeli
ortalaması
ordusunda
etrafındaki
Kilise
##stadt
Peterburg
seks
Noel
Konsey
şahıs
senaryosu
garip
altyapısında
Karabük
ISO
antrenman
ışığı
Budape
Sky
Halep
toprağa
felaket
##'tir.
Rourke
86
Cop
Cib
Dul
Düny
Ez
Hes
Kuz
Ri
Rio
bran
sir
öf
##gas
##âl
##arda
##leg
##izin
başlayınca
##ezid
daire
##osh
yönlü
kalmıştı
##ladığını
gösterilmiş
alanındaki
Amy
çekimi
denilir
hayali
##kadanın
türündeki
##kanın
Karay
eşliğinde
merkezleri
merkezinin
satıldı
üretilmiş
##ture
fazladır
Cumhuriyetçi
göründü
ailesinden
babasını
Afyon
güneydoğusunda
Amerika'ya
kaynaklanan
Will
##fice
çizdiği
##ations
Reed
noktal
koyun
sahnede
mücadelesi
bağlant
Anadolu'ya
Evli
Kanada'nın
Avusturya'nın
Bayern
soykırım
kiralandı
turnuvası
Japonca
Gires
Efendisi
Hatay
Dönitz
What
Broth
kuralları
Moskova'da
Başta
kademeden
garniz
##burn
bizim
çubuk
uğramış
Mahallesi
System
Estonya
soyadı
muhafaza
Odası
prömiyeri
Teşkilatı
Jordan
Maximili
##chusett
Çoğunlukla
İskandinav
[DATE]'e
D.
DM
Fl
Fon
Glee
Hoff
Hugh
Imp
Kans
Kök
Lloyd
Sos
Sefer
Yuan
faş
hus
reb
rezer
viz
vali
yatı
İla
##lé
##jo
##bel
##anna
##enne
##lamasının
almasına
yapmıştı
karikatür
##ister
##anıyor
gelince
katil
kayde
denge
şarkıda
komed
Enternasyonal
oluşumu
belirlenir
açıklanmıştır
ert
turistik
çıkarma
çalışmalara
çalışmalarının
Sonu
sevk
Billy
kentinin
kesint
tahsis
kıta
tabur
Berg
ortada
gelişmeler
gönderir
planları
konular
yazarlar
Yahudilik
kardeşleri
silahlar
Albümdeki
Sean
başkanlığına
##kelet
renkte
Partisi'ne
elektromanyetik
dünyasında
kaybetmiş
sanatçıların
büyüme
havuz
Don't
oyuncusudur
seslendirme
donat
ayrıldıktan
Yüzyıl
korkunç
Ülkenin
##.Ay
köklü
iyileş
şahit
politikacı
Sabah
Knicks
mühendislik
yitirdi
perdelik
kaptanı
şeref
Elektrik
sendika
Almanyası'nın
Bağımsızlık
vahşi
Saldırı
portr
Techn
Mektebi
mantık
Massachusett
Vistül
Budapeşte
Kuy
Ryan
Rang
Vo
daki
helik
iv
nemli
riba
teli
üvey
##jin
##jör
##uğu
##fonu
##bro
##gy
##waf
##OS
##,0
##anti
##latı
##estern
##apt
##dirler
##ume
kare
anki
etmesine
aykırı
##rof
kurmay
geçmişte
onlarla
##lamalı
İnan
oynay
kendinden
kendileri
oluşuyordu
köpe
gerçekte
gerçekçi
erdir
bölümün
Ruslar
güçlerini
Bremen
eserlerinde
süredir
kararla
yayımlanmış
yarışmasında
##less
##lesinin
These
berabere
gelişimi
anlamıyla
ölümcül
bulunurlar
yerleşmiştir
Değer
hizmetleri
topraklar
üyelerinden
araştırmacı
##ülerek
Adnan
##icephal
vuruş
Charlot
kanalizasyon
şarkısıyla
Metin
nesli
Müsab
kullanılmak
birleşik
Teor
kütleçekim
diyerek
ısır
##lenmedik
Çağdaş
koşulları
Göktürk
iktidara
emekliye
Şirketi
##lumb
gecesi
Little
sakatlık
şüphe
Bilgiler
Rhip
Böylelikle
kompleks
Castro
Hastanesi
ahlâk
spektr
sipariş
Boliv
Doug
Gordon
Bilgisayar
Alaska
Ax
Cody
GS
Hark
Hell
Kaya
Kimi
Nice
Nuri
Rick
Sut
Ulu
Vide
demiştir
Çeyrek
##nar
##jan
##zak
##än
##dez
##isin
##dıktan
##ulmaz
##eman
##api
oluyordu
##abanı
##tığını
yerlerinde
ayn
tarafta
tarihini
çıkmasına
sürmüş
sürşarj
konsan
yaşından
günleri
toplayarak
##hew
Arda
varol
aktarı
akustik
takımlarında
sağlıklı
##guen
##asyonun
düzgün
kendinin
##lemesine
##hang
sanık
Chap
Onur
##agen
yapılı
İkili
okula
hazin
ödüller
tahkim
altındadır
Hermann
Kupa
kaçar
Bakanlar
çizdi
karakterin
dinsel
Kızı
Saw
Rusya'ya
hayvancılığa
havaya
çoğunluğunu
ilerley
Mekan
oynamak
Doğulu
soyut
##ennes
seslendirdi
kopyası
Köyü
hikâyesini
yaşadıkları
akımının
Kamer
Ödülleri'nin
Enstitüsü'nde
Aralık'ta
birincilik
Frances
heykeltıraş
ödeme
İlişk
önderliğindeki
Eserin
zehirli
optik
finansal
ucunda
bağlamda
mürettebat
kurşun
Malez
Luftwaf
insülin
Bükreş
vasıtasıyla
I'm
Juvent
Massachusetts
[AMOUNT]'i
Cart
Cruz
Lich
Lang
Mun
Mom
Neb
Süt
Tran
Touch
Yat
Zür
iri
lir
m.
reng
##tra
##jev
##sını
##has
##ée
##değer
##onte
##us'a
##ımlı
kura
kulak
tarihin
işbir
filmden
filmdeki
gösterilmişti
oynat
sezonundan
atlet
hayır
##olitik
şarkılarını
aldıkları
düzenlenmektedir
Kongo
Başrol
##ego
##ento
tamamlayarak
ayrılma
eserinin
##lock
düşündü
yaşamın
sıkıştır
listesinin
kaynaklı
Yunanistan'ın
keşiş
##iji
etmekteydi
##ronomi
sürdürmüştür
Kras
çapraz
modelleri
solunum
Metro
kaldırıldı
Valisi
Harekât
Comp
olasılıkla
oluştururlar
kaydedilmiştir
##.An
gelecekte
defned
Oblastı
emriyle
yukarıda
dua
##borg
itiraz
döş
Trakya
ölçekli
Cenevre
İhsan
Barcelona
Farklı
Rhipicephal
Baj
Beck
Eug
From
Gec
Jour
Mayın
Psik
Riz
ST
Sart
Vali
Vinc
balığı
eti
ler
miz
va
vize
yemin
Çiz
Çetin
##tiy
##ox
##çası
##hara
##üğü
##bank
##ár
##aton
##imine
##dia
##teg
##omon
daima
etek
end
edince
Allah
##ehenn
##adam
##anıyordu
##elis
geçmek
dönmek
esnek
büyüklüğü
asf
İnce
France
yüzüne
çekilmek
Erivan
düzeni
kişilere
adası
Theat
düzenlenmiş
kanalıdır
azından
##ower
koruyucu
gözet
dilini
kızları
##dikçe
##bridge
şehirleri
giys
##son'un
liglerde
und
##tiva
Afro
beraberinde
planlanan
çalıştık
Büyükelç
köyün
Bakır
olaylara
tanımlanan
##gain
Kıbrıs'ta
şirketler
mantar
##ombin
NBA'in
Europe
rekoru
Battle
Haydar
London
öldürülür
Azerbaycan'ın
dekor
Mücade
özgürlüğü
ihrac
Force
bakımdan
tersine
ışını
nakış
pratik
emrini
basımı
America
Slovak
sözleşmesini
ajan
esinlenerek
Tenten
yükselerek
rekorunu
İtti
Johann
üyeliğine
hoca
Değiş
Indiana
zihin
Soğuk
Benjamin
rebound
[DATE]'ten
1,5
2.0
Grim
Hig
Jül
Müş
Pub
Vek
Wen
from
fizy
geni
horm
lev
şap
##lının
##.00
##RP
##akki
##lamışlardır
##eksüel
##ikan
deh
yapısına
##ump
etmeleri
##oğulları
kurmaya
kenarında
yazım
açısı
##elebek
filmle
gösterilebilir
görevler
##atıyla
##üsünün
istemektedir
oluşu
gelene
ermiştir
Kontu
##labilen
doçent
okuma
gereklidir
durumdan
ağrı
alındığı
izler
izledi
Brun
eserde
hazırlanmıştır
bıraktığı
Fransızlar
askere
programlama
bilgilere
çizim
Müze
paten
Mahmud
savundu
##lüğünün
Heat
##teşem
çarpma
Evi
Evren
amaçlayan
Charlie
mutfak
dairesel
Koruma
kurtarma
Kuvvetleri'nin
kaydedildi
##ambik
böylelikle
öğretmenlik
Office
Christina
Ortak
aşamada
suretiyle
Mozambik
Frederick
Kulüpler
formatında
Poe'nun
sorumluluk
tapınak
Songs
Titanic
Ürdün
Kastam
janr
kusur
muhabir
adeta
hamile
Uruguay
Sakaryaspor
Bisiklet
Eren
Evan
Games
Hud
Home
Koyu
Last
Ned
Zeki
dalı
fah
hekim
huku
lez
plazma
Şanlı
##vaz
##ûr
##uch
##çın
##cini
##baç
##ir'in
##irmen
##lif
anarş
etmesiyle
adından
günden
yıldan
büyüktür
işareti
olmamıştır
oynar
düşünü
##asyona
türler
adalet
Geniş
##agram
yapılabilir
##owa
grupla
zordur
yenilerek
saldırdı
hareketli
devletler
Amerika'daki
gönderilir
uçağın
kaçak
gazetesinin
##lanırken
##şıklık
Dokuz
dinleyic
saatlik
Ortaçağ
beklenmedik
edebiyatı
hayvanların
Otom
avcı
Mekke
etkileyen
sıcaklığı
yıkım
##ropoli
tavşan
araçlar
savaştı
İrlandalı
Krallığı'nın
devreye
Sahn
donanma
Gökhan
ihtiyac
şöyledir
Devletleri'nin
birincil
kadroda
prensip
3000
seyirc
pozisyonunda
sahnelenen
sergiledi
Antalyaspor
Hanedan
lakap
d'A
nihayet
manzara
iktisat
Süperküm
nimfleri
paketi
Chelsea
Bl
CO
DY
Fair
Gom
Gerek
Hic
Hid
IT
Like
Mov
Om
Sez
Saç
Teh
Vor
Yu
Yeh
Zag
aster
tey
Çat
##tom
##zeti
##fonik
##gaz
##17
##BS
##arad
##ente
##ilince
##uro
##its
##star
##ceğin
yeryüz
tarafsız
vermeyi
Anim
çıkmak
##ebeli
taklit
yara
##eley
filmiyle
varsayı
Türkiye'den
çekmektedir
bağlandı
kaplumb
seçilerek
yayınlar
eklem
nedenlerle
Endü
oluşmaktaydı
Onlar
okyan
yüksekliği
metr
Santi
##erald
hayatında
##erner
##ton'ın
edeceğini
geliştirdiği
gelişmiştir
Main
kazandılar
kuşu
karakteristik
Demokrasi
birbirlerini
Kate
yönetiminin
adlandırılmıştır
turnesi
denizaltı
yoğunlaş
yatak
Senar
öldürülen
Hitler'e
Kore'de
masal
koruması
dakikalık
gücüne
Gregor
Moğollar
Haçlılar
rütbesi
Maçlar
mesafede
Miche
vakıf
barındırır
##meyecek
unsurları
tepkiler
Heykel
sömürg
Romalılar
esinlen
anlayışı
Days
icat
müziğin
gidiş
ışınım
kapasiteli
sekreteri
Jesse
Singapur
referans
seferi
Manisaspor
rövanş
asfalt
[DATE]'dan
Büy
Bush
Cos
Eg
Hiç
Jenn
Kok
Line
Nich
Rig
Sid
Wag
emin
jener
litre
sultan
tuhaf
Şaban
##ığ
##ters
##eor
##ju
##ceye
##malarına
##ave
anad
ayda
eng
##zersiz
kurak
##ifer
varan
girmek
##aco
evcil
##talan
##lığındaki
seçti
seçene
elf
elindeki
hayli
sandal
santral
Chal
ekledi
ress
Mari
##emix
müte
okut
satır
gözleri
metrosu
##spor'da
geçirip
kararını
Manet
hareketinin
edebi
Dexter
barın
kaldıktan
Sex
şirketleri
çiftlik
yönetimindeki
manev
denizden
şeytan
Stein
Azerice
##jiang
anlatım
amaçla
Hollanda'nın
Stadı
memeli
çeviri
yaygındır
Michel
merdiven
kemir
noktaya
ürünler
Yerli
yumurt
Kimya
kapatıldı
Sezonun
delil
civarındadır
İstik
kumaş
meşru
teklifini
teknolojisi
Kenan
liber
##gorit
hattının
kuyru
kanseri
şunları
beklent
Fame'e
Godoy
Çevre
oluştuğu
hocası
bonser
parametre
İnşaat
zevk
fantastik
Rhipicephalus
Fro
Geri
Glob
Hin
Kru
Lut
Ped
Single
W.
Yağ
Zaten
alacaktır
bale
federal
güz
nez
nehrin
ris
sn
sül
sunan
Öğretim
##yat
##mus
##ky
##ojen
##zet
##çiliği
##cap
##hem
##gal
##ğundan
##ekleri
##urus
##ştay
##ürt
##asımp
##abat
başlarda
##adüf
görenek
olanları
tarafına
inter
sürpr
##ign
onda
kalacak
toplamak
büyüklüğünde
karşılamak
işlerini
gösterildiği
birliklerin
ikisinin
gerisinde
kıskan
elveriş
etkisiz
gelişti
belirten
yapıda
basamak
şekillendir
mühim
##olojide
korudu
çıkaran
çıkarılmıştır
onuncu
uzakta
sebze
şehrindeki
Yahudilerinin
yerleşime
tanıtımı
karakterleri
gerçekleştirmiştir
birbirlerinden
İznik
Serinin
Araplar
Johnny
temelini
yarımada
Spar
kralın
dağın
eyaletlerinden
İsveçli
semp
##eğe
Doğal
Under
ileride
taşınmıştır
Terakki
görüntüleri
tasfiye
Polonya'nın
noktasında
parlaklık
mahallesi
konusudur
##mann'ın
gezegenimsi
##demli
düşünülür
ücreti
yöneticileri
Raw
Dinamo
Kasab
Irmak
Çalış
içeriği
kazandırdı
efsanevi
mayını
nöbet
semtinde
arayış
milliyetçi
Wright
Bayanlar
Kongresi
Brezilyalı
Hapis
Abdülham
Guevara
pişir
elbis
tedbir
Kaşgar
Milletvekili
jüri
Yavuz
Kadıköy
Tebriz
Aleksandr
Şanlıur
(d.
3'
Born
Coğraf
Dek
Duy
Jar
Jin
Kin
Kep
NA
SP
Tul
Tren
Zong
fav
him
hiyer
kestir
nı
peyn
riv
##aw
##şir
##'ları
##ér
##SP
##amba
##ikalı
##dut
yapısal
başlarına
##umuz
aniden
bulmaya
taraflı
verecek
bulunmayan
Alber
##ipp
tarihî
gelmesiyle
adli
yönünden
açılmış
Arm
Arena
göstermiş
alanın
maçının
ölünce
evlat
bölgesinden
bağlanan
Erc
yang
##dere
##eyici
teması
##mesidir
Karol
Konuş
mühendisi
tutmak
tutuldu
ofis
sayıdaki
sevilen
Bilimleri
geliştirilmesi
güneyindeki
Mach
krater
##iew
yerleşmiş
yürüm
birbiriyle
sonuçlanan
Birliği'ne
görüşü
partiler
partiye
ilçesinin
okuluna
130
bestecisi
uyarınca
İsrail'de
Luc
anlattı
Romanya'nın
geçerlidir
Bayrak
İçin
yöntemler
Cooper
yabani
yürütülen
Panama
Macaristan'ın
Madonna
ateşi
başrollerinde
şidde
egzersiz
##achel
başlangıcı
ekipman
Geçici
servisi
Volks
sorumludur
istenen
istenilen
Know
Fior
koval
Claude
performansıyla
tanıştığı
Twitter
Öğrenci
kalıntıları
Bernard
ithaf
##aftiz
Kiev
Sekreter
Hikâye
melod
Gizli
Championship
endiş
Eleştirmen
Gustav
Olağan
tazmin
Institute
Hugo
Seattle
Mim
Mardin
Num
Rav
Reh
SV
Stratej
Was
döl
lale
mum
nan
nota
yur
çeli
çete
çılgın
##i'de
##ique
##neri
##çik
##çık
##beyi
##13
##LA
##ındık
##alist
##under
##latır
##lia
birleşti
##amamış
##lıların
##uldak
##im'in
##ahan
##ılınca
##olini
##dust
##mıza
##abe
##uspor
##cio
görmektedir
##ilmesinde
##opot
##melerine
verilerine
##ebec
kader
sürat
kongr
geldiler
adla
dönmüş
yazma
yaşı
Aren
Arka
[YEAR]'daki
oynarken
oynayarak
albümle
Erdoğan
sanki
tamir
türlerinin
Ona
belirlendi
resmin
başladığında
Marsh
sendik
farklılıklar
tutulan
çıkarır
yakınsak
bakteri
başlatılan
Halkın
ailesini
Galip
taşıdığı
telefonu
yapımına
Kıta
##bolik
Şampiyonasında
topraklarda
##taşı
yönetmenlik
formül
dünyasına
edilip
##teşar
Afrika'nın
Bölgesel
##iğe
boşalt
yöntemleri
Comic
Grant
başrolü
masraf
odası
Hakları
beslenme
kitabıdır
uğrayan
gücünün
İnsanlar
Gazete
donanması
İbn
pazarlama
kurucuları
Erzincan
hissed
##uluğuna
dostu
Önceleri
cezaev
süreliğine
Siyasi
görüntülen
Özgürlük
British
üreticisi
Every
Western
Guevara'nın
arkeolojik
Ziraat
ateşk
##strüktiv
mülte
Philadelphia
Ptolemaios
Spartak
Zonguldak
Bomb
HP
Key
Kasımp
L.
Lav
Lyon
Nin
Nep
Nükle
Over
Pist
Sınır
Uçak
Vat
Wel
Xin
Yang
amp
band
hok
müt
ren
sa
vampir
Çak
Şi
##mark
##ediği
##klarında
##zu
##sberg
##ág
##uni
##lanıyordu
##atis
##et'in
##ettin
##ism
##di'nin
##denburg
algılan
algorit
buğday
kurs
çıkarken
konuştu
##ido
yakının
##iyetin
kaydır
##rence
##ozu
hard
##olistan
sermay
türlerin
aynıdır
doları
içerisine
Savaşında
satranç
turunda
üretildi
öğrenen
ilgisi
çalışmalarda
güçlerinin
Kuran
seven
görünce
##silvan
sınırında
Maden
Kupası'nın
Tekir
üyelik
Danny
Derviş
##lish
popü
tanınmaktadır
##mezler
bitirmiştir
öncülüğ
kampüs
kamyon
kulübüne
kulübüdür
havada
haberler
haberdar
defalarca
tehdi
Hollanda'da
bölgelere
Emniyet
partiden
##lediğini
birleşmesi
doktoru
mağaz
hastalıklar
##oksit
Conn
Dağlık
Moğolistan
Hindistan'ın
Okulu'nda
köşesinde
egemenliği
350
Liber
mineral
destan
enerjisi
bestesi
olmadığından
Sefarad
Gölü'nün
yönlendirme
Britney
Sebas
Matthew
detaylı
Hamzaoğlu
Tacik
ameliyat
prestij
Phoenix
olimp
ertelen
Mücadele
Beta
Dra
Fla
Fire
Kadir
Ley
Nidal
Oc
OD
Standart
Soph
Tug
Tapın
Xi
Yo
Zafer
cover
fare
klor
manda
pal
sün
Çavuş
çor
İlin
İTÜ
##rus
##şer
##yasına
##mamıştı
##kaz
##'unda
##çil
##hoş
##feld
##boğ
##git
##és
##BP
##BI
##EG
##ilse
##ayeti
##okim
başlı
anılmaktadır
ayin
geçtikten
##igi
##idor
işleyen
##aragu
birliklerine
İncil
Amaz
gergin
çekilmesi
çekimler
bağları
elemanı
atöly
derhal
türev
temin
temeli
düzenlenir
##labilmesi
##cker
yükseklik
##oga
##amaları
turne
öğrenimi
rollerde
başlamışlardır
uygulanır
burj
##ough
yardımcılığı
##lyn
##incisi
programına
tesadüf
gelişmesi
gönderilmiştir
Müziği
kitaplar
koyduğu
saati
Basit
ifadesi
okulunda
Malaya
Monster
oynadıkları
satışı
İsveç'te
ayaklan
##here
Bonap
kayıtlı
katkıları
Patri
uygulamalar
direktörlük
giderler
yararlanarak
##foni
kışkır
şirketidir
##amakla
mektub
Center
Durant
Süleymaniye
Eyüp
derecesini
##ilebilecek
uğraşan
Elliinci
alfabesi
İsaaki
gömüldü
gayrim
ısıt
Devrimi'nden
Medici
skorla
cenaze
terminal
titreş
elimin
##takım
Radio
telaff
Theatre
İttihat
sürpriz
Atab
Futbola
Gh
Gay
Gri
Kedi
Mot
Mob
Piet
Usta
VH
Zek
aleti
bük
si
Çank
çiğ
##yaz
##yasında
##mî
##kurt
##zin
##uer
##core
##.Ş
##ıncı
##onia
##lanı
içe
aralığı
##ader
##rot
##uşa
sürül
##ream
büyükelç
işçiler
İnönü
paralı
##mayacak
sağlamış
kablo
Mars
Marcel
Roland
Başlıca
içeriyordu
eşdeğer
senatör
İlköğretim
gitmeye
sisteme
ligden
yoksun
Komit
Inf
destekler
ölümünün
gazetenin
Musul
Rein
koyulur
Basın
galer
hayvanlar
anlattığı
Eskiden
dağılımı
Beşiktaş'ın
öldürülmüştür
çevirdi
şiiri
Oyunları'nda
Ermenilerin
Kore'nin
Köyde
doğuya
tavuk
Tex
Dönemin
benzin
parlaklığı
ayıran
Müslümanlar
Nikaragu
Ülke
Marksist
yetişen
koşullar
Mirza
analizi
Vakıf
kategoride
çoğunun
kapıyı
monarş
müslüm
pasaportu
statüsü
Pekin
İbrani
Kırklar
hisse
Hannover
Golden
Visual
sadakat
Boşnak
Donanması
deplasmanda
Yüzüklerin
feshed
ebeveyn
toplantısında
Wrestling
İng.
Bohemya
Felsefe
referandum
Kasımpaşa
89
Cur
Call
Fed
Gul
Kuv
Miz
Mold
Ple
Pey
Yor
femin
kast
klinik
pes
that
##rap
##ıtı
##lüt
##yaya
##ötesi
##nut
##nett
##oa
##deri
##çer
##cik
##hu
##balığı
##gate
##ware
##iyal
oluyor
##ılmakta
##eyerek
##eysel
##main
tarla
##eve
##cid
##utan
##os'a
yerinden
verildiği
kullanma
işit
alanının
kazası
kazasında
Ayhan
Almanların
altından
##yana
Cho
sahipleri
yapıların
yapılarak
savaşan
mücev
tümeni
aşkı
azdır
turdan
Burhan
Light
ödülünün
Kanalı
##rosunda
Belde
##iyorlardı
sunmuştur
belirtildi
davası
savunur
dinî
##burgaz
saatte
eleştiri
##ileceğine
ülkelerden
Dave
Salvador
İsveççe
havz
İşleri
stok
Cannes
##eğinin
motorlu
taarruza
faaliyetlerini
sistemidir
öldürülmesi
keşfedilen
Londra'daki
Josef
Mısır'da
kurumsal
maaş
kafes
Köpek
Merc
karaciğer
tarımsal
Minsk
Borus
Hindistan'da
##maraş
simet
seviyesinde
mecli
Fritz
ilaçlar
Cameron
Efendi'nin
matematiksel
üzüm
It's
Üyesi
Sarıyer
Programı
ayağı
oynamışlardır
aleyhinde
Kahramanmaraş
sembolü
varsayım
Bradley
aralığında
reddeder
İktisadi
minimum
dedektif
Radyosu
Brothers
eliminasyon
[AMOUNT]'e
1'de
1.5
Audi
Bow
Bog
CR
Cra
Fos
GT
Git
Hist
Karat
Kayıt
Leb
Slip
Yam
adan
bana
hil
iade
kedi
mav
nik
som
utan
yeş
çim
Şem
şeye
##ılacak
##noks
##koz
##krip
##cine
##beri
##Ne
##anne
##eran
##ıntısı
##il'in
##aktif
##latıcı
##lanmak
##ahh
gökadanın
##avüz
arist
##adok
karayolu
##opro
yerin
veriler
##isi'nin
sürücü
##ović
döndükten
yönden
onlardan
kadarki
##ladıkları
##eston
Ayı
albümdür
Franco
yanındaki
değişti
##obe
yayınları
Karanlık
Konyaspor
bölümlerinde
öğrenmek
fazl
##darma
müziklerini
izlenen
sistemde
kentine
duyulan
Manuel
programının
Beyler
ilgilidir
Ath
yazarları
Oysa
Roma'nın
kronik
##cısıdır
##'sini
kullanıcılar
saatlerinde
görüşleri
kitabını
Bastia
emretti
Stev
bulunduğunu
dağıldı
olduğunun
kampına
Donald
##iğinin
etkinliği
keşfedilmiş
Yakup
Wallace
arkasından
buzul
kumanda
açılışı
dolarlık
erişim
generali
kapasitesi
Abbas
Konstantinopolis'e
##razam
söylent
yürüttüğü
katalog
Ailesi
Malatya
Blood
Nemzeti
takiben
Leopold
Kızılderili
örgütün
Abbâsî
İstihbarat
Bajnoks
Wagner
Erciyes
Bajnokság
2,5
Again
Bé
Cold
Centur
Hüc
Midd
Pot
Pep
TF
Vi
fac
gazı
kin
kılı
norm
nazar
pankre
sark
western
Çam
öte
##tiz
##dört
##sunun
##col
##gol
##aladı
##esk
##ulduğu
##itleri
##abad
##abilmesi
arda
aramaya
##ilmeyen
##eçh
##osen
Buc
verebilir
vermişti
iniş
dönüp
##uka
zamanının
olmay
çalışıyor
akl
çekmeye
bağlanmıştır
##asyonel
##ozor
##leyecek
##obik
Chuck
etkisinin
geliyordu
önemlisi
savaşında
Marin
şekillerde
tamamını
diller
Stock
sanatsal
eserlerin
##ganda
uyguladığı
sesleri
[CUR
Mann
Bert
beraberlik
dikt
parçasının
sars
##bourg
kazandıkları
karakterlerin
Benz
Serg
Dante
##skaya
ülkelerine
yarıda
Turner
öğrencilere
kulüpler
imparatorluğun
üreme
Suç
Porto
canlandıran
Ordusu'na
merak
kısmına
heyet
kelimesinin
döndüğünde
fonksiyonun
başrolde
Mülk
performansını
Tayvan
arkaya
Çocukları
Federasyon
Great
##ülüğü
yapılmasını
girişiminde
Tunus
librett
Banka
tahtına
ayrılmak
süperküm
yetkili
tartışmalar
ch'
dergide
atıf
fosfat
kaybederek
Geliştir
Letonya
arzu
Studios
Çıkar
soruşturma
müziğe
Milliyetçi
Strauss
polimeraz
Aguilera
##light
KKTC
Gogur
Aur
Alayı
Cour
Gam
Gele
Kot
Kill
Nürn
Raf
Rut
Ring
Rep
Süm
Vef
ale
hel
lat
naz
payı
sade
tuğ
zeki
İht
Şük
şut
##alet
##eum
##ves
##nal
##dî
##zim
##uge
##cilere
##bas
##CD
##akan
##lax
##eto
##etto
##dian
##mad
##us'u
başını
##adar
anında
##osyon
##isten
isabet
verilmişti
çıkacak
çıkmıştı
kont
##laşım
döng
yaşıyor
tekstil
##idin
toplandı
topladığı
toplamı
çalmaya
##iyetini
##odon
yüzünde
atmış
sancak
servet
türünün
Enver
kaba
farkına
sözler
bölümüdür
çalışmalarıyla
sorar
sorunun
Stu
zorun
motif
Hala
hafıza
sıkış
programlar
Beykoz
devletleri
genişliği
desteklenen
parçanın
çevresinin
çocuklara
değiştirme
kardeşinin
patent
Tarsus
Koc
manevi
şeklini
Partisi'nden
güvenliği
Ligi'ne
bitirerek
Liste
Senegal
karşılaşmasında
İmparatorluğu'na
arkadaşının
yönündeki
etmektedirler
olabilirler
vatan
Önceki
Jose
kapsamaktadır
Patrick
yağlı
teşek
noktadan
yorumlar
Diet
yazarıdır
fotoğrafçı
karışımı
korumaya
ulaştığı
Radikal
Havaalanı
kurallarına
Miras
Komutan
Finalleri'nde
derinlik
Hükûmeti
Keep
Stadyum
kilisenin
##liliğini
Aşağıda
endüstri
dışarıdan
Başbakanı
Desmond
Jackson'ın
sigara
ihtimali
boğaz
Johannes
Total
Malatyaspor
yelpaz
Lothar
Filipinler
Gazeteciler
Kütüphanesi
hasılat
hektar
ecza
deyişle
Müsabakalar
yakınındaki
Kırklareli
mücevher
Gogurye
Nürnberg
[YEAR]'nin
Back
Eu
Efes
Fis
Hâ
Kun
Kraj
Luke
ME
Mür
Mr.
Oder
Renk
Sv
Seg
Uj
Zah
centur
elen
gard
iğ
l'
nü
neş
omuz
çey
Şef
Şehr
Şair
##ril
##yem
##t'in
##e'ye
##ias
##çıl
##ğindeki
##OK
##enos
##alo
##asın
##lana
##organ
##aşüt
##itch
##larınca
almaktaydı
##avan
karg
##önes
görme
etmedi
##manlık
Andy
##icileri
##eba
sürü
kalmak
yıldır
sahaya
sahasında
işini
Armia
##iff
İsyan
girerler
parayı
##ampa
##yang
##yanık
öğle
türüne
ortamı
yapıyor
açıklan
açıklaması
Üniversitesinde
üstlenen
##tüel
metraj
çalışmalarından
geçirildi
sistemlerinin
şehirlerde
düşünen
yüzyıllarda
söylem
ortağı
kaçmayı
sinemada
sunar
Prim
Wilson
ayrıc
anlaşıldı
##luğundan
Stefan
Adını
sahibidir
ticareti
Avustralyalı
seferleri
kaldırılmıştır
Union
batır
yürütmektedir
Kürtler
Michigan
merm
yazılıp
işlemleri
Krallık'ın
##lahat
Diego
hastalıkları
hesaplama
Aşken
zira
karışım
Oldu
üretimine
##ology
Boris
doğrul
devrinde
simgele
Warner
evrensel
Şarkısı
Faith
çağrılan
madeni
Akademisi'nde
Sivil
şansını
kurtuluş
şartı
bulunduran
yayınlanmaya
tecavüz
hastalığa
tuzak
bürokrat
Pompe
dalgab
uzatma
otobiy
##imetre
Kolej
kuyruklu
kült
Sekreteri
madalyası
Tevfik
imaj
olmamasına
Endonezya
##jektif
##castle
Lawrence
Parçanın
California
Pompey
Bahreyn
rezerv
helikopter
konsantr
Rizespor
0'lık
Adi
Baha
Bren
Cli
Dru
Fac
Führer
GL
Ivan
Lüt
Nef
Never
Ost
Peri
Prensi
Sri
Tre
UN
Wan
Yur
Zim
bini
beni
bize
dub
draft
gev
haç
hayalet
kâr
zem
Çelik
##ration
##more
##ös
##ns
##sir
##ction
##hin
##.V
##WS
##GM
##dağı
##la'nın
##iyotik
##ılmamış
##yaj
##oln
##abını
olanların
antrop
ilkel
inanan
çıktıktan
geçtikçe
üzeri
dönüştü
toplayan
Arkada
Arsen
zamanlarında
çalışırlar
maçtan
proto
ikiz
kazanma
dönemini
Ertuğ
##asyonları
atılmıştır
sanılmaktadır
türde
türünden
açıktır
suya
##leştirilmiş
kanadı
##amadan
üretilmektedir
Asur
##aland
dilinin
harekâtı
ordularının
Harbiye
yarışan
uygulanması
saldırısına
uzaktan
sıfat
Osmanlılar
öldürmeye
söylenen
Thäl
kuzeyindeki
Newcastle
kaçmaya
gençlerin
çevrilmiştir
koymuştur
alım
çözümü
çapı
eyaletin
haberini
Edgar
Romanın
Fakült
Meksik
kutup
civarı
takımyıldızında
hepsini
olabilecek
alındığında
Tayy
rahatsızlık
Swans
Finalde
Alexand
Mahkeme
sürümünde
bölünür
Gözlem
beğeni
tartışmalı
##uluğunun
alfabesinin
dostluk
Başbakanlık
efsane
malzemeler
Levent
çalınmıştır
Abdul
nötr
mühendisliği
torun
mitoloj
ırkçı
karşılaştığı
irtib
Mezun
Ajansı
County
ithal
Nişanı
nihai
Kocaelispor
loj
Temsilciler
Major
merceksi
çifti
MKE
estetik
İşletme
vilayet
timsah
İlerleyen
Sonuçta
Zürih
##tegral
Kastamonu
himay
97
B.
Dos
Fet
Kön
Payas
Rik
RIA
Sit
Sac
Sound
Uganda
Yarat
fiyatı
güt
hsi
itici
laz
muk
mob
nm
nice
zıt
zeytin
İleri
Şans
şem
##edan
##ix
##nastik
##dom
##s'un
##'tır
##back
##KP
##erlik
##lez
##liamı
##iyo
##it'in
##maca
##abella
karısının
##mand
##işkin
##mektir
tarihçisi
##ebileceğini
konuldu
Birm
kullanırlar
yazın
gündem
gene
açmış
sahası
##ilia
devred
özen
##sie
olmayıp
[YEAR]'un
kaymakam
çekilmeye
tanecik
kaptır
atf
atlay
haydut
yayınlanmaktadır
##uber
belirterek
savaşları
getirilmesi
salgılan
aşan
insani
gözlerini
gruplara
yetmez
dilbilim
rolleri
Burak
hatalı
gitmiş
hayatın
burun
Herbert
nüfuz
canavar
kaçmak
transkrip
Oyunu
kırdı
mezh
tanımlanmıştır
değiştirmiştir
silahların
uğrar
##ronun
temelli
görüşe
eleştirmeni
koloni
idrar
Ortadoğu
renkler
isteğiyle
dergilerde
erkeklerin
cinsi
Turu
radar
Yıllar
inanılmaz
Can't
fırlat
bölgedir
Yaprak
Mısır'a
Valent
##üğünü
master
olabilmektedir
yıllarca
bombası
kullanımını
Moskova'ya
kışın
İsviçre'de
ilgilenen
medres
Muharebesi'nde
nişanlı
töreninde
Satranç
Takımın
hastaneye
Ofisi
Meksika'da
bitkiler
kullandıkları
Andreas
eleştirmenler
danışmanı
elemanları
sabahı
sigorta
endüstriyel
yorumu
füze
şüphelen
yetkilileri
soyad
##iskoposu
rüzg
##agogu
cenaz
Ayaklanması
bedeli
çarptırıldı
heavy
sertifika
Rudolf
Boğaziçi
Abdülk
Enerji
veritabanı
Dimit
Stephan
Maximilian
Sawyer
rivayet
Tekirdağ
900
Alk
Java
Jung
Kelt
Lion
Map
Muz
Melek
Paz
Siir
Veri
Wa
Yüce
Zeyn
fas
güd
ita
lif
mus
mız
medi
pik
paz
pros
sc
Ök
##lasyon
##vo
##vas
##çilere
##hart
##aro
##de'nin
##ırda
##eko
##liyor
birliğin
##amat
##emann
##indedir
##aht
##cedes
olanı
anten
isyanı
##cılığını
##alığın
##ovo
yazmaktadır
açılması
##chw
devlete
yakında
Ariz
Arist
ilinde
##eppe
akışı
##ache
Erik
kapısı
dur.
durdu
##oblin
yayınlayan
Cháv
yolla
belirler
yapıyordu
Dünyada
Karaman
Konferans
değişmez
##ılıyor
isimle
gözle
çıkarmak
Kurmay
eserlerinden
yüzyıllar
Elv
listenin
genişleme
Atlas
konuyla
ilişkilerini
ilişkilendir
çocuklarının
##mazlar
Bunlara
sınıfına
ünlüdür
100'de
Dergi
söylemektedir
demokrat
sahneler
sahnele
yoğunluk
gemiler
ekibinin
kariyerindeki
kahv
etkinlikleri
şiirleri
mermi
Cemiyet
Stargate
Göller
Mercedes
tarzda
ortamında
arkasına
gitaristi
Magic
##lâm
şiddetle
kasabası
Tiyatroları
market
Nazır
kayıpları
psikoloji
Sakarya
##kırımı
gölg
sergilenen
Yazarlığını
tahttan
Cambridge
miting
Mühendislik
aralıklarla
Phillip
oğlunu
vücud
Üstün
Nickel
aleyhine
oval
##pazarı
plaj
Vault
Kuşatması
sloganı
memelilerde
zarfında
Hamilton
##.Ancak
sandalye
telaffuz
Cit
Ders
Fun
Gas
Gla
Ionna
Lop
Mav
MHP
Ozan
Teğ
Trav
Uni
Vin
Zengin
fe
folk
mün
muz
nör
sel
vaka
vaftiz
öp
##yr
##öğren
##valar
##iang
##naz
##çay
##.R
##51
##50
##bis
##wagen
##20
##ilkol
birtakım
##atom
##dip
##eyken
##ümin
##abildi
##ti'nin
yapmışlardır
##usuz
bulamadı
karaya
Buch
iskelet
yerlere
ilkokul
adlarıyla
dönük
dönmesi
yazılır
yayıldı
yıllardır
##iliğinden
çalan
Arif
uydur
evlenir
kapağında
aracın
##asyonunu
Chev
getirerek
eşinin
tutk
güçler
Burg
Burun
sever
##ohen
olmalarına
##formasyon
Hande
duygusu
değerini
aileden
About
milyonlarca
devletinin
dikey
köye
bağışıklık
konuşulmaktadır
ölüme
Şarkıda
Değ
karakteriyle
anlaşılır
komutası
##'sinde
İzmit
##skiy
kontrat
110
okuldan
araştırmaları
dayandır
parçaların
kulüpte
adamlarının
modelinin
Senatosu
Perry
faaliyetlerine
kahve
yöresidir
Morris
Önemli
Kentte
işlevi
sunucusu
önerdi
ihtiva
kurallar
limanı
talebi
Zamanla
Gazete'de
Warri
İsviçre'nin
kayıplar
Keam
Seyy
binalar
kurucularından
komşudur
hastanede
##ografisi
dizisindeki
çalınan
gayret
Fırtına
pilotu
Cerrah
Zelanda'da
taraftarları
tabanca
Sivasspor
mutlaka
Whitney
Adanaspor
Fourier
Apollo
Fotoğraf
Malezya
Sartre
Pedro
hiyerarş
Xinjiang
ODTÜ
Swansea
König
Birmingham
Bret
BAF
Cow
Clin
Dut
Dec
Dog
Elen
Eragon
Feth
Gemi
Jen
Jake
Kla
Kade
Kosta
Lok
Nit
Olu
Ves
alabilir
bilmektedir
odun
zul
Çing
##yayı
##meyle
##'inin
##uduğu
##hn
##fuk
##bos
##wan
##âm
##IC
##ät
##akk
##leket
veli
##onim
##on'u
##livan
##aydı
##atus
##apı
##asıyanık
sonuncu
##cion
tarafın
##iha
kuralı
##menk
##ildiğinde
toplanır
##lamamış
##upe
çalışmasını
Avcı
takımların
albümlerinde
evden
çekerek
Erken
atlama
kişileri
şarkılarının
adasında
nedenlerden
yolun
kabuk
gelenler
##idel
Marsil
Rost
bölüme
##icht
eşleşti
##ents
senfonik
tutulur
roller
Brid
zorlu
106
şehirdeki
giyim
görünüş
##ğiniz
Abasıyanık
taşıt
Thunder
anlatıcı
dünyaca
otoy
125
tanımlı
anlaşılmaktadır
Doksan
kavuştu
temsilc
başkanlığında
görüşmeler
ülkelerdeki
renkleri
klibinde
emniyet
Turan
üniversitenin
gemiye
York'a
180
imparatorun
kuruluşları
inanır
inandır
Mekt
çevirisi
Michelle
Josh
ortalam
Terim
Terry
Demiryolu
Meslek
başrollerini
başrolünde
gezegenin
Dönemi
benzemektedir
dansında
katılacak
Tommy
kolaylıkla
istemiş
İrlanda'da
##lamenter
frekansı
şartları
kısımları
meşgul
tanıtıldı
konsept
oyununun
lehçe
ikincil
Slovakya
İsa'nın
malzemeleri
Julia
diplomat
Abbasi
gerektiren
işçilerin
editörü
Bella'nın
fosf
ihtimalle
Kuruluş
emperyal
Queen
kaçınılmaz
##liserol
Hikây
Society
##utsche
Georgia
Balesi
PKK
peygamber
Vegas
Sibirya
Başarılı
Çukurova
Football
Hapishan
müslüman
##önesans
RIAA
94
Alacak
Beste
Cé
Dž
Fele
Gest
Gücü
Gonz
IM
Juk
Lah
Lad
Mum
Moh
Neg
Rat
Sn
Sele
Saban
Tag
Uşak
Zar
amir
com
küp
sul
skan
sesini
yoz
zonk
Çıplak
Öyle
çukur
Şang
Şayet
##eus
##nalı
##kiler
##s'e
##sub
##'o
##h'in
##gent
##î'nin
##ás
##Hz
##AA
##lediler
##on'ın
##lağı
##esar
##urch
##ştaki
##macı
##mıyor
##ine'in
##stone
alına
almasını
almakta
##usi
karara
görmeye
etmen
buluştu
edilmek
##edy
##ediler
##laşmaya
kalmasını
katsayı
işine
filmlerinden
##leşir
çalışıyordu
göstermeye
[YEAR]'lu
evvel
##odyum
kazanması
##obu
derlenmiştir
komite
##ılırlar
Engin
yoldan
geliyor
##agon
##ideki
Üniversitenin
değişime
suda
dizileri
##ia'ya
gözü
gruplarında
sayılar
##inae
düşünüyordu
bırakmak
söylenmektedir
hareketler
İngiltere'deki
beyan
##hausen
operası
Yenice
Albümü
koyar
çiftin
kitabının
kültürünün
Maliye
özelliklere
inşaatı
140
ilah
Senato
kanallarında
Yüksel
Babil
şiirler
Koreli
##vator
teşh
Jonathan
substrat
Sports
Master
masum
Parti'nin
eseridir
Torino
değerlendirme
Ağaç
mahallede
kaydetmiştir
Jules
##demik
Göster
Sahil
Gazetesi
yapılmaya
esnada
şartlar
Belçika'nın
Sonradan
Silez
oyunculu
Pinker
Politik
sahnelenmiştir
hoşnut
elemelerinde
Binası
gerektirir
çabaları
Boğazı
Nicole
ihtimal
Selçuk
Sigorta
körf
Şekerspor
müziğinin
Button
Debre
keçi
Saksonya
heyecan
geyik
Flört
telif
Harkov
şiddeti
Borussia
nazaran
mobilya
Baf
Cu
Cara
Dres
Pad
Pac
Rachel
T.
Taç
Tuz
Tate
Vokal
Wer
Yoz
bot
eri
hom
olamaz
raf
sök
yalı
##şid
##miyordu
##i'ye
##iğin
##nis
##jani
##zbol
##zburg
##'y
##'larda
##cle
##bus
##wart
##ère
##enç
##attan
##isem
olmanın
##azin
##tacak
yapısının
##ezir
buçuk
##ople
##lular
ayına
##lenmeye
##roz
##lıklarını
##cıbaşı
##cular
Anj
##oven
kullanılıyordu
##otop
##ilirler
yaşay
yaşat
yarayan
kala
kalmaya
filmlerden
##erküme
akan
evliliği
sağlay
sağlaması
Türkiye'yi
bağlar
##uble
komit
tems
belirleyen
düzenleyen
şekilleri
müd
tümü
##cks
getirilmiş
salgın
satmıştır
ağacı
yakındır
harekat
kızgın
şehirden
##ohbet
bırakan
Abdur
bilgiye
hareketin
sınırlandır
Belle
genişliğinde
sinemasının
##press
seçimler
Reis
silahları
inşası
Serdar
Batı'nın
bekleyen
dünyasının
sonucuna
Beau
uyarlama
anlatıldığı
Hastalık
soldan
Senary
inanılır
stili
Bölgenin
arkadaşlarıyla
seferler
pullarını
Filmi
yıkıldı
kelimesinden
deneyimi
Mısır'ın
kurumlar
Mesela
terked
hâkim
Henüz
Cephesi'nin
tarzını
öldüğünü
yazdıkları
başlattığı
##ologlar
pasif
yararlı
tüketim
yetişir
yerleştirilmiş
sapt
hakimiyeti
Greg
acent
politikaları
hastalarda
meclisi
trig
Tatlı
mensubu
Lanka
davranışları
Fuat
ajans
Stalin'in
Eşit
MSN
apartman
Karakter
Habsburg
Düzen
Geliş
Yalçın
entelek
Toplamda
ahlâki
Projesi
Rolling
Hispan
Yumurta
organizasyonudur
nehrinin
tribün
Alliance
Explor
Kartaca
NHL
Karabükspor
Yuanj
hukuki
olimpiyat
##oprotein
ch'eng
mezheb
Siirt
BAFTA
Beli
Cuma
Dum
Elis
Earth
Hast
Linc
Levi
Ny
OK
Pra
Right
SR
Tet
Tör
dâh
fal
fres
peki
prensi
remix
yuv
ül
##raph
##şa
##şaf
##kay
##kot
##cen
##hun
##ü'l
##bal
##bran
##gılı
##wo
##İP
##GS
##lemenin
##ek'in
birliğini
##ayer
##racht
içecek
##abileceğini
sonbahar
##avir
##ininin
anılmaya
##os'u
taraftarı
##rojen
verip
bulunmak
##yonu
##edo
inç
tarihlerde
kadına
kullanmayı
dönmeye
##otta
##elez
##upa
yaklaşımı
kayalık
girdiler
evlenmiş
gereğin
sağlanması
dönemden
aralarındaki
elle
seramik
türden
Onu
erer
okuyan
üzerindedir
isimlerinden
metrek
##çıvan
başlamasıyla
güçlük
orduyu
kızının
yaklaşan
hatları
golcü
yıldızlararası
##lemeler
Bilinen
bırakılmıştır
ligand
Manhat
Galya
bilgilerin
dikdört
şehrini
Esas
Pritz
tanımlayan
çevrili
karakterdir
dahildir
ağırlığında
dinozor
yönetmenliği
##burgh
Topçu
Denizi'nin
##laştığı
##aja
üniversiteye
Anadolu'nun
öncesine
##house
Salon
vurdu
Guar
Avusturya'da
Moon
Kazım
düşüktür
siyahi
Cole
kopar
Londra'ya
Korgeneral
konumunu
Valiliği
Gius
Hotel
Charles'ın
Brook
Have
Garden
Meryem
isyancı
hukuku
Corpor
mektubu
kanıtlar
yaşandı
herkese
makaleler
törenle
barındırmaktadır
defter
ilçedir
Bursa'da
Balkanlar
Irmağı
balıkçı
lehçesi
Sicil
Dallas
Julius
Reichs
ajanı
duyuruldu
playoff
ilerledi
Lisesi'nden
istatistiksel
show
Brandenburg
hacmi
Hunter
Type
Kafkasya
Atlantik
çekirdeği
##rutiyet
##.Birinci
kızkardeşi
medeniyet
muhafazakar
Rangers
Bolivya
zihinsel
Santiago
Volkswagen
tazminat
Pistons
prototip
Teğmen
##üminyum
Pinkerton
gereğince
Manhattan
Pritzker
AT
Cah
EC
Fince
GM
HM
Now
Pjani
Rena
Set
Seni
Yılan
halı
kredi
pulu
sup
snooker
ur
ul
zh
Çayı
İH
Şar
##yön
##tım
##vers
##.P
##bes
##16
##40
##är
##FO
##arik
##ak'ın
##laj
##ekler
##ekte
##atur
##ury
##urs
##itis
##ılmamalıdır
aldat
sonun
yapısında
##eviç
##liklerini
##cial
##ağaç
##istir
verilerin
oyla
Anıt
##ebus
konuyu
gelin
takas
kalırlar
tekil
çaldı
olmamakla
gösteriyor
kayak
ikmal
bölgesini
sağlığı
seçtiği
##lemez
üçü
eklenir
türb
adap
##ılırsa
haklar
##sex
taşınır
merkeze
satılan
Parça
##olution
izni
geçirilen
Bres
Ligde
Shen
aileye
Elmas
programın
Ödülünü
##acaktı
hareketini
sınırına
yükselme
Carter
ilişkiye
Dean
Deutsche
Bulls
##couver
çarpan
Bask
televizyonda
ülkelerinin
kraliçe
bağlanma
edildikten
seyrek
üniversitesi
Stewart
bestelemiştir
York'taki
havacılık
Lisa
atanan
hayvanları
çarpıcı
kuruluşlar
amaçlar
yatan
Başkanlık
Galatasaray'a
Edin
engeller
bölgelerine
arkadaşlarının
geçerken
##teydiler
edilmeye
koşu
##ometri
Cemaat
Georges
fonksiyonlar
Madlax
görüntüler
fizikçi
Trib
Operasyonu
Forever
başlatıldı
unvanına
Arnold
seviyeye
seviyesine
Belçika'da
banliy
Vancouver
##ilmediği
öğretmenliği
Bölümü'nden
vokalist
stadyumu
Çelebi'nin
Muğ
cesed
bitkilerin
toplantıda
Direktör
Free
yetkisi
cihazı
Yetişkin
strateji
Claudi
düştüğü
Ticari
onurlandır
tanışır
sayfalarından
Philippe
bestelenen
kısıtlı
Maurici
##gâhı
Yazılım
civarındaki
kurtuldu
Madaly
ömürlü
Mozart'ın
Kırgızistan
Fikret
Pink'in
Tanzanya
Furkan
Manastırı
gişe
omurg
öncelikli
federasyon
vizesiz
Luftwaffe
ihracat
meclise
diktatör
Tayyip
Lincoln
Pjanić
Astr
CN
Ciz
Camil
Cenn
Danı
Famil
Iron
Kü
Lem
Lale
Naf
Rı
Rika
Ster
Tasar
UGC
Vest
Yel
Zam
güce
namaz
olamaya
sis
sih
tuta
Çarş
Üye
çö
öteki
öbür
Şa
##rî
##yık
##yurt
##mn
##mese
##vay
##vansiyon
##ness
##kler
##dinde
##dou
##ûl
##fri
##wich
##ğuna
##EK
##er'e
##ines
##ilimi
##lami
##iminden
##dig
##teb
içlerine
##usundan
##ceae
##avat
aramak
##ad'ın
olanağı
anlama
bulup
ayından
ayni
oyların
integral
##ebildi
##anımı
##rep
yaşlarında
topar
toplar
##rettin
##rian
gösteriler
haliyle
albümüne
parlament
##odin
çekilm
çekmiş
kazanç
atık
üçgen
şarkıdan
sayılmaktadır
boyuna
temalı
belirlenmesi
açıklayan
örgü
durumlar
getirmiş
dizisidir
tamamlanan
tamamlanmıştır
tamamlanmış
##ogram
Akşam
diline
geçirmeye
geçirdiler
kızını
sistematik
sevgi
##lesinde
##lesinden
üyelerine
Komisyon
söyl
hakkına
Güney'in
Princ
beyzbol
Eks
ayrılık
karakterinin
sınıfının
yürü
birbirini
Kıbrıs'ın
kimliği
Karag
maliyeti
araştırmacılar
dergilerinde
mücadeleye
teknikleri
sinemalarda
büyüt
maddelerin
verirken
soygun
Unut
firmasının
yağmal
Jonas
taşınan
##cilerinden
hücreleri
Halkevleri
Havz
sergiler
Hakkı
##schule
egz
##laşılan
belgeler
götürür
götürdü
Old
üretiminde
Sevda
birimlerinden
çevreleyen
kasabanın
Pasaport
Derneği'nin
bünyesine
refah
Tuncay
cismin
yıla
##mouth
büyüğü
opsiyon
Pomeran
eksikliği
peşine
sorumlusu
İdare
bestelenmiş
Nahiy
kolej
umutsuz
Clarkson
şifre
Cleve
Yürüt
polin
Konfederasyonu
Oğlu
cerrahi
gürültü
Cumartesi
Protokol
Süvari
promosyon
Sidney
bonservis
Şanlıurfa
hsien
Elvira
Ionnais
Seyyid
Felemenk
Gestap
Yozgat
İHH
3D
Ağı
Alem
Class
Dalı
Dale
Hul
Hede
IV
Lag
Log
LGB
M10
Rönesans
Siyon
Squ
Sezer
TB
Von
Vatan
With
Yark
ira
kağı
ndan
ru
rot
rest
sop
salı
site
süla
standard
zann
çöp
çığ
şövalye
##viv
##pio
##kâr
##u'da
##.Ç
##gers
##won
##PA
##aranlık
##ires
##dama
##lac
##lan'ın
##amit
##ellan
başlan
##aval
##affer
olanlara
anma
bulmuş
endemik
##cuk
bulunarak
bulunmaz
kurar
##tanik
##ove
##otek
##ukar
gündüz
büyükler
büyükşehir
uzaya
kayın
İsmet
ölmesi
albümlerini
evini
sağlayarak
sağlanmaktadır
yönetmiştir
Eritre
durur
elemeleri
sanda
öneme
kurulmasına
oluşması
kabart
düzenler
durumları
Rush
[DATE]'deki
oluşturulur
isimlerle
Leip
bakanlık
oyunculara
oyunculardan
##diklerinde
Kanye
sistemlerinde
filika
Sher
Abu
ünifor
edildiğini
göndererek
makyaj
doktr
Ankar
ölümüyle
Ankara'ya
tanımlanabilir
##haus
Deutsch
yasası
yasadışı
gerçekleştirmek
kavg
koyuldu
yarıştı
demo
Head
yaratan
Berlin'deki
edilirler
##ulduğunda
Roberto
projenin
rekombin
##yalılar
Senatör
Sanatçının
çoğunluk
amf
öldürüldüğü
etkiley
etkiledi
versiyonunda
liderliğindeki
mermer
İzmir'in
Fergus
eşittir
işgaline
Sport
odasında
Kapı
sivri
Bahar
Nikola
arkasındaki
Göring
Ocak'ta
seride
simgesi
Venedik'te
geçişi
çoğunda
muc
valilik
festivali
hastane
Friedrich'in
sahnelendi
Hristiyanlık
terimdir
vazgeçilmez
Delhi
telgraf
orkestr
Stras
Yanında
katılımcı
Vader
peşinde
mekanizma
Molly
Brezilya'nın
gazetecilik
Ordusunun
Ohio
Robinson
İktisat
Nelson
yamaç
Şişman
yurtdışında
Nokia
bağırsak
tünel
çevrimiçi
Karayip
##.Ayrıca
Charlotte
İlişkiler
Bakırköy
Otomobil
seçeneği
ressamı
prestijli
çeyre
müddet
Giuseppe
Madalyası
[YEAR].
5'
Arı
Band
Cris
DF
Ejderha
Fra
Fig
FBI
GB
Joker
K.
MT
Melik
Müller
Pab
RT
SO
Strat
Woz
Zamb
bül
coun
doy
füny
grav
nova
ocak
rey
çağı
çadır
üne
##alarda
##rd
##tit
##kes
##zaman
##com
##x'in
##áz
##âb
##an'a
##irt
##ako
##elop
##ünt
alak
alınıp
tarama
##abam
##tig
yapacağı
oylama
bulunup
##ehan
##mışlardı
##elius
yaşlarda
yaşant
yılını
çalma
Ayr
Ayas
takımlarının
albümüyle
evleri
evlenme
sezona
kazanmıştı
kendilerinin
yayıncı
Cham
istemek
Theod
açıklamak
savaşmak
erzak
##egen
##olojinin
merkezindeki
##udak
yetim
dillerinden
Lige
##elenmiş
yarışmanın
görünmektedir
yaşamının
artmıştır
beraat
Proje
Kuzeybatı
geliştirmiştir
ortalarına
gelişmesine
muhteşem
Preston
girişi
tanımladı
çevrilmiş
imzalandı
Yeniden
belirtilmektedir
Mahayana
Bulma
kasted
Serge
Ali'nin
suçu
temsilcileri
romanının
tasarlandı
görüşlerini
kolları
Spir
bekleme
##ong'un
örnektir
bağlanması
ediliyor
nüfuslu
Sarger
çapta
sosyalizm
##homa
kuruluşudur
Sendik
Senfoni
##herine
Galatasaray'da
sefere
Doğum
etkileyici
bater
##sung
versiyonunu
İzmirspor
Kuvvetler
taslak
Dönüş
Polonya'da
durumdaydı
odada
Hakim
Kimyasal
kodon
etrafı
sahneleri
Papalık
dilidir
tabloları
Baden
Güneş'in
İstasyonu
Diyabet
Naziler
çoğal
çoğul
Tunç
Kenya
Libya
##amayacak
evlenmek
Louv
benimsen
komutanlığına
dışarıda
ideolojik
odaklı
tepkim
nötron
Münih'te
Tiberi
salonunda
yüksele
Division
işlevsel
Jandarma
sayımlarına
şüpheli
yöneldi
Reform
sponsorluk
koordinat
kurtulan
Özbekistan
Hubble
Hurley
Gönül
Nüfus
River
evreleri
başlayacak
başlangıcında
sendromu
Yunus
Çekoslovakya
Eczacıbaşı
Faysal
Juventus
mizah
Challen
Sparta
##opotam
Marshall
ateşkes
Mülkiye
doğrultu
Ertuğrul
itaat
dâhil
pekiştir
dikdörtgen
Leipzig
AI
Bh
Beg
Bour
Cir
Dob
Dern
Eve
FA
Gey
Hos
Kiss
Lazi
Maz
Muk
Madde
Neş
Niğ
Oran
Pale
UK
Ural
Work
key
liter
piskopos
sik
tom
up
Şaf
##ror
##non
##niy
##ofor
##otip
##cere
##hiş
##xt
##biyle
##gro
##1'de
##inda
##ilaf
##lerek
##lidan
##imde
içlerinde
##ki'nin
başlanmış
başkal
##ced
##ci'nin
antib
##osist
edilecektir
Allan
kuramı
geçmeye
yönelim
##lett
##ukla
yayılma
katled
katedral
işlerde
##ütle
Arke
gösteriyordu
girmeye
prof
akş
uyuş
oynama
##talama
sağdan
sağlamaya
çekilme
##rame
kısmi
##çekimi
##olize
Chin
türevi
##uba
etkilerini
ortama
belirlenmiş
kabar
basılmıştır
farkla
##ardinal
savaşlar
yapılandır
örne
örümcek
Roc
salgı
dışişleri
İstanbul'daki
gruplarından
olmaksızın
##pery
imtiy
güçlerin
Buradan
hatlarını
##linois
kararnam
şehirlerinde
yenen
saldırır
tahmini
eğitime
şampiyonasında
sınırlarını
kuvvetlerin
##enkul
çıktığında
anlatılan
köyleri
köyüne
Cumhuriyeti'ne
belirtmek
##'sinin
silahı
bilimler
sonuçta
Birliği'nde
kilo
şirketini
adaylığı
ilçenin
kaleyi
##siklop
Haiti
havayolu
semb
geleceği
Avustralya'nın
İtalya'daki
Emevî
Make
faaliyete
Araç
soktu
Pandev
kullanılmakta
birleşmesiyle
Cemil
Patrik
tavsiy
Şampiyonası'na
noktaları
ordusuyla
radyolarda
oturum
Color
hikâyenin
Ebou
diyalog
boyutu
Simpson
sunuc
Week
##deksi
Fenerbahçe'nin
koşullarda
Belçikalı
azalır
kıyısındaki
Foster
IPv6
##mızın
##gorod
Yazarın
romanıdır
Meclisi'nde
çerçeve
yansıtan
dışarıya
tanksavar
öyküsünü
hükümdarlığı
Domini
Rodrig
kampanyası
Bekir
Raymond
piyanist
sağlayab
görüntüsü
Mahallede
yorgun
Çarp
savunucu
Crown
yelken
prömiyer
Sınıfı
konsolos
##babası
Aguilera'nın
ustası
Şişli
kaşif
yarıçapı
##laştıkları
enstitü
Awards
Lorenzo
kolesterol
listelenmiştir
astronom
köprübaş
branş
kemirgen
peynir
Coldplay
facto
##'tır.
Corporation
##yönetim
[AMOUNT]'dir.
Ace
Ameli
Bac
Bapt
Civ
Dijital
EA
Edu
Fall
Giy
Gos
Gibi
Gren
Jüp
Khan
Kıp
Luv
MA
Mam
Mig
Mali
Nö
Nibb
Pis
Pok
Pant
SU
Sep
Syl
Tube
dul
fib
fren
işten
jet
m'
maf
mot
nem
pot
pamuk
sut
staj
sohbet
Çap
##matik
##vans
##kem
##dil
##dis
##zg
##siyle
##seler
##söz
##ulabilir
##cover
##hay
##worth
##ğünden
##ège
##âme
##DI
##EN
##irkin
##lard
##dele
##onis
##onder
##asy
##ask
##asil
##lahoma
##lanın
##atar
##urma
##ştayn
deli
##izisyon
##abiliyor
##tih
bulab
kartı
##opp
vermedi
oyu
##ebildiği
##üşvet
yönü
kalenin
doğar
##lüdür
devasa
sırasındaki
Arista
aset
zamandır
girme
albümündeki
evinin
sezonlarında
##odur
çekme
kapağı
yayınevi
Chiba
değişimler
durumdaki
salın
dizel
kandır
oluşturma
##landırma
tuttur
Akın
bittikten
##edia
çalışmaların
eğitmen
sanatları
Kraliçesi
105
kararlar
giyme
giymeye
düşünmektedir
Galak
programlarında
hareketine
kuzeyden
kadınlara
Atom
parçayı
sarhoş
seçimlerine
Altınordu
Çin'e
yasama
Museum
gerçekleştirilir
##tayken
kullanılacak
etmekle
yanıtı
koymak
oranını
romanında
şirketinde
çaresiz
eleştirel
Koordin
Oklahoma
okullar
krallığı
kalesini
adlandırıldı
yaratmak
dikkatleri
##tıkça
Paris'teki
bozg
kümesidir
edebilmek
havaalanı
kulüplerinden
İsrailli
Poly
Lucia
Yıllık
kampı
Sanatları
ilerlemeye
kaldırmak
Bayer
koşulu
##baharında
turnuvanın
Müsteşar
antil
Artvin
Alev
tavan
görüntülerini
halindedir
fotoğrafları
dekon
Nikifor
demiryol
Görüntü
##ield
Parker
yurttaş
harfleri
Volkan
bandı
isterler
Mender
psikiyat
arazide
muam
sağlamaktır
Liberal
Sözleşmesi
Sayid
artırmak
ihtiyaçlarını
5000
Madrid'de
çöküş
temizlik
rakibini
Lieb
statü
Tanrı'nın
Şeytan
Diyarbakırspor
Tepe
Harekâtı'nın
yetenekleri
dalgası
protokolü
rehin
Hababam
Şirketin
kısaltması
müsabak
topluma
danışmanlık
Üste
yaratıklar
kızılder
Missour
Yönetmenliğini
fiilen
Album
Sokağı
evliliğinden
Yalnızca
Nihayet
gerektiğine
konumundadır
Versay
Hızlı
Hobbit
saltanat
Stokholm
Starkiller
Sosy
ribaund
Tehlik
kaplumbağa
Moldova
ayrıcalık
Dresden
acentesi
polinom
Aus
BR
CF
Cru
Dort
ES
Gan
Glen
IG
Kamil
Kayıp
Linde
Meri
Nord
Nadir
Pl
Put
Peg
Rip
Söy
Shan
Wi
dib
doz
gan
imp
ipek
kemi
saz
stan
seti
Çor
Üsk
İp
şövaly
##varı
##uarı
##cken
##cing
##üh
##gé
##66
##én
##ML
##30
##DA
##EP
##onne
##esc
##es'e
##iyası
##ünc
##itlerin
##itsch
##able
başındaki
##ceğine
##avv
##ımlar
##oskop
##manuel
tarafa
veriyordu
##uştan
sürecek
##unuz
gelmesini
##eciler
yazmak
onlarca
kalmaktadır
tekel
katılması
##eleg
Arya
Arma
vary
[YEAR]'ya
ilhak
paraşüt
evlerinde
sağlanmıştır
tanrısı
bağlanmış
##leyebilir
Church
oluşmasına
kabaca
açıklanan
dolara
müst
ağzı
gözler
çıkartı
##çıları
dille
dillerinde
##ina'ya
müziksel
izleme
Kurum
küçüktür
ödülün
Almanya'dan
##rosunun
hükm
kesme
üyeler
tahıl
yükselmiş
kaçıp
planlarını
ulaşarak
Baker
seçimlere
Ekrem
gerçekleştiren
belirtilir
kalanlar
savunmasını
Seul
Oktay
manken
şekline
kaleye
güvence
160
Saur
saldırıda
maddeleri
kuruluşunda
kuruluşundan
André
sitesinden
##harma
hükümete
konserlerde
turnuvasında
bölgelerin
##ropol
teşebb
otomob
Ross
Quebec
metredir
Yüzüncü
Sultanı
Portekizce
Portekiz'in
korkut
##lanmadı
Bakanlığı'na
##staff
Kendini
sektörü
devrin
simg
kumar
kıyıları
##ways
Konstantinos
boru
kentidir
Bölümü'nü
araştırmaya
diplo
##moni
eylemleri
sergilendi
ruhsal
##meyerek
##laziz
başbakanlık
mektupta
problemleri
Oscar'a
Larry
mensupları
hanedanı
telsiz
Yasası
onuruna
##rico
Adası'nda
akıllı
vücudun
Mezopotam
habersiz
O'Ne
yeteneğini
kaybedilen
imkânsız
makinesi
Justin
Atlanta
hayvancılıktır
anlaşmazlık
ağzından
Şeref
stres
yükseliş
şehristanı'nın
Bürosu
ibarettir
Barbarossa
Performansı
komedyen
Cartoon
Yehuda
Comics
Nükleer
öncülüğünde
aristokrat
Aşkenaz
Arizona
Alacakaranlık
körfez
Danıştay
Cleveland
reyting
Aki
Acı
Blon
Eint
F1
Forum
Hod
Homer
Ima
Lub
MC
MI
Mast
Nig
Pri
Poz
Raki
Rup
Rektör
Rize
Sne
Sekiz
STA
Sansk
Tuk
Ust
Zap
iştir
klas
kula
mobil
reg
rüya
sic
Çorum
İşte
Şev
şaş
##rev
##memişti
##tasyon
##tbür
##pion
##kemli
##jet
##cısının
##1.
##ña
##aron
##indan
##iliş
vesil
##aster
##atro
##isha
##isyeni
##emon
##dio
dedik
##eves
##ining
aromatik
etmeyen
##ilmelidir
vermez
##icus
##iciliği
gelmeden
##laşır
çoktan
takdim
yönelt
yarısını
##iliğinin
katta
##rio
kaydol
İshak
maçlarına
ölçe
oyunlarda
oyundur
oyunlarının
aks
aksi
Ortalama
düşmesine
kaplıdır
özelliğine
atlı
elini
elmas
ekleme
yolunun
##agh
düzenlemek
sözlük
##vana
suları
dizg
dizilerinde
tamamlamış
##ograph
kitlesi
Akça
metni
çıkarmış
bakıma
Bros
##elenen
başarıları
modi
karargah
hazırlan
hazırlamıştır
liginde
üyesiydi
hafız
Inc
Hero
bilgiyi
bilgilendir
edeceği
kadınla
gelişmekte
Atilla
uçur
konulara
mevcu
transist
kırmız
seçiminde
çevrildi
ayrımı
operet
operatör
sınıftan
komutanlığı
##'sında
sonuçlarına
oranları
adaylık
koltu
Derg
gökadaların
##lüğün
örneklerinden
denizci
edilemez
İranlı
Ligi'nin
bestec
hiçbiri
Luck
Eva
kanalın
haberleri
Portland
kaldırılması
kayıtlar
olaya
etkilemiştir
Bazıları
Mode
kutlama
Surin
Aralarında
seslendirmiştir
##kolik
maçıdır
Hazır
ateşli
bilgisayarlar
Kule
Tristan
##laşıp
arkadan
kaynağıdır
üstünlüğü
yapılmasına
##aliman
Kübalı
katılımıyla
montaj
Seçmeleri
hastanın
Fring
senaryoyu
kilisesi
Ebu'l
Knight
ayrılırlar
kurtulmak
hidroliz
ideoloj
René
döküm
işçileri
Brueg
Karaca'nın
çağırır
Hawkins
biriktir
Hunt
astronomi
##ptom
Year
övg
Sıcak
kimsenin
Sokak
periyodik
iktisadi
Bangla
Dukas
Salonu'nda
casusluk
Slovenya
##enhag
Kırıkkale
güver
Kopenhag
trajik
Tiflis
istisna
##ehennem
Slippery
teşekkür
Sabancı
Abdurrah
banliyö
Nahiyisi
Louvre
literatür
akşamı
Eintracht
Sanskrit
Eki
Fol
Fland
Flash
Gü
Gib
Gray
Hanı
Iş
Kod
Lon
Lap
M4
Mine
Nu
RP
Rada
Rac
Rand
SG
Sis
Sinc
Wet
Well
Yes
alacağı
gang
my
mul
nu
os
ro
rüşvet
süz
sını
talan
trav
taze
yır
yans
Çet
çiç
ümit
##alarak
##ralı
##yd
##yasını
##ms
##vy
##val
##kam
##key
##oe
##jener
##'leri
##çal
##çel
##.L
##ffa
##èn
##SK
##enheim
##dale
##daşı
##alin
##on'da
birimler
##lantı
##ştur
##ememiş
##apolis
##olin
##taç
##abinde
yapmasını
başlıyor
anım
etmesinden
##oplaz
##ruf
Buenos
kurtarı
geçtiler
takı
yarısından
yayılmıştır
##hep
karşılandı
işin
sırası
filminden
aslan
##leşmiştir
çalışmayı
alandaki
Amon
Aviv
halkları
##act
evler
bölgesidir
sağlama
sağlandı
yönetme
şekeri
yankı
önemsiz
istey
##ard'ın
düzenlemesi
koca
müf
Başsav
##ılış
oluşturacak
yükseklikte
alınmasını
koruyan
Oset
Assur
ayrıldığı
çıkarmaya
izlemek
izleyici
Kralın
Orduspor
Milyon
filosu
##lesini
tahsil
kıdemli
Fransa'daki
tablonun
##inceye
Herak
Prodük
devletlerin
yükselmeyi
kadınları
Atak
##iyoruz
çıktığını
anlamak
yazarlığını
kron
ilişkisini
konuşlandır
gazetelerinde
Yahudisi
tanıştır
patlaması
yasaları
belirtmektedir
topraklara
İzzet
##lamakta
Tekrar
Katar
suçsuz
orantılı
kültürüne
Kırşehir
gökadası
dünyası
demokras
Beach
gezi
özelliklerin
İran'a
kontrolünü
öğrencinin
göçebe
yazıt
sportif
motorlar
seferinde
##rome
Germain
amc
hesaba
turnuvasının
iddiaları
yörede
yazılımı
##pektif
##ometr
İspanya'ya
##rado
Nehri'ne
direktörlüğünü
kurtarır
Kötü
Kulesi
önerisi
Toros
polisiye
ortamlarda
Weiz
Weid
mimarisi
##ski'nin
sağlarlar
Kendisine
Daire
tahminen
kasabada
üssü
Irak'ın
kıyısı
hukukçu
gelecekteki
edebiyatının
analog
Nazilerin
harfler
Merkezi'nde
Müslümanların
hastaların
refakat
herkesi
egemenlik
fikirleri
Solhan
hoşlan
##ilebilmektedir
rejimi
ibn
Huo
antrenörü
tesisleri
bürün
Bektaş
Mitch
karşılaştılar
endüstrisi
Soykırımı
otorite
azaltmak
BMW
personeli
Hannibal
Swift'in
Elfler
SEAT
sürerken
Tavş
Tosca
mutfağı
kararlaştırıldı
yalvar
Bagration
çamur
sertifik
akarsu
akrabası
niteliğindedir
Tapınağı
metaboliz
Yargıtay
öfk
Giresunspor
faşist
Vincent
Gomez
##silvanya
popülar
somut
Vefa
Ujfal
atlayış
Nickelode
Warriors
HMÖ
Dortmund
Bangladeş
Aster
Bec
Bot
Cort
Glor
Im
Ian
Jama
Jud
Jr.
Kib
Kilik
Lus
Lih
Lip
Lomb
Mod
NK
Nova
Pé
Prak
Pınar
Rif
Sik
Sale
Soli
Yale
bis
işte
mini
pa
sanı
solu
tiyatrosu
Çol
çalar
##ax
##ain
##rif
##mu
##iğini
##çam
##.N
##büs
##gg
##wang
##15
##60
##RA
##HO
##DF
##IV
##larsa
##un'un
##ler'e
##lag
##latan
##esyon
##estan
##emiz
##azion
##tico
##üzün
arma
##adin
anlayan
##mander
##ayağı
önündeki
Alfa
##ölye
##eber
Birbir
geçmesini
yazarak
yazısında
##lette
##masındaki
##amanın
açlık
çalışsa
##seldorf
##dür.
##yeper
varisi
akla
halktan
düşkün
kazanmaya
dönemindeki
serileri
ekosist
kurulur
basılmış
Kontrol
##gela
gerekiyordu
aziz
alıntı
üretir
tutumu
oyuncudur
##leketi
##lake
Kurland
##lerdendir
modu
lisansı
yarışmadan
Öztürk
Inde
Berez
karakol
Herhangi
bilginin
Thor
There
güneyden
##gins
destekledi
konulan
parçaya
Carly
ilişkilidir
toplumu
Prince
karakterize
pateni
hizmetine
savunmuştur
birbirlerinin
üçüncüsü
Sercan
suçlar
görüşünü
Spider
yaratmıştır
Adv
kümeleri
çözmek
çapındaki
Tümgeneral
havalandır
kanalları
geleceğini
membran
kayıtlarına
teoremi
çatısı
Olivia
Müslim
yöresel
çıkışını
nitele
kurumun
otomo
eşitliği
##layabilir
hastalıkların
##kary
Dağlar
Garip
Şube
ihlal
Bakanlığı'nın
kanıtı
kapatılmıştır
gezegenlerin
yakalamak
Ukrayna'nın
Yayıncılık
bireylerin
durdurmak
ilgilenmeye
konsey
kategorisi
etkilenen
Aleksey
binaları
egemenliğine
kanatlı
galibiyeti
Boluspor
formula7
hiti
duvarları
Kulübü'nün
yanlışlıkla
Penguen
teriminin
evlilikten
rakibine
Delph
gayri
hanedir
ışığın
böcekler
Claire
Bitlis
müziğine
Limanı
saniyede
Siyaset
sığınak
bozukluğu
Aston
##instein
Cumhuriyeti'ndeki
düello
##omotiv
uzunluğundadır
bütçe
sedan
dengesiz
kılın
mahallenin
Napolyon'un
Kardeşi
Augustus
periyot
dolaylı
AGM
##ştikten
vites
gerçeği
gereksinim
belediyesi
tercüme
yüzölçümü
Productions
erotik
zaferi
hormon
fahiş
Abdülhamid
NASA
Nepal
Texas
tuğla
zorunl
Oldukça
Nazırlığı
##ázqu
Üsküp
Weidling
Aida
Düs
Dio
Fly
GN
Hom
IF
Jak
Kalan
Kardinal
Olayı
Pamuk
Stern
TM
Woman
Wars
Werner
Ziy
dalıdır
fiş
gole
lens
mide
ret
so
sent
yu
Çeş
İjev
##ıh
##yaman
##ius'un
##not
##oj
##düm
##do'nun
##'ını
##beş
##war
##BO
##SE
##HT
##VKA
##ów
##erim
##iness
##liyordu
##aye
##urm
##amayı
##dığında
##ulo
##ul'un
##itel
##ıldır
##'nca
dez
##dırlar
##izof
##oko
##leri'nin
arayan
##ATA
görmez
##ilmemiş
##rud
iskele
yerlerinden
yerlerine
##rolet
##rano
Alm
Alper
çıkmayı
kadarı
geldikleri
bildiği
##igen
##teryen
##heit
##lamayla
girmeden
ikisini
Avras
uyku
bellek
##tenham
kazanırken
Erdem
yanından
atma
##dülüs
adasının
Engel
Endülüs
Ontar
haklı
haklarının
açıklamaya
erit
üstlenmiş
okuy
salma
eşleşen
merkezlerinden
insana
üretmek
üretilir
dillerini
dillerde
Bron
Lig'in
yıldızlardan
Miles
sistemlerin
filo
hazırlandı
Halif
bırakılan
Komite
öldürme
babanın
teğmen
hareketle
anlamını
planını
Barok
sarayı
sarımsı
##book
kaynakların
Prem
çevresel
gazetelerde
Aday
değiştirir
değiştirmiş
tanıyan
##lanırlar
Demet
##arius
Bulvarı
##'sını
keşfi
mesele
Tekli
koyarak
değişikliğe
##ther
kültürünü
Montre
Petro
şeyh
özelliklerine
kontrolüne
mikros
Krist
##lenirken
İmparatorluğu'nda
bölgelerden
motorun
inceleyen
Boc
memleket
Kızılordu
hükümetine
çevirmen
çevirisiyle
hedefe
İçinde
antisem
partidir
versiyonları
bölgelerinden
Fakültesi'ni
FIBA
Giriş
hikâyeler
Telev
beslen
ressamlar
kavramını
soğan
kodlu
ihale
stad
rahatlıkla
Borde
##gresif
Daily
Yaşlı
simge
aktarıldı
İstatistik
yöneticilik
yarışmacı
ilgilendi
rütbesiyle
tanıttı
mecbur
trick
problemi
fikirlerini
45'
nakled
Dinyeper
Oyuncular
Kasaba
balıkçılık
emrinde
aktivist
kazandırmıştır
Kings
Meydan
Varlık
rakipleri
ekranda
ışığında
Buda'nın
medyada
aralıksız
düzenlemeler
##osaurus
##saray
tüfeği
konusunu
tamamıyla
Hawai
tabii
Zeno
Paraguay
kataloğ
Tottenham
moral
milletvekilleri
küçül
Sofya
mürettebatı
ritim
Meşrutiyet
##bunker
##.C.
Abdülaziz
Gabriel
gurur
Isaac
ömrü
vezir
Saturn
Elazığspor
Komplek
pref
AVN
yıldönümü
European
Zagreb
okyanus
riski
Ninten
Xiàn
##boğa
feminist
##eçhiz
Euler
Yaratık
Chevrolet
Kademe
Mektup
Džeko
entelektüel
zhèn
doğrultuda
standar
STAVKA
otomotiv
Düsseldorf
Agr
Abrah
Bark
CP
Curt
EF
Fey
Furta
Glas
Gug
Lüle
Muş
Mith
Rak
Rag
Slam
Stur
Want
Yeş
Zulu
dor
lob
mıs
maya
pi
punk
rut
sez
Çerk
Çoban
Édou
çır
şat
##şit
##lunun
##yah
##top
##olay
##jim
##sem
##südür
##'di.
##5'te
##feti
##wal
##OH
##arov
##ender
##asta
##ırdı
##li'nin
##ative
##isch
##amasına
##uld
##itin
alb
alüminyum
##ümen
##abildiği
##oku
##avada
arya
##ımları
görkemli
içindir
##osis
##ihaz
##üyorum
Altan
Alone
Anto
iner
tarihteki
##uştuk
sürt
sürün
geçimini
üzereyken
yazması
kalite
günler
toplanmıştır
toprağı
işley
Artur
##rici
##iyetinde
gösterileri
varlıklı
varolan
ikli
evlidir
Orgeneral
yüzeyi
durak
atışı
##lamadığı
##ober
ellerine
yayınlanması
##olit
Chry
eklenen
yollarla
düzenlemektedir
sulama
dışından
üretken
tutun
tutmaktadır
gruplarının
çıkarılmış
geçirdikten
Brig
çeşitlilik
Ordu'su
ödüllerini
##sizliği
Bilkent
yarışmaktadır
yenik
görünümü
duyulur
duygus
tabir
askerlerini
Manon
söylemeye
milyonun
desteklemektedir
Magu
siyasî
dallarda
mezhep
olaylardan
dörtlü
halkına
Ekvador
değiştiren
yerleşk
kaldıkları
##andal
iflas
Kath
Küresel
Basti
##erty
istedikleri
çalıştılar
yaratır
özelliklerinden
güvenliğini
##phone
biçimleri
kümenin
Örümcek
modellik
vurarak
Afrika'daki
Hasta
dönüşü
dağıtımı
Sui
havalimanı
örgütünün
uygundur
başkanıdır
motorları
kayıtlara
aşağıya
pulların
edilmesiyle
bildirmiştir
bildirildi
kireç
hesab
yöntemiyle
liderlik
Grupları
kemeri
heyeti
Yaptığı
başrolünü
kuşatmayı
Müte
odasına
boyutları
rastlanan
hâle
ısın
Trip
Franklin
Portekiz'de
istemeyen
Bakanlığı'nda
##orial
Minnie
Kahn
Ülkede
İsviçreli
Yaşar
Tamer
kişilerden
Warren
tasarımcısı
kumandan
basıncı
şartlarda
yardıma
Geçidi
asistanı
Peuge
People
sarayında
başvurdu
hamur
Edward'ın
Politbür
cesur
felsefi
garant
garanti
##meyip
Kosova'nın
sürecine
süperküme
League'de
Bugünkü
Kitapta
gömül
takvim
Finlandiya'nın
rakamına
hikâyeleri
uğraştı
Medres
Troy
yargılandı
Nilüf
##.Daha
karışıklık
Aires
bombardımanı
Türkmenistan
kompleksi
epik
fabrikası
Hills
denetimi
Klein
kozm
##III
aranj
Adıyaman
sevgili
Milletvekilliği
Kenneth
Velázqu
##ayolları
Lynch
çeşididir
##furion
Çölü
Electron
ekseni
Douglas
fizyolojik
lakaplı
Süperkümesi
Senaryo
manevra
Global
mühimmat
Arena'da
Krajowa
Thälmann
lojistik
otoyol
Explorer
Gestapo
Hedef
sandaly
Challenge
İjevsk
Édouard
Peugeot
,'
2.5
Alı
Adem
Bes
Bina
Bana
Bever
Baraj
CM
D'
Dist
Eleme
Feh
Gav
Gana
Gert
Idol
Kül
Kre
Kram
Mû
Mön
Non
NSD
Oz
PB
Rug
Sın
Suz
Silen
Skat
Snooker
Ters
Tier
Wu
Zeytin
alamadı
homo
lastik
ova
tezi
zan
Çan
##ring
##yun
##yra
##mama
##monik
##til
##vinci
##kor
##kara
##oir
##diyse
##'lerde
##'tur
##'zh
##hof
##beth
##gül
##wyn
##AL
##ON
##arna
##anlam
##erli
##intern
##akir
##ektif
##esta
birliğinin
##etori
##şteki
##lıman
##ulmaya
##iko
##dişah
##yabilir
##olos
##maların
##teli
dele
alk
##oka
##um'da
##umann
##afet
##ados
##ımda
##osev
##osman
aynen
vermişlerdir
##örün
kurup
çıkınca
sürerek
Biri
gelmez
geldikten
bilir
##ector
bölük
##masın
işlerinde
işlenen
çalışacak
##ridat
uzayı
ilâ
illeriyle
İsol
birlikleriyle
Ayn
oyunların
oyunlarında
evlendir
yüzünü
yüzbaşı
##imidir
kaplayan
düzlük
kendiliğinden
atılmış
yayınlandığı
kurulmasıyla
##tiklerini
forum
İkisi
Konak
bölümlerde
kanunu
oluşturulması
ağları
azalan
İstanbulspor
isimlerden
insanlık
gözlenmiştir
gruplarına
sayılabilecek
Story
oyuncuya
hazine
##ganın
##lof
Kanatlı
İlkokulu
hazırlayan
Savaşı'nı
hükûmeti
Halid
sesler
düşündüğü
bırakmış
saldıran
arttıkça
Komiser
uns
eğitiminin
binasının
edildiğinde
desteklen
planlar
dokuma
topluluğun
sung
kuşağı
tanımlama
tanımlanmış
finallere
değiştirmeye
değiştirilmiş
tanıdığı
belirtileri
davanın
##onomma
kullanılab
Ben'in
sonuçlarını
kimliğini
olduklarından
Server
##rong
Sej
kitapçı
oranına
romanları
kitabından
Schal
Kalp
Malay
kalesi
kalecisi
sonucunu
şeyden
yaratılan
Paris'in
kaybettiği
uyarlandı
uyarlayıp
havadan
havaalan
Luisa
eyaletlerinde
NBA'de
Ball
dönüşmüştür
dağıtılan
kulübünün
kulübüyle
Guern
Andronik
Bölgedeki
Book
annesini
memleketi
edilmesinden
bataklık
yöresinde
fırtın
##edikleri
Ferit
Efsan
fotoğraflar
ziyarete
Verdi
kafat
Myers
Yerleş
Weis
kupaya
##stag
Sevilla
kaydettiği
güzellik
indirildi
köprünün
tehlikeye
yüzeyinde
Tamam
durduruldu
Park'ta
Suriye'de
seviyesinden
Celal
etkilenmiştir
tersi
bünyesindeki
pencere
Linda
komünistler
yemekleri
gölün
Danimarka'da
libret
ceset
Prix'de
Muhammed'in
Federasyonu'nun
yığ
sürecinin
girerken
Liège
tartışmalara
mahkemeye
departman
bulurlar
##komut
Stalingrad
tedavisinde
obj
Media
İskenderun
Ernest
kalkış
Divan
yeteneklerini
Planet
aletleri
Ölümünden
kayboldu
panel
zinciri
Bilimsel
düşüncesi
Saraybos
karıştırılmamalıdır
Sebat
Meglen
reddedildi
sadrazam
Queens
hain
Ricc
Güçlü
volkan
Pilot
anakütle
Dublin
bilinçli
Schwar
usulü
ömr
tarayıcı
Cihan
Kemerhisar
boynuz
Hughes
Krasn
Bruno
##ropolitan
asteroit
Hiçbir
Stratejik
Leyla
Octa
Reinhard
Şükrü
transkripsiyon
mızrak
Felemenkçe
Wozni
Nibbles
Bordeaux
Nintendo
NSDAP
[AMOUNT]'in
Cic
Cush
Dad
Did
Dick
Dutsch
Eşi
Günde
Hi
Hoy
Lec
M3
Made
Nation
Send
Tai
Umut
Vf
Vücut
ace
b.
bilerek
dansı
eren
kru
kelebek
past
reç
razı
##yit
##tus
##pik
##kö
##kuş
##olet
##o'dan
##dok
##sec
##ciye
##hid
##70
##ws
##wick
##wehr
##DK
##IG
##IGC
##OT
##aran
##aldo
##onn
##asp
##asu
##lau
##atum
##at'ın
##oria
##amız
##eliler
##ünye
##diğinde
##itasyon
##azine
##yacak
##ası'na
aldır
tarikat
##abilme
##tier
##esia
##okost
yapabilir
görüp
olanıdır
##uter
etmeden
##oğul
##mando
Buhara
yerlerini
bulunmadığı
##eria
Anab
Birliğinin
geçmesine
##laşa
yazdır
##oyv
kalitesi
günah
##idilkol
açarak
karşımıza
doğusundaki
ikişer
[YEAR]'lü
[YEAR]'lardan
İsyanı
Ayrı
oyundan
oyununu
oynanılan
albümlerinin
paraz
sağlanan
yönetime
çekin
Erich
seçilmesi
##yan'ın
militan
ekstra
adaları
##ubern
istendi
köşk
belirleyici
resmed
Kardaş
sözlerle
Devam
Günlük
diziye
##tür.
insanlarla
gözlenen
öğrenince
##ılmışlardır
dillerinin
Neil
izotop
bakar
Storm
orduda
gitmesi
hayatlarını
görülmüş
kentlerinde
kentlerinden
düşünerek
bırakılır
liginin
artmaktadır
Fransızların
askerin
askerlere
Elmander
Herman
şampiyonaya
babasına
babasından
##iyorsa
kaçış
makina
şarkısında
şarkısına
kriter
Holokost
konuşulur
kaynaklarına
ölümsüz
##caneg
girişinde
Uluslar
halkını
gazetede
değiştirmek
##orno
karşısındaki
barut
baryon
##luğundaki
kaldığını
yaşındaydı
sonuçlanmıştır
hakkındadır
Serisi
suçları
listelere
yönetimin
##arslan
çalıştığını
kalem
parçalarının
gezgin
futbolcular
Lux
Azeroth
kampında
projeleri
mevcuttu
Beşiktaş'a
Guang
Canada
sebeplerden
Bayb
oynanmış
konserde
Oliver
yaygınlaş
antlaşması
Resmî
yürüten
kelimeler
katkılar
Aponomma
Oyuncusu
Macarca
yağm
##ömlek
söylerler
Mason
Point
resimde
diyagram
istemesi
Nikolay
Kuvvetleri'ne
Kendisini
kullanımına
Etkin
yerleştirilen
lisansını
yapılmıştı
bireyler
kayıplara
tatmin
muay
yaşanmaktadır
cüceler
vokalleri
Kirk
cinsinde
verilmesini
Illinois
görürler
olmadığına
alfabe
Binbaşı
Fuarı
Leverk
değişkenlik
Yeniş
Gorbaç
objektif
İskenderiye
finansman
dalgalan
Çiftin
##ileşme
Ruanda
Honda
Öldür
Hannah
selam
##parta
tecrübe
Waters
PAIGC
anlatıyor
Sheph
botanik
Ashley
mesleki
Kleop
Scipio
elbise
antrenörlük
fethet
Fikir
Toplumsal
ikilisi
fetih
kıvr
Secret
grafiği
klavye
sahibinin
hâlinde
menajer
Utah
Auto
Dahası
Kamerun
Endüstr
görenekleri
kıskanç
elverişli
müthiş
##okimya
İsaakios
Beylerbeyi
Arsenal
##chwitz
Chávez
Unix
Buchanan
Keamy
Çingene
trigliser
Ankaraspor
Chamber
Kıpçak
dekonstrüktiv
Abdurrahman
Ontario
Montreal
Abraham
Lüleburgaz
Guernica
Dutschke
2'
Bolog
Card
Cebeli
Deg
Darth
Dîn
Ere
Fan
Fant
GC
HT
Ice
Jür
Jong
Kulu
MGM
Niz
Nadi
Pon
Pur
Pank
Ramaz
TH
TL
Tez
Tiyat
Trol
Tole
Tıb
Tampa
USA
beta
gümrük
nas
teçhiz
vic
vadi
yah
yut
Çiğ
şof
##ıyla
##lusu
##ved
##nü
##kos
##sinden
##calı
##hit
##fah
##bre
##gs
##gili
##19
##érica
##CS
##arif
##eros
##ilde
##leye
##ledikleri
##eke
##lius
##lanmamış
##itur
##ılmaktaydı
##ılmalıdır
##izasyonu
albay
almadan
yapmaları
##ışlı
##likan
arındır
##ilmedi
##mece
ayın
ayları
##cılığın
Anal
##üşşaf
kullanması
bildi
##iver
işlerine
doğup
sırayla
çalışanı
göstermesi
gösterebilir
##lığıyla
İnka
parası
paranın
Orc
Orda
##tali
##tenkele
yönetmek
kazanıldı
atılır
serin
öğüt
türünü
adadan
nedenleri
Genetik
Onların
##etici
savaşmaya
başladığını
##hurst
Row
koruya
##ilmişlerdir
gözde
gözlen
çıkarılması
başlatan
zorlandı
##ilerince
yıldızdan
tertip
sistemiyle
başarmış
##sizm
yarışları
Halkı
ligdeki
gazın
Shin
Komintern
askerlerden
olurdu
Galli
hastalan
milyonu
geliştiren
Atlet
##iyorlar
çıktılar
Barber
mezarı
Kıy
Press
çocuklarına
değiştirilmesi
Japan
sınıfında
davasında
##lendiğini
##cole
suçlama
Macbeth
temelinde
şirketlerin
çiftler
görüşler
Kızlar
bahar
okulları
okullarda
Monty
demokrasi
sahnesinde
##risine
seyr
seyret
üniversitesidir
gemisine
öğrencilerinin
ekonomist
imparatorluğu
projede
Balina
Evrim
idarec
idaresine
ilahi
ilacın
sembolik
##ehribar
engelli
Bölgesinde
batıdan
Emily
seferber
##ner'in
Doğa
uzaklıktaki
İçer
mutasyon
Isparta
niteliği
240
Macaristan'da
olsalar
220
kurumları
##aius
kompl
yapımcıları
Rumence
Murad
Azak
dansçı
Kapısı
264
üretiminin
arkası
Minnes
gezegenler
##onaire
Miranda
##.Ama
Yayınevi
bireyin
Nazım
Nazırı
şahsi
Tahsin
teknolojileri
pozisyonu
bitkinin
nükleot
hattına
yığın
Tümeni'nin
makineli
King'in
hayranı
hidrof
eleştirmenlerden
çabası
Reichstag
##borne
Highway
finanse
Düşük
kaybolur
4217
Break
Mutlu
güçlendirmek
Mikro
cephesinde
Blues
Ner'zh
hırs
hırsız
epey
Singles
Okyanus
Listesi'nde
Listesi'ne
doğaüstü
Range
##operatif
terörist
Mahkemesi'nde
prodüktörlüğünü
tenisçi
çatışmaya
bedel
İlçenin
şaşırtıcı
harcama
bitişik
Sasani
çifte
yemeği
Lucius
Zaire
Fazıl
Herkes
bütçeli
kubb
tropikal
Davutoğlu
sirk
noktaladı
Hoffenheim
Mekanize
Journal
Coğrafya
Flaman
Bonapart
Çankırı
Nikaragua
Century
metrajlı
Zeynep
fosfoli
Elisabeth
Yürütme
LGBT
muamele
kruvaz
Minnesota
2'nin
91
Acade
Caz
Cine
Cadı
Dat
Dong
EB
Equ
Fug
Kli
Keli
Luk
Lac
Nir
Nim
Nast
Pes
Pos
Pele
Reb
Side
Standard
Test
Tennes
UC
Women
Yoğun
Zil
Zack
bi
blu
dif
ejderha
fiz
flor
gib
kib
melez
oste
pers
ran
sers
smaç
yün
ÖS
Üz
çen
İde
Şövaly
##riye
##öt
##klarından
##'ine
##çilerinin
##baba
##ès
##AO
##EO
##arte
##enleri
##als
##alay
##oney
##astr
##lant
##atta
##issa
##esih
yapmaktaydı
##umet
##ışık
arta
görerek
etse
##ilmeyi
Bugüne
yerinin
verilerek
##ıldılar
##ov'a
Birim
gelmeye
adr
adlarını
döngü
yaşıyordu
kalmadı
açısal
##head
##artmanı
doğada
##upt
##ruppen
yakalar
Arşiv
çalışmakta
çalışmasında
##dürü
##iyetinin
İslâm
öldükten
girmişti
girmesiyle
yükü
görevlerde
##odont
##tenştayn
dönemleri
seçil
##lemesinin
ellerinde
serisidir
derneğin
amacına
##lardandır
geleneği
taşlar
taşları
erh
sözlerinin
Roosev
Başp
Başkurt
##törü
merkezini
merkezinden
alınca
üretti
gözünden
Ass
fazlası
dilim
##naeus
güçsüz
çeşitleri
ödülleri
hayatından
kaynaş
101
##sizin
şehirlerinden
hazırlamak
hazırlamış
giyerek
yarışmasını
Halife
yaşamakta
gönül
İmparatorluğunun
Ing
Berber
sınırlarında
gelişmeye
planlama
konuma
siyaseti
##lands
Amerikalılar
kaynaklarının
kazandıktan
çevrilen
çocuklarını
Bullet
katıldılar
savunmak
birbirleri
kavuştur
##limler
yönetmenin
kaset
Katal
Seine
çiftinin
Danış
Spin
kraliç
Heer
dikkati
saldırılara
bulundular
büyücü
edebilecek
Rusya'daki
vurur
ortaklaşa
havanın
karşılaşan
ihtiyat
Eddie
mahkemesi
Meteor
güçlüdür
batılı
Botan
##auf
soyu
##teyken
##idiş
dondur
yürütmüştür
Japonya'ya
deneyler
familyası
doğudan
Finans
mağaza
Term
Demirel
kavramının
polisler
Devleti'ne
kupası
Friend
##ynth
Çağ'da
Fenerbahçe'ye
Louise
Graz
rakamı
della
akımın
üniversitedir
kısımlarında
kürek
trip
oyunundan
cücelerin
yirmiye
komşusu
enzimler
verilmeye
Frig
abisi
Politika
Loire
benimse
Smart
İli'nin
##.S.
##.Son
ekrana
fiyatları
atıp
Dörtlü
Clarke
4000
Balıklar
Nicolas
köylüler
Mansur
eğlenceli
okunur
cumhurbaşkanlığı
yetkililer
Vittor
sayfalık
belgeleri
voleybolcu
içerikli
##azzam
sonsuza
Kampı
mücadelesinde
edebilirler
giriştiği
fethed
Ciara
##uffenberg
lokanta
##oterapi
Karahanlı
Kümesi
tuttuğu
Theodoros
klavy
revizyon
Floransa
Kütahya
affed
Shakespeare'in
erkeğin
Hakkında
hapsed
garnizon
ivme
Ardahan
Chaplin
Francesco
##hassa
kusursuz
Hudson
Sezen
metreye
anadil
İstiklal
dağınık
Alberto
Karolina
Olağanüstü
Erciyesspor
Sergey
librettosu
iğne
Führerbunker
Silezya
Caragi
Shenzh
country
bozguna
Lihtenştayn
Cushing
Leverkusen
Ereğ
##üşşafaka
Roosevelt
3.5
Ae
Ain
Asi
Bede
Bou
Copa
Dz
Dib
Flen
Gard
Gott
Gaius
IBM
Küme
KPD
Lara
Lock
Must
Meden
MİT
Nâ
OR
Past
RA
Silla
Than
Tuhaf
UM
Vur
Vig
cent
duvarı
gag
haham
kın
put
sus
sola
tv
tütün
Çöz
##remi
##şu
##mine
##diya
##sson
##'T
##'lara
##çlar
##cz
##cor
##cul
##canın
##haz
##hası
##fel
##balık
##gow
##90
##ınç
##en'de
##dedir
##leans
##org
##aper
olsay
dedesi
içki
##okond
yapmasına
##um'un
##avurum
karan
anılmıştır
##ilmar
##ilmeden
ismin
##lenmesine
##örler
Anlaşması
çıkmasıyla
kullanabilir
yazıldığı
##leton
##tera
kalmasına
yayla
topç
toplamıştır
##elerdir
katında
filmlerini
Arşid
aslen
asılarak
[YEAR]'ün
alanını
Ayşe
yüze
##özü
tanr
Eriv
şekliyle
##bolu
##ozo
elden
elma
yayınlanır
##ka'nın
türlerinden
Gene
etkisinde
sonuca
haksız
Theater
eğilimi
müh
okuduğu
Develop
##ocular
oluşturarak
tamamına
merkezde
ağac
##oglob
koruy
koridor
insanlarda
turuncu
Yahya
Akhisar
bazılarının
gruptur
gruptaki
Asp
ayrık
çıkarılır
rolde
##layıcılar
bakımı
Ligin
##gang
yıldızlardır
yayımlandığı
Harun
düşünüldü
duymaya
polisi
kesimi
üyelerini
ünü
Hergé
##yorum
After
Beyoğlu
geliştirmeye
İngiltere'den
göndermiştir
kaçarak
makro
Barsel
Dene
saran
otop
##fica
imzası
Yunanlar
çizgisi
Requ
toprakların
Selam
oranının
okulunun
araştırmalarda
Malin
sahnesi
Heidi
dikkatli
gemiyi
kontrolünde
Adil
Adobe
sanatçıları
uyarlanmış
dağılmış
kampüsü
yatkın
Goebb
ilerlemesini
Bonn
Fakülte
Stauffenberg
Box
Bolat
geçerler
annesine
stüdyolarında
hedefleri
kirli
liderliğinde
birleşmiş
familya
Keman
bazlı
Hazine
Türkçedeki
Bulgarca
Teatro
##dakiler
siyasete
metrelik
Mass
hücreler
hücrelerin
fotoğrafı
Whorf
rastlanmaktadır
ormanları
tarzına
malzemesi
götürüldü
Ukraynalı
bombalan
normalde
Eğitimi
uzayda
biyoloji
Trablus
limit
RNA'nın
Swe
Gazetesi'nde
vatandaşlarına
Paler
##ridge
etkilendi
ağaçk
Seyahat
hidrok
gerekirse
yaşanmıştır
açılım
Yarışması'na
gölge
makalesi
eylemler
Urmiye
Today
Akademisi'ne
paylaşım
düşünceleri
çalıştırdığı
Meclisi'ne
ayrılmasından
Madrid'e
Jimnastik
Diren
Dirty
topluluklar
Onegin
kuzeyi
Delta
##bury
mahkemeleri
maymun
Pekkan
Heyeti
mitolojik
ilerledikçe
mimarı
Lisesi'ni
İskender'in
salonda
sıfatıyla
Denizi'ne
Arabistan'ın
iktidarda
Tracks
enflasyon
depresyon
kıyafetleri
Köprü
çayır
##emeyeceğini
bahsedilir
müşteri
fakült
Crysis
Çaykur
gidecek
kozmik
Gökadası
Kuban
Bakü'de
Yöresi'nin
Houston'ın
Kahire'de
Beyoncé'nin
kapitalist
Buckingham
mezunudur
Üzerinde
Klipte
Drama
CSKA
Zerl
Katedrali
defnedildi
favori
yakınsaklık
Connec
Sophie
Middle
Arkadaş
Abdülkerim
Senaryosunu
##fried
Karagümrük
Siyonist
Ferguson
Pablo
Sendikası
Niğde
Weekly
Miguel
antilop
Akçaabat
sınıfa
Avrasya
Boccaneg
Cebelitar
Ramazan
1'e
Ami
Disk
Fron
Gig
Gros
Hüm
Hend
If
Jazz
Kark
Kob
Kron
Loz
Nash
Nasıl
Ocağı
Poker
Prado
Ré
RR
Ret
Sier
Tog
Wall
bet
cenn
gırt
mg
pin
rem
size
yıp
Çim
Özer
öle
İber
Şener
şen
##şehr
##tha
##pel
##pot
##kit
##kine
##oi
##dog
##z.
##sev
##çin
##.U
##bül
##görü
##gliserol
##wic
##14
##éli
##EE
##arit
##erre
##inir
##inus
##akere
##dest
vef
##unlar
##etle
##iste
##ische
##oro
##ik'in
##dans
##emy
##olon
##mack
##rae
##stır
içten
sonunu
##aff
##işan
bulunma
Alme
kurut
Anast
##eds
çıkabilir
çıkıntı
gelme
kalmamıştır
yıllarını
toplanması
esrar
katsay
işsiz
##aracak
devret
Arrig
çalışmasına
İslami
birliklere
oyuncak
paran
Orland
yüzme
düşerek
yönetmiş
kazanmasını
Erhan
yanıl
##boldt
kapatı
adı.
seçici
harp
adadaki
kurulmasını
##eceğine
##ardak
düzenlemiştir
koçu
sözde
Savaşından
##landığında
tamamladığı
İstanbul'dan
sens
Param
isimlerin
tutulması
tutarlı
Asya'nın
öğrenme
futbolculuk
bağlıydı
dilek
Neo
Store
geçirme
Bry
eserlerine
Ordu'ya
golüyle
terimleri
##ücel
başarısının
Cumhuriyetin
Cumhuriyetinin
liseyi
##ilmektedirler
itibar
Özdemir
yüzyıldaki
değerinin
artmış
Abdi
İmparatorluğun
Osmanlıların
öldürdüğü
taşımıştır
milyonluk
şampiyonluğuna
kaybede
sınırlarına
gelişir
km'dir.
##ondol
Yunanistan'da
anlaşılmıştır
daveti
modelin
Muhaf
benzerlikler
birbiri
##and'ın
Alien
suçlandı
temelde
temelleri
tasarladığı
tasarruf
şirketine
Koleksiyon
Spen
##bay'ın
formu
demeç
edileb
parçalarını
gemilerin
iddiasıyla
Adli
Generali
kulüplerinde
vurularak
gizem
toplumda
çalışanları
Perde
annenin
pullarının
Gazan
konservat
yöntemlerle
sorunların
Isra
liderliği
Korsika
kapsamda
firmanın
direnci
FIDE
imzalayarak
uygulamada
Command
terket
odaya
Dağları'nın
kurtarmaya
Timb
gördüğünü
korkusu
ettiren
Bahçesi
ihmal
ihbar
Olcay
başlatmıştır
Görün
stabil
Boyu
Darb
Darüşşafaka
##amazlar
birleştiren
kuman
Acil
markası
bulduğunu
Jeanne
tanıtılmıştır
makaleleri
cevabı
Yıldızı
kademeye
Obama
ihtiyaçları
Yunanistan'a
Christmas
##meyecektir
hattında
kazandıran
Aydınlık
yaptırdı
Dalga
aydınlık
##litzer
platformu
Freddie
Rodos
Falstaff
modül
Dunlop
Janet
Edirn
shih
Erzurumspor
örtüş
örtüsü
uğramıştır
memurları
vücudu
hissi
kemerini
Hawks
çaylak
deyim
Nahçıvan
bıç
Country
ferman
savunucusu
kavuşmuştur
halidir
Şehzade
Ronald
Nişan
restoran
restorasyon
Namib
##emeyecek
tedarik
uzunlukta
Opel
başlayacaktır
Kidd'in
geometrik
türetilmiştir
Ceneviz
yamyam
##öping
Kariyerine
Cullen
ötesinde
steroid
veritaban
Cabral
beslenirler
arayüzü
Flex
Üzerine
misyoner
Koval
gürült
Çekoslovak
sürgünde
Soulja
Amasya
yıldönüm
Sıkı
Evliya
kesintisiz
köpeği
varoluş
Değişik
Hicaz
Michele
çelişk
Tacikistan
kışkırt
Atabask
Craig
Stockholm
Gelecek
Goguryeo
Wanted
Zimbab
irtibat
rüzgâr
Elena
Tasarım
##mnasi
Princeton
restore
Ayasof
antibiyotik
imtiyaz
Baptist
Nikiforos
dedikodu
Çolak
##ihazırda
Electronic
unsuru
Schalke
Yenişehir
Bologna
Caragiale
Ereğli
Goebbels
Palermo
1.2
AF
Adela
Blan
Cl
Cob
Dang
Düğ
Dyn
Dharma
Ein
Fev
HDL
Krat
Kredi
Nav
NBC
Ore
Piyas
Rov
Rhe
Tin
Vé
VS
Zem
abon
bebe
div
fuar
gluk
goblin
kot
kılan
nün
nah
nden
sordu
sof
sodyum
tad
teb
was
zen
çalarak
##yak
##yaş
##mour
##mith
##visi
##nini
##pers
##jik
##sler
##'an
##'ının
##'lere
##cir
##cis
##hor
##biyen
##wi
##ğun
##95
##RI
##Yİ
##ental
##ilis
##ililer
##leen
##aset
##ırım
##ores
##amaması
##iyken
##olor
##stir
##abül
##tifa
##umer
arg
gördük
##utz
yerdir
##lenmesini
##rob
verilecek
##ibu
##iciye
çıkmasını
çıkmadan
Birlikte
geçmesiyle
dönüşt
yazmıştı
kalkın
tekabül
genlik
işçisi
uzlaş
##iyetine
gösterg
[YEAR]'lar
[YEAR]'lerden
ilde
illerinden
kayd
alanların
alanlara
İsim
girmesini
akıntı
Ork
Orton
görevlileri
gerge
yönetildi
çekilir
Erkan
kapısında
##üss
seçilme
denmektedir
##hani
##hanesi
ettiğinde
elç
diğerine
serüven
türlerinde
yolsuzluk
hakimi
hakaret
temp
gerçekleşme
yapılab
Üniversitede
okurken
değişmiştir
değişmektedir
Savaşının
eşey
aşın
aşaması
insanda
insanlardan
Aktif
Aslı
metresi
Sang
Lee'nin
##edip
fazlas
bakarak
geçirilmesi
zorladı
##ernet
kararın
Harbi
yarışında
uygulayan
düşünüyor
değere
artışı
Shap
ünit
Manisa
öldüren
eğitimli
Herz
taşıyordu
binada
Thr
Beyrut
##tiful
yapımlarda
şehrinden
Newton
destekçisi
parçal
Doğu'da
Deney
sarayın
##ondo
sunulmaktadır
seçimde
dörtte
Müzede
Çinliler
sınıfta
yürürlük
##ario
Tarant
##cock
bilimleri
Topal
Arapç
kitaplarında
görüşmeleri
112
grubuyla
beklenmektedir
##laştırdı
bağlanarak
parçadan
saldırıyı
biçimli
dağlar
##hout
kullanılırlar
projeler
Padişah
kuruluşunun
TV'nin
##evi'nde
Grubu'na
karşılaşmaları
sebebiyet
ilerler
ilerleyerek
Bizim
Sinagogu
canlandırmaktadır
faaliyetler
kayıtsız
Doğuş
edilmesinin
turnuvayı
etkinliğinde
##.Bunun
##one'nin
kardeşidir
işlemci
kelimenin
Apache
Oyunculuk
Köylü
Türkçesinin
Come
Commun
ateşe
Hattı
hesaplanır
Control
Yarışmasında
önerilen
raporu
Antakya
Living
katılmasını
kulesi
Çağlar
Graham
kaydedilmiş
çatışmalarda
Irak'ta
Sahip
##marck
azalması
şairi
kıymet
bulutsusu
iyisi
vazif
meşe
şahsen
etkilenerek
kamuoyu
Peiper
cemaatinin
muharebeye
Taburu
madencilik
City'de
Dilber
Memorial
bölünmüş
heykeller
düşüncelerini
artırır
sokakta
Irv
##amayacağı
Fatma
Yazarlar
cisimler
gündelik
##ilebilen
unsurlar
yaratıcısı
Kerem
statüsünde
sınaması
tuzağa
Discover
Tepeleri
gerçekleştiği
Internazion
komşuları
süsleme
Nicola
İdaresi
##caster
müsabakalar
Catherine
evrimsel
Sarayı'nda
Nerede
Çıkış
kızılötesi
büyümüştür
mekanizması
kütüphanesi
Bloom
Orkestra
milletvekilliği
mücadelesini
AKP
Laskar
Science
evliliğini
##.İlk
Pilsen
imalat
Edition
dürüst
##buntu
tanıklık
Nelly
Koleji'nde
Platform
Fabrik
kamuoyuna
sözcüğünden
Dostluk
Böcek
kalıtsal
Nehrinin
Destin
Nicholas
tesadüfen
Mizrah
TFF
Bucaspor
atıfta
Sümer
eczacılık
##avantaj
Meksikalı
nişanlısı
Rostov
Brooklyn
Cahit
Family
Protokolü
salıver
##otekn
##ground
Jüpiter
Auschwitz
teşebbüs
Radames
Tavşanlı
Indepen
Premyer
Sınav
##'tur.
##oyvoda
Toledo
Cebelitarık
0.0
1.3
1,2
Aeg
Aqu
Bebek
BET
DV
Desi
Emen
Fren
Lep
Low
Laborat
MO
Mab
Mog
NF
Plus
Pali
Sla
Sina
Sens
São
Tell
Takip
TCP
Vize
Zira
Zhang
aver
beb
beton
cor
duv
fünye
kukla
nc
sep
tug
yaya
Öf
ödün
ılıman
##reni
##rarı
##earch
##kowski
##za'nın
##'dı
##'ünü
##çeri
##cim
##cess
##cope
##fo
##goth
##arelik
##unması
##asaki
##lain
##lanmasıyla
##ulup
##emem
##imo
##ahmet
##ahisar
dejener
##izler
##izade
##ükten
yapacaktır
yapacağını
##evo
kargo
görmesi
görüyor
olana
tarafındaki
vermeden
bulunmasına
##eric
##erior
kurmayı
Anlatıcı
süresinde
Birliğine
geçmişti
gelmek
gelmesine
döndüğü
##ecilik
kalacaktır
kalacağı
açısıyla
sahile
##chy
filmlere
Ars
##iyete
##iyette
[YEAR]'ler
[YEAR]'lere
ölmeden
ikaz
akı
##uval
yükleme
oynayıp
yüzeye
kazanmasına
üçe
eklemiştir
türemiştir
etkisine
oluşmasını
boyan
kabin
yapılacağı
Dünya'yı
şekilli
##geleri
müfet
Başkent
gerekçe
durumdur
getirmeye
içerdiği
Güncel
aşar
merkezî
senato
isimlerini
şekildedir
üretici
tutmaya
sinek
izole
sanatının
başlamak
imkanı
10'a
kararları
sevdiğini
şehirlere
Harvey
kentsel
sesle
yendiği
artmasına
haftanın
kılav
Elb
savcı
Thing
şampiyona
Kuzeydoğu
gelişimini
muhas
uçları
Partisinin
##bour
sunum
otsu
Prayer
Wilder
seçimleri'nde
girişimleri
çevresine
Yaratı
tanıma
operanın
anlaşmaları
sonucudur
kullanılabilmektedir
##ensk
Sea
koyan
temsilci
##quer
romancı
şirkete
kültürün
koltuğ
organları
baharat
kraliçesi
ölçüt
adlandırılmaktadır
edilirken
emret
gemide
gemisinin
##ious
Kreb
maddesine
eyaletine
Salzburg
kamusal
Geoff
tipleri
dağıtı
kulübe
İşbirliği
Beşiktaş'ta
karşılaşması
Başkanlığına
seminer
arkadaşlarını
Diğerleri
##auer
ambar
çevirir
mutsuz
Müzikal
Court
fırın
fırlatma
Hamdi
Aracın
Korece
Alevi
Amacı
Japonlar
Tarihsel
Bulgaristan'ın
Quint
oturma
James'in
nüfusuyla
kuşatmadan
Polonya'ya
Whistler
Yüzölç
gözlemler
Constan
Telesk
Köşk
Henley
Trin
Aşırı
değerlendirilir
mekaniği
Operasyon
Havacılık
Minh
spin
ailelerin
köprüyü
eylemi
tablolar
biyometrik
Grey
kasabaya
RNA'lar
azaltır
Volga
Kemal'in
elektrikli
hapishane
Rain
monte
birinciliği
düşürür
Urfa
kullanıldığında
Bandır
Faruk
gemiden
dereceye
##emezler
ikincilik
hayranları
Hüsnü
ISM
Hindistan'a
kanunla
diskalif
kalıntısı
Talat
mesajı
Doktor'un
hatıra
Gerçekte
istihdam
kullanıcıların
Divanı
ICD
ICAO
patlamadan
panzer
Tracy
mirası
Almanyası'nda
yeteneğine
Arnavutluk'un
yetersizliği
gelişimine
fakültesi
eğilimli
papaz
övgü
kıtasında
Project
Hikay
Subay
Prag'da
Tevrat
Organizasyon
birçoğ
Himmler'in
Caroline
yalın
Ciara'nın
kurşuna
Southern
Kennedy
Gotham
endişe
soğutma
Nijerya
tekerlek
PKI
Spring
Uygulama
Aramice
menzilli
bağlantısını
Kansas
Büyücü
Jennifer
Hindu
Yağmur
hokeyi
olmayabilir
Fisher
MEMS
gütmeyen
atfed
Königsberg
Nitekim
Marsilya
Beautiful
Cizre
##odinamik
Classic
iştirak
sürüngen
##köpr
Erivan'ın
Orlando
Adelaide
Internazionale
müfettiş
[DATE]'daki
AN
Ales
BJ
Beleri
Crit
CBS
Dw
DA
Dayan
Drey
Fel
Güz
Gülen
Grav
HS
Hekim
Jab
Kağı
Kost
Laboratuvar
Nut
Nece
Ody
Ris
Raş
Rüz
Reşit
SM
SL
Tş
Ufuk
Wis
YÖ
Yemek
Yasa
Yezid
Zinc
bod
dı
elim
fiber
fındık
mart
melek
tet
ög
ökary
##riyat
##lülük
##yev
##yeti
##viz
##iana
##pil
##pol
##ûn
##sındaki
##ülan
##bot
##gazi
##îm
##âta
##DC
##TH
##arin
##anada
##ireti
##en'e
##akende
##lers
birliğine
##ayak
##lanıyor
##ats
##atin
##ated
##ünik
##tele
de'
##tag
##tale
##iza
almayan
almadı
##oksin
görel
içinse
andan
anim
etmenin
##osun
Buhar
##ayacağı
Alfab
##isiana
##erie
##eride
konunun
##uza
adresi
yönelen
onayı
yarık
yaralar
yarasa
güneyi
toplanmış
işlenmiş
yakış
##side
##sica
olmamış
##rieg
gösteriş
ilin
##renheit
proton
yüklen
##ikalar
Orleans
##oder
gerçel
##üsüyle
düzel
seçime
denli
##rama
ellerinden
elçisi
kişiliği
müzesi
müzede
müzesine
Chen
Enf
yapıyı
basam
başladıktan
düzene
March
Konrad
koh
biliniyordu
##tücü
değişmiş
değişimleri
Devil
sular
sularda
##egel
diziyi
yüksekliğinde
tamamlamak
satılmıştır
azı
Parad
kortiz
Akıl
Aktör
Akdağ
ayrılmaktadır
sayıca
##layıcısı
çalışmada
bakı
bakanlığı
Stat
sanatlar
Burası
eserdir
yıldızlarının
Kanarya
Miley
sistemlerde
başarının
kentindeki
Haliç
yaşamlarını
Shir
Shad
aileler
aileleri
öldürt
binasına
Prob
bilgin
hareketlerini
sınırını
geliştirildi
yükselir
yazarlarından
##vert
sıradadır
çizer
##altında
anlaşılması
sınıfın
Relap
dinlen
dinlenme
Benfica
bilimci
kimin
Toplama
##temberg
suçundan
romanda
saatleri
partilerin
gökadaları
Malfurion
beklemektedir
Montr
Heath
tanınması
Belar
satışları
faiz
bağımsızlığı
eyaletindeki
modelini
kamplarına
havası
Başkanlığını
senaristi
inancı
Take
semptom
engelley
Portakal
Anderson
Otob
bölgelerdeki
Sırasıyla
taarruzun
Hayatı
seferine
incelemek
kiral
kutlamak
Oliv
Filosu
Mex
yıkılmış
yıkıcı
Research
şiirlerini
Doları
işlemler
Koro
tutuklanır
Valenci
Bizanslılar
taşınmış
fonksiyonel
fonksiyonların
Tarihçi
Roses
Rossi
Azerbaycan'da
oturduğu
Gian
Hotsp
komple
Dönüyor
işlediği
Walk
Parti'den
hepsinin
ıssız
Kuantum
Kaplan
yapmakla
yayınlandıktan
ormanlar
yenileme
Bahn
götürül
Nike
katılmayı
indirme
balo
Paulo
başardılar
koşullarında
Darül
Darbesi
Daw
yakalanıp
yerleştirildi
yerleştirilmiştir
üss
real
değişiklikleri
birleştirilerek
etmelerini
##tezi
yeridir
evrende
kıyılarına
sürümleri
Volta
iletişime
yapılırken
kamuya
yaşanmış
katılıp
Devletleri'ne
Central
Tablonun
##mont
Thompson
vakum
Solomon
IPsec
oyunculuğu
paylaşmıştır
emrine
Popüler
##uluğunda
kabileleri
Araştırmaları
yaratılış
molekülleri
aydınlat
Kabil
alışkan
Sürekli
etiket
Şimdiye
Şimşek
Troç
istekleri
irtifa
Alaeddin
koleksiyonu
##elektrik
Manson
yöntemidir
Cup'ta
Hanedanı'nın
parçacıkların
bahsedilen
kitlesel
göğs
Servisi
##NET
Pulitzer
yolculuğu
kurmuşlardır
kocasının
Keskin
Mevcut
intikamını
akrabaları
kongrede
CEO
Kılıçdar
sızdır
dürb
Gazetecilik
Business
Bahçeli
Cevdet
melan
Tanzanya'nın
yurtdışına
pirinç
masaüstü
sönük
Fiziksel
Bismarck
Felipe
Trophy
Saturday
Jamie
Eisenh
Axel
Gecesi
şapka
Hanedanlığı
liberteryen
mayınıdır
burjuva
Pietro
Mercury
fazlasıyla
Geliştirme
yetmezliği
##cional
Lahey
Anjali
Renault
Strasbourg
##zamanlı
Menderes
Surinam
yansım
anımsat
Mitchell
Jamaika
NKVD
dezavantaj
Beverly
homojen
libretto
Megleno
Sierra
Spencer
Zimbabve
Necef
Relapse
[DATE]'a
1.4
1.6
Alab
Aja
Aaron
Clip
Fut
Fry
Fell
Fizy
Güv
Glass
Haş
Kağ
Kaj
Lamb
Meli
Name
RC
Rib
Sark
Sunu
Ts
TO
UU
Würt
alayı
cek
cüc
eme
fı
gla
hang
kasıt
lağ
mom
meg
mistik
pür
pant
za
çant
Şan
##yp
##yarak
##yth
##terson
##ium
##pir
##'ed
##ucak
##cell
##ğüne
##18
##âde
##AZ
##VS
##ław
##arn
##anik
##erz
##ening
##ilit
##akt
##dalı
##iyar
##iyalı
##emeden
gölü
##radan
##tie
##esifik
##uste
##celi
bug
bulaştır
karma
kartal
karısını
##ımının
##opol
ayna
##road
vermekte
bulunmadı
Always
##eri'nin
inanıyor
konan
##ovic
Birden
geçersiz
gelmekteydi
adlarında
dönmesini
yaşını
tekne
genom
##ilius
çalmıştır
işlek
işsizlik
devri
yakasında
Arık
maçlarının
Amin
Amir
girmesine
prova
akabinde
##acağına
albümlerinden
Franken
yönetilmiş
çekmeyi
Erç
Erkin
yanlarında
kapılı
kapısını
seçen
seçmiştir
##lemesiyle
milit
harab
diğerlerinin
müzakere
serisini
derb
derinden
şarkılara
türlerini
kurultay
komitesi
yoldaş
sayının
kökü
kabl
yapıdır
açıklarında
Karan
##metik
bölümlerini
salg
sularında
##leştirilmesi
##lattı
yükseköğretim
tamamlanması
satılmaktadır
Oslo
İngilizlerin
Akk
gruplarını
Lepor
çıkararak
uzunluğa
uzunluğundaki
izini
izlediği
başlamasına
başlamasından
oyuncularla
gitmektedir
kararsız
sevinç
yayımlamıştır
hazırlayıp
giyer
yarışmaları
uygulandığı
değerlerini
teknisyen
tahrib
askerden
söyleş
bindir
değilse
Belli
Beldenin
Belirli
Güneybatı
konuya
Maarif
toplamaya
Barlas
##uga
ilişkiyi
Yarım
gazetesine
yerleşme
Region
Bulun
hizmetler
hizmetlerini
sonuçsuz
kimileri
Alive
Seel
suçladı
##quel
çiftçi
listelerinin
sürdürmüş
partisinin
##lisemi
renklidir
popülasyon
Money
söylemek
ediliyordu
Saadet
hücrenin
kulüpleri
atanmış
girdiğinde
dönüşümü
havaliman
inanış
##eğinden
Metropolitan
bölgelerini
Hayal
Germen
Makine
boşal
Coupe
yürütme
merham
##ülecek
Sche
kullanılmasını
katkılarda
App
deneyimini
oradaki
fonksiyonunun
noktalar
Quinn
DNA'nın
söylerken
hastalıktan
##mayarak
Murray
hastası
Cephesinde
Myst
tarzının
korumayı
öldüğünde
miktarının
Kendisinin
spik
balon
kullanımının
biyograf
laik
Ukrayna'da
İnsanların
çıkarttı
rütbe
Suriye'ye
evrendeki
ahal
Menez
hastalar
Tahir
Seymour
psikolog
sarayda
çağrısı
egemenliğini
hamam
Memlük
itme
yasaklandı
nakliye
formula2
prenses
öyküleri
Irma
##amayacağını
felsefesi
emreder
Eyy
Eyes
komutanları
değişenleri
Lancaster
Chang
Kerim
Kervan
hükümdarlık
Firef
matematikçi
Cape
yaprakları
yönlendirici
stadyumun
Helmut
imzalanmıştır
beğenilen
röportajında
Devrimi'nin
modülasyon
yargıç
kerev
peşinden
kaide
rehabil
sorumluluğu
oğluna
yürüyen
Two
Maryland
Finlandiya'da
gövdes
bağımlılığı
okumuştur
Nevşehir
Neruda
M.Ö
Aleksios'un
Çevr
Veli'nin
Fear
Yapımcılığını
Siyahlı
izlenim
tabloyu
uğrattı
Necdet
Virginia'nın
fiil
örneğidir
varlıklarını
##memekle
Beatles
Ricardo
##rieux
girişti
Konferansı'nda
ağabey
Ordusuna
yenilikçi
Ressamın
Scarp
radyasyon
becerik
00'da
Konfederasyon
Lehçe
tücc
##uffle
Jeffrey
andıran
Theravada
coşk
menajeri
Sayılı
Tokatspor
Somalil
Somalisi
basketbolcudur
kurumudur
Scooby
Riemann
çalıştıktan
Büyükelçiliği
Manet'nin
güzer
mülteci
konuştuğu
ertelendi
işitme
CRC
alegor
Stuart
soyadını
Cemiyeti'nin
Phillips
##öğrenimini
teşhisi
Yuanjia
fresk
Sergei
başkaldır
sunuculuğunu
standardı
Glasgow
zanaat
Kardaşlar
Pankhurst
Atletizm
Flensburg
Almeida
Discovery
Yüzölçümü
Württemberg
3,5
A'nın
BT
BK
Clara
Dabi
Einstein
Gang
Koy
Katı
Kiel
Lic
Merk
Mind
MAC
Mebus
Nal
P3
Piz
Piş
Pod
Puc
Page
Qing
Sle
Senin
TT
Tart
Tob
Ubuntu
Wim
Wien
XX
Yeng
alel
elenmiştir
eliyle
ft
güb
gedik
glut
kürk
mol
neler
perk
star
us
yuva
Çer
Şap
Şab
##şçev
##lû
##yerek
##mün
##taz
##t'ın
##noc
##py
##köping
##oç
##dini
##ddin
##culuğu
##band
##îr
##DR
##ares
##anya
##iniz
##ıncaya
##lar'a
##ilay
##ilür
##ilişi
##ekk
birliğe
##atçı
##uray
##orps
##ament
##dan'ın
##mıyordu
##midt
##ükleri
alg
alsa
##aben
sonundaki
##ceğe
bulam
##avatan
##üzyon
are
aranan
karab
görüştü
anormal
##ilmemiştir
##ludur
##roc
enlem
önleme
##ibir
edilmekteydi
ilkbahar
Anat
##ican
inen
##enie
konulmuştur
geçme
##reck
##ige
##mişlerdi
online
kalanı
kalmışlardır
##ildişi
gündür
gününü
genin
büyükann
büyükbabası
##char
filmine
filmlerine
zamanını
##sau
varyan
varlığına
İns
##epe
##epti
oyundaki
akut
akademi
halife
##unaway
##odd
##tenberg
tanesini
bağlamaktadır
yandaş
düzine
##ozin
şehzade
milis
hayvanı
harap
harman
Chart
Chrome
ekol
öğeler
türlerine
kurulunda
Gent
bastı
resmet
düzenlenmesi
Marek
Kariyeri
Rouss
Başar
eşsiz
diziler
##astık
ağa
##meyeceğini
alınmıştı
Oskar
insanlığın
Aksaray
gözlenebilir
Sancak
öğrenmeye
Lex
ayrış
yeteri
uzunca
imkan
geçirilmiştir
güçlerine
Kraliç
Kane
gitme
##tonom
kararname
sevgisi
Üçlü
Harper
giyip
yarışmıştır
uygulamak
uygulanmaktadır
Hand
sesin
yenip
yaşamında
liglerinde
saldırının
değerlerin
Shuffle
ününü
Inters
Galer
Galaks
sıkıntısı
programlarına
Ödüllerinde
kaybına
anlamsız
kuzeyine
tesir
gönderilmiş
Atlé
planlı
planlanmış
hıza
hızını
ulaşması
doksan
dünyadan
parçasını
Carr
Carey
sinemanın
konuşmaya
kaynaklardan
seçimlerini
##gari
tanımlandı
geliri
patates
Muhtar
##ensen
##ydılar
Macellan
temsilcilerinden
çiftlerde
eleştirileri
sürdürdüğü
##ileceğinden
Koch
beklet
beklemek
Monaco
Taner
##lüğünden
dergisini
##ountain
##ahattin
erkeklerde
nüfusuna
üniversitelerinde
saldırılarına
Sargent
adamlarından
Lisansı
modeller
projeye
kuruluşun
idaresini
karşılaşırlar
Başkanvek
##nikov
Batısında
örgütleri
Bölgesi'ne
Sinop
oynaması
öldürülmüş
batak
yöntemle
Kadri
etkinlikler
yıkan
Norris
Araba
Soc
Fakültesi'ne
kopyal
Londra'nın
Scor
Kuvvetleri'nde
kapsamına
İspanya'dan
Valley
Türkçesinde
Türkçenin
direnişi
Teoman
yorumunu
alanıdır
komplik
kuşatmaya
fotoğraflarını
kütleye
hızlıca
Garcia
geceleri
ormanlarda
Torp
##lımlı
hipok
Weimar
ayırır
bağlantıları
miktarını
##bonne
yararına
indirgen
Louisiana
kurallara
yakalay
uğruna
internette
gücün
çatışmalara
Göç
vatandaşlığına
aktarılmıştır
analitik
Suriye'nin
kısımda
zirvede
şahs
hapiste
Küba'ya
hastaları
Linus
arazileri
Karls
muaf
muazzam
katılımı
araştıran
makalesinde
vakt
Memluk
Windsor
bölündü
verilmedi
Heinz
çıkardıkları
ayrılırken
Norveç'te
TRT'de
enerjinin
Kütüphane
Pensilvanya
Leonard
Leonardo
müdürlüğü
süpür
Hukuku
vazgeçti
sergileyen
yukarıdaki
dalgaları
malzemenin
yayınlanmasından
festivalin
festivalde
yapraklar
hastalığından
çabucak
Alanzin
Hyunda
Eyaleti'nin
uğradığı
Fırtın
Bitk
Kavadar
ezeli
İskenderunspor
kalitesini
Planı
dönerken
arabanın
Lake
sigort
endüstrisinde
bulanık
okuduktan
oluşturdular
köylülerin
##loway
##IMP
bağımlılık
lipoprotein
Zenit
d'O
cephesi
sponsoru
Ajda
Yalova
parçacıklar
Natal
bıyık
macerası
cumhurbaşkan
Count
itham
umudu
riskini
Şeker
Wolfgang
Dikmen
devirde
Randy
Bundesliga'da
cisimlerin
bakteriler
Shaw
English
Beatrice
Öyk
Çalışmaları
Preda
Olympic
Wrestle
halifelik
Yener'in
Elser'in
sözcüğünün
##yazımı
Mezarlığı'nda
Running
##nitrix
tropik
Cibu
Çizgi
Kasabanın
Kepler
kovalent
sermaye
Tugayı
Amazon
Ghost
Mobile
simetrik
nikah
Stevie
Pompeius
gevşek
yürüdü
Zambiya
##asilgliserol
Missouri
diploma
ekosistem
Çerkes
Kathleen
Politbüro
Kanatlıat
olsaydı
Laskaris
Hotspur
Ajax
Seelow
Atlético
05
08
01
03
0.1
4,5
Aden
ATP
Baz
Bara
Clo
Cela
Det
Dün
Dini
EM
EGP
Flav
Gau
Gamb
Hus
Hut
Hoh
Hayalet
Mert
Mick
Pam
Price
RS
SB
Sag
Smack
Tün
Tale
TNT
Tanan
TNA
Tres
Tsung
VI
Yidiş
alam
bag
damadı
güf
gamet
hor
hub
jure
ket
kadı
kuyu
plaz
ras
rib
silik
tra
tran
we
çiv
çanak
çömlek
üf
İc
##minin
##meme
##town
##nci
##nia
##paş
##kok
##drub
##zaj
##sından
##'lük
##'ja
##uil
##hos
##bec
##gaç
##gısız
##BN]
##HM
##OX
##arro
##inos
##enza
##ilo
##illo
##alın
##unus
##asol
##as'a
##lair
##esa
##aydın
##ştım
##amond
##iyum
##imore
##div
##ılsa
##'nce
##tagon
##izma
almaz
başlama
buy
##aven
##even
##afa
artı
arması
##iler'in
##ımına
görüşt
##luka
##roe
veriyor
vermesini
verecektir
verilmekte
vereceğini
oyma
##rane
ilkesi
##ebilme
##ıldıktan
sürek
kondu
Biraz
##ref
##iger
yöne
yazları
gününe
doğası
Ari
##leşmeye
##ifi
##iffer
çalışılmıştır
çalışmasıyla
gösterisi
iltih
kaygı
İsabella
kazanıp
##esten
uyruk
yüküm
parlamenter
evlerine
sezondan
sezonundaki
görevinin
kaplar
seçer
atak
kişiyle
sant
yayıncılık
etkiye
ortasına
Ondan
haklarına
##aget
temasını
kabuklu
Marx
dolandır
kolek
müsa
kanaat
tamamının
tamamlayıcı
##olojileri
merkezlerinde
ağlar
ağrısı
##owitz
üretime
gözetim
Sanay
##nadığı
Stor
başlatır
Bronz
kızdır
Burke
doğruya
sistemdir
kaynağını
Osmaniye
Bilimi
uygulanabilir
Özkan
polise
##mayıp
##lasa
##alie
Berberi
söylendi
Afife
sınırlıdır
##ofonik
dalları
yazarların
parçasıyla
##iderofor
konuşmalar
##boç
kaynaklanır
seçimini
tanımlamıştır
Cumhuriyeti'ni
finaline
Demis
Tarık
davada
hizmetinde
Muhar
uğray
##andro
İngilizcede
tasarlanarak
eleştiren
eleştirilere
sürdürür
adaylar
televizyonunda
bahsi
bahane
piyasada
araştırmalara
Monica
formülü
dergisine
[GEO
bozuldu
##phis
##ylvan
kümeler
ekonomisinin
keşfetti
2500
Afrika'ya
projesinin
Hasdrub
Pain
Paolo
dönüşünde
ayaklı
Grubu'nu
İşaret
örgütlenme
ilerlemesi
ilerlerken
Metz
arkadaşına
Emma
Stav
stüdyoda
##iğit
oynanır
kayıtlarında
kayıtlarını
olacağına
soyg
çeviren
konserlerinde
Molek
hesabı
yöre
versiyonudur
yapıldığını
kullanılmasına
toplantısı
Hitler'i
Bulgaristan'da
Nehri'ni
imzalayan
Terc
##layacaktır
maskeli
##karahisar
##othing
resimlerini
gözlemleri
Olimpik
olabilmek
ressamların
Roberts
Torres
kavramları
etrafına
Operation
baskılar
baskıları
spesifik
Magazine
Olimpiyatlarında
kullanımda
isyana
Darwin
tehlikede
yakalayan
yakalama
marjinal
kökleri
şairin
delta
molekülü
gelecektir
reisi
akımına
harftir
Elif
Pear
##cinny
Express
Horde
kanatlılar
basitçe
ilçeleri
oyunculuğa
İskoçya'da
istasyonları
Meksika'nın
gecesinde
ilaçların
##ript
çalıştıran
emrindeki
nükleik
Yolculuk
Cephesi'ne
tartışmaya
Cass
yansıma
##del'in
sakatlığı
statüsüne
Sorge
öykünün
Dominik
aydınlatma
yakalanan
bastırmak
olanaksız
oluşumunu
Reichsw
rakamları
teşkilatı
ların
Caesar
Bulutsu
Dükalığı
Dizide
uzanmaktadır
doludur
tarzıyla
Ernesto
Florida'da
profesörlük
ICMP
arabulu
Lorda
formatta
Carlos'un
vücuda
unutulmaz
deter
kapasitesine
habit
TBMM'de
görüşmelere
Kolordusu'nun
Konservatuarı
çocuğunun
##emeyeceği
bahçesinde
anlaşılan
fabrikasında
Atlantis
Refah
tecrübeli
##sandro
avantajı
Service
Gilbert
Madagas
ardışık
empedan
##beyli
mesleği
potansiye
geciktir
bilmeyen
Gökadalar
manzar
orklar
dolaylarında
büyüklükte
kötüye
bankası
göreceli
slogan
soğutucu
Eastwood
hadis
Gencebay'ın
gişede
##ISBN]
magazin
Austin
Dicle
damgasını
sosyoloji
##natıs
Dylan
yaşamaktaydı
İlaç
Videosu
Evanesc
kuyruğu
Fiorent
Sebastian
titreşim
Federi
Kuveyt
kargaşa
şartıyla
Adidas
Bahadır
lazer
OKH
Vestfal
Ağız
DFB
gravür
Spirit
Mezopotamya
Kilikya
GNU
Television
Nâzım
Zerlina
kumandanı
Problem
Eyyub
Evanescence
Aşık
Dj
DP
Eck
FL
Geh
Geb
Gotik
Gıda
Gümrük
Gnaeus
Grieux
Hamp
Hoş
Işı
IATA
Jet
Jum
Ket
Kus
Kelebek
LS
Lider
Lens
Lenn
Mount
Nept
Peh
Sih
Serk
Soft
TA
Tük
TRL
Tenn
Vinci
Vien
Vezir
Zeb
ceb
elit
feda
flüt
hob
idama
lav
mam
mult
non
nolu
pig
parkı
rüy
sw
çoban
İda
Şii
##rını
##şağı
##ıya
##ıştı
##ló
##modern
##n'in
##kapı
##sohn
##'dür.
##.[YEAR]
##ful
##fic
##bik
##baz
##body
##gard
##Bİ
##31
##EV
##NG
##ense
##ildikleri
##delen
##lex
##lemişti
##asker
##latılan
##aynı
##lanmayı
##lanmanın
##lanmasının
##isburg
##amar
##el'e
##iyakat
##ikler
##olph
##izer
##tio
sonbaharında
karn
Buena
ispin
yerlerden
bulması
##lenmişti
tarafını
veric
enkaz
##alığa
##ipi
Anıtı
Angela
##edd
##ebilmiştir
sürmekte
geçmi
geçiyor
##recht
##mene
##idye
topa
açma
açabilir
katot
##cheng
çalışmanın
uzant
##yeong
gösterilmesi
alanlarıdır
maçlara
İnter
kazadan
##estra
oyunla
girecek
girdikten
Aver
akses
çekildiği
altmış
kaplan
düzeyi
denedi
durmaktadır
elemen
##lemesinde
üçünc
harmonik
yayınev
şarkılarına
şarkıcının
eklenmiş
eklenerek
##ubat
nedenler
Enrico
temasa
yapıtı
resme
Maril
erte
bilinmiyor
yapılanma
getirme
oluşturmaya
oluşturmaktaydı
##veten
senelik
tutma
gruplarda
bitmiştir
metaf
Leib
yetki
rollerini
değirmen
müzikle
sorusu
başlamaktadır
kızlar
Burn
Burning
eserlerde
Orduları
terhis
##faj
kaynağının
başarısından
başaramadı
kararına
görülmeye
giydikten
giyemedi
##lacaktı
Haldun
Özal
Özcan
polisin
Shop
tahrik
Komün
Komedi
Abdür
Abhaz
öldürüp
programa
söylenebilir
tedir
sınırdır
sınırsız
ortaçağ
sıralar
plandaki
konudaki
Mao
Barry
Oynadığı
parçasından
Denis
Roma'daki
ilişkilerin
kaynaklarında
kaynaklarını
##mamasına
bulunurdu
kuşk
kuşlar
kuşku
tanımlanmaktadır
Yarbay
değiştirmesi
yerleşimi
anlaşarak
beşe
barbar
dindar
kavim
kilomet
Selahat
romanını
görüşlü
malikan
taştan
ilçeye
şudur
Montg
kalesinde
yaratılmış
parçalara
emred
Turfan
üniversiteler
üniversiteden
##ayındır
paralar
kontrolündeki
bozulmuş
sinemacı
##di.B
ekibin
ekibine
İsrailoğul
maddedir
Yılında
Robot
İsveç'e
anlatmak
sporu
##ević
##ılmadık
sempat
haberleşme
Bath
babasıyla
Donat
Romanda
seferde
Stadi
faaliyeti
edilmedi
gerçekleşmiş
teorem
teorisinin
saklanan
yöntemdir
partide
Kolon
Kolçak
fikirler
sorunlarını
dersi
parçasıydı
##üleb
Morav
Korsan
Korosu
Köye
konumlandır
tutuklama
Amade
fonksiyonları
ipuç
Diamond
oturmuştur
Sporting
Masal
hücrelerinin
ayrıldılar
kurdukları
Gölge
ürünlerinin
sergisi
boyutta
boyutlarda
önerir
uçaksavar
Portekizli
kodlar
ulaştığında
ayırmak
Günümüze
kupada
kupanın
Kahver
gittiğini
kuark
adamıdır
Moskova'daki
çatışmada
##.Al
vatandaşlarının
değişikliklere
edebiyatında
Şah'ın
seviyesinin
hanım
Kamboç
Kulübün
tespiti
Sırpça
sıralaması
valiler
vokalisti
Urban
Taşı
##imizin
yetiştirilen
ruhu
Danimarkalı
frekanslı
kademeli
enzimi
Kilisesi'nin
kiliseye
Oblast
cesedi
çıkardılar
proteinler
sürecin
makineleri
Direct
altyapısı
##bilimci
kovuldu
bulundurmaktadır
mahkemede
aydınlanma
Müdürlüğü'ne
nörot
stadyumda
duyurmuştur
kurucusudur
Arjantin'de
faydalı
##blemi
başvurulmuştur
Gürcistan'ın
Düşman
panik
meydanda
Sırbistan'ın
öncülerinden
ödüllendirilmiştir
Brecht
Çarlık
##'ll
Stanford
blog
okumak
okumaya
Orion
duygularını
Bobby
eşyalar
##buki
malzemelerin
reaktör
Açık'ta
##mesiydi
Watson
haritası
Vasil
USS
Golds
yolculuğa
istikamet
OSG
Engine
Kubilay
şovu
Filipin
Bartol
padişahın
tükenmiş
titiz
Broadcast
reddeden
Tesis
Lyrae
Without
istilası
##ştikleri
komünizm
Biyolojik
Harrison
mevsiminde
Augsburg
Bucks
akrabalık
Sharon
karıştığı
Kütahyaspor
Pitts
Tiger
yerleştiler
tıkan
Bayramı
Hz.
talimat
uygarlıkların
Payton
Müfettişliği
yatılı
kütleçekimsel
eteklerinde
ihtiyacını
esinlenilerek
Nichol
Konuşma
tehdidi
öğleden
Bridges
Gonzá
alınacak
Rocco
sembolize
Amelia
Eduard
Goscinny
şaşkın
Brueghel
Osetya
Nickelodeon
Nilüfer
Silent
Andronikos
volkanik
perspektif
Shenzhen
Paramount
Muhafaz
diskalifiye
YÖK
moment
Reichswehr
Selahattin
0.2
1'i
3.0
AL
Ate
Bom
Bolu
Body
Ce
Cim
Cec
Clos
Carth
Dust
Destek
Fındık
Golf
Klu
Klasman
Lik
Mort
Malt
NR
Niy
Nano
Person
Place
Rez
Rai
Sö
Site
Slum
TC
Tanı
Trail
Târ
Vent
Wik
Wang
Xen
ami
br
bk
diyor
hum
ibar
kun
kek
koğ
k'o
marş
pit
sü
sesine
sper
sound
tram
ven
wh
zalim
zenci
Çalı
ök
##rel
##rell
##yt
##yc
##iak
##pus
##kab
##kaf
##kinden
##jack
##sık
##ui
##uo
##clus
##ülis
##bital
##get
##wall
##DV
##2'de
##OL
##akkar
##lebilir
##ones
##asia
##asyum
##amayınca
##ememektedir
##iman
##iminin
##itle
##ahkem
##duz
deleg
##mie
##izanlar
##stal
##strong
almaları
##üms
##abilmiştir
##abeti
##ticut
sonda
yapılma
başlanır
##avun
arar
karayol
gördükten
##utsu
anlık
anıldı
anonim
##osiklet
Buff
##roid
##ören
##örleri
Anı
Anah
tarihç
##uşta
##eball
sürülmektedir
konv
konmuştur
konfeder
##ovsk
geçecek
geçmekte
kullanmış
bilhassa
dönerler
##other
yaramaz
yayılır
günkü
gencin
##ısıdır
işlerin
sırf
sıralı
sıradışı
##ansever
asılı
##salar
varis
ilgil
kayma
İsf
prov
akısı
takımlardan
halindeki
##acası
parasını
evrak
evlenen
görevlerinden
sağa
##üsyon
seçmek
kendilerince
##ley'in
##kadir
der.
Chem
içindeydi
köp
belirte
açıklık
##tari
Marqu
Marvel
##raftı
biliniyor
Avrupa'dan
gereksiz
Devri
dizilerde
korur
koruyu
Aslen
biter
##alanan
bağlılık
izi
izleri
izleyerek
Stran
geçirirler
ordularını
zorlaştır
eserinden
başarılarından
##lemeleri
karargâh
##antes
kentteki
Halka
bırakılması
duyul
burayı
kesilir
kesildi
kesilmiş
Ellis
Elbe
ünsüz
Galyalı
Beren
sebz
Thal
Kuzeyde
kaybolan
Bey'e
kuvvetlerince
yapımda
gelişmeleri
planına
perakende
Partneri
sarf
Kıyı
konuşmayı
değiştirip
operasyonu
belirtildiği
barok
savunmaktadır
silahsız
kullanıyordu
sonuçla
Katy
Katalan
Katliamı
oğluydu
şirketlerinin
Schmidt
kolunun
Spark
renklendir
klibinin
Monroe
Tanzim
Heavy
mücadelede
denizde
edildiler
parçacı
parçalardan
edilirse
kaybetmesine
kontrollü
bozulur
besteleri
büyümüş
hayvanlarda
ürünün
vuruldu
anlatmaya
ismidir
Paci
Haus
##kıncı
kanalda
170
örgütüne
Andrey
Romanya'da
arkadaşlarından
batıdaki
Emmanuel
kaldırdı
Bayezid
##au'nun
paylaşı
siteleri
edilmez
edilmelidir
koşar
hedefler
hedeflere
saklanır
yöntemini
Melan
190
Scot
puanlar
Alec
politikasını
Şampiyonası'nı
Math
##üğünde
taşınabilir
Üniversitesi'ndeki
Bulgarlar
Teda
Terör
işgalinden
tasavv
Diane
arkadaşıyla
##urucu
Vercing
ıslak
yapmaktan
görülürler
kolaydır
zenginlik
korumuştur
özgürlüğünü
Sevgil
Görüş
Ülker
Milliye
tehlikesi
gücüyle
kışla
çıkartılmıştır
devrimi
Gösteri
düşmanları
Kutup
durdurdu
tasarımını
bileşeni
buldular
##doğusundaki
evreninde
ilgilendir
Asya'daki
Elite
asistini
devrede
rütbeli
Venedikliler
köşeli
hidrat
girişimde
Napole
nişanı
yaşandığı
cemaatin
kesimlerinde
yemekler
##kıran
Muhammet
araştırması
Tabur
Memphis
yasaklanmıştır
ruhunu
damla
Sözleşme
paylaşan
Jackie
garson
çalıştırdı
Eminescu
cisimleri
Norveçli
Norveç'in
Adana'da
##meyince
etkileşimli
basık
basılı
Meyer
Hükümdar
subaylar
önderlik
güreşçiler
yaptırdığı
molekülün
saçları
mektuplar
Fujim
Arjantin'in
nehirdir
##TAK
gayr
dökülür
Capital
Bulutu
tanrıça
Yasak
Limasol
kalkmıştır
rahibe
Planlama
Televizyonu
kertenkele
Hits
Devriminin
tıraş
karşılaştırıldığında
Komutanlığı'na
##imetrik
Duff
Duisburg
Nurettin
Piaget
fosil
750
sosyet
Hilbert
Manstein
nitelendirdi
domates
Ölümü
Makedonya'nın
fırsatını
görünümlü
anlaşılabilir
bulunmuşlardır
Molla
##siyum
Wolfram
satıcı
spekülasyon
Şehit
Yaygın
Abdülme
yurtdışı
taşıması
Namık
arkeolog
tüylü
L'A
Donanma
bileşenleri
Konservatuvarı'nda
kötülük
Mekteb
kırıklığı
devraldı
Fahri
Diplom
Wolff
Viva
tir.
önlemler
kolesteril
tercüm
Giorgio
tablosunda
Emekli
bayrağın
enstrümantal
stüdyosu
stüdyosunda
kombinasyon
Plakçılık
kubbe
köprübaşı
portresi
lezbiyen
DYC
Movie
Armstrong
Knowles
Everybody
burjuv
dalgaboyu
skandal
Werder
##'ydi.
Believe
Breslau
Muğla
rekombinasyon
AIDS
Dernek
Eboué
Rodrigu
mafya
Müsteşarlığı
Üstelik
Churchill
Rupert
Derginin
prefektör
Curtis
Riccardo
Development
Connecticut
Karkamış
Design
bodrum
##ünikasyon
Belarus
Torpedo
Hyundai
Hasdrubal
Madagaskar
Marilyn
Montgomer
[DATE]'ye
09
0.3
1'den
2'de
3'ü
Bef
Bent
Beden
Bish
CC
CH
Cun
Cele
Cadi
Dişi
EL
Eye
Für
Fog
Field
GR
Guz
Gross
Hok
Iz
I'll
Ji
Jur
Jón
Koh
Kısıt
Lt
Lun
Lur
Lazen
M8
Müst
Mountain
Nothing
Push
Pont
Plev
Rene
Sot
Suy
Selen
Tö
TK
Tec
Tüb
Try
Wid
Wii
WIMP
XV
YGS
Yücel
Zara
cap
doru
fes
fit
go
glob
host
hücu
küf
kedisi
maz
piyon
sec
senin
vası
Ölü
çene
##ais
##lilerinin
##y's
##mb
##nay
##pest
##kası
##dine
##d'in
##dinden
##suyu
##sche
##'ına
##hed
##biy
##bok
##geme
##grad
##PS
##ák
##38
##YK
##ird
##encia
##levi
##alma
##alaya
##onları
##lamasından
##orlar
##iköy
##aşırı
##ürük
##itt
##yağı
##ey'in
##eyni
##malara
##teborg
##izz
##ıknatıs
almasıyla
tartı
sonundan
başyap
##ezm
bulaş
##evli
##ción
##lkedisi
gördükleri
##osundan
##osfer
##oseksüel
##ülme
##man'a
##lenip
##lenmesinde
vermesiyle
enj
##ızı
##iyeb
##tane
geçmeyi
biliyordu
yönüne
yaşarken
kalbi
##maspor
günlerini
##iliğinde
katmanı
işlenir
doğuş
##ansa
asidi
zamanından
##sa'nın
ilinden
##lığı'na
Avro
##active
albümler
yüzük
##uyorum
sağlıyordu
##tenburg
çekildiler
altk
Erwin
Erboğa
şeklidir
##gia
##gide
seçilim
atlar
atası
ettiğinden
elçi
kişilerde
haraç
şarkılarıyla
şarkıcılar
adama
adasına
boylu
hemoglob
savaşmıştır
savaşlarında
düzenleyerek
Karam
Karbon
Konvansiyon
müda
Rous
getirt
getirmesi
##rake
##icher
sudan
dizin
alınabilir
senenin
üretimini
tutarak
tutucu
gözüne
gruplardan
##alanmış
metodu
metnin
##çılığı
Need
oyuncuyu
Ordu's
hatlarının
doğruladı
doğrulama
golleriyle
ödüllerine
Kant
şehirlerden
Bilge
kentleri
yarışmasına
saldırmak
değerine
değerlerinin
diri
tahliy
yokluğunda
tablet
##ılmasıdır
programlarının
söyleyip
altındaydı
binasında
Prote
bilgilerini
canav
Belong
yapımcılar
tesisi
sıralarında
gelişmesini
pervan
yazarlık
Barn
Esen
Partizan
krem
konuşur
konuşmasında
konuşmada
Şampiyonasına
bulunurken
##ordo
Müzesi'nin
bütünüyle
bunalım
etmekten
##enstein
Tekin
kilogram
temellerini
Karagöz
sürdürürken
taahh
Derin
Basra
manif
bahş
bahşı
ifadesini
araştırmada
oynadılar
galeri
formunda
formatı
söylemiş
örnekte
turnesinde
Sambor
cinsidir
kütlesinin
iddian
bozkır
geçtiğini
Luigi
imparatora
hayvanat
çarpar
yazılarında
dönüşen
Evil
Suat
kanalının
örgütler
Andor
ileriye
bölgelerinin
Percy
İtalya'dan
tiyatroda
bildiri
konserleri
##ger'in
yıkıma
sorunlara
##.Beş
bilinirler
kızıdır
vatana
liderliğini
İspanya'daki
Bizanslı
Amaç
taşınması
Rosen
uygulamaların
hücrelerinde
hikâyesinde
hikâyede
performansla
matba
Hakas
Kapadok
etrafını
Livin'
yıllardaki
kapattı
Kendine
Boyle
çevrede
internete
kasabasıdır
Göteborg
azalma
azalmasına
rakımlı
sinyalin
bulutsunun
Okulu'na
Okulu'nu
dağıtılır
Geçmiş
Geçmişte
Sezar'a
banyo
politikalarını
Tahmin
borsa
Keisha
süreçleri
Linyit
Yönetmeni
Enstitüsü'nün
devrimin
Satürn
Sunal
formula8
##noop
Toulo
istasyonunda
öyküde
Muay
Antonius
hafifçe
edinen
proteinlerin
aktivitesi
endüst
Aydınlanma
moleküller
uzmanlık
şarj
Tucker
gömülü
Renoir
mayının
festivallerde
Aşkın
yakalanır
Captain
Filistinli
Filistin'e
Doktora
lakabını
yitirmiştir
Makedon
reddetmiştir
##ilinir
Medine
Baltimore
Mihver
Arjantinli
Eşref
Dağıstan
sıkıştırma
Bölümün
Duncan
onursal
yapabilen
reformu
Tıpkı
Groß
Hitch
Raporu
konusuna
Soykırım
oluşturdukları
Hayatının
##lanabilmektedir
kıyafetler
Powers
rahatsızlığı
depolama
koku
hırsızlık
ağızdan
şüphesiz
Lizbon
atışlarına
manastıra
Wolfsburg
Dikkat
Vasili
kesiştiği
##bilimi
özerklik
kimseye
çekicidir
şifr
göçmenler
Yukarıda
Berkeley
talk
Mağusa
toprağın
Değişen
bağlamında
volt
anayasal
iyileştirme
çalgılar
diski
Keşiş
andırır
ringin
solisti
galaksiler
samimi
rektörü
trafiği
Hafif
##ovski'nin
Children
Apollon
Tabloda
frank
Turnuvası
Vahşi
lanet
onarım
bittiğinde
Bodrum
Moment
Grimm
d'Ar
teyz
varsayılan
Riga
nezdinde
Raven
sendikal
Zonguldakspor
sünnet
VHS
helyum
Dietrich
hektarlık
gardiyan
dalgaboy
dublaj
nicelik
pazarı
Değirmen
Duty
zulüm
Eşitlik
sonuncusu
adapte
Tribune
Rıfat
egzotik
Square
doktrin
Şafak
profili
BRIT
Akif
Lombard
Kurlandiya
zorunluluğu
Sternberg
İsolde
Saraybosna
Anabilim
Kleopatra
Academy
randev
ORF
Arşidük
##dansatör
Namibya
Krebs
Geoffrey
Bandırmaspor
Alanzinho
pigment
Kahverengi
Vercingetori
hücuma
Toulouse
1.0
2.4
AFC
BO
Cana
Cafer
Dmit
Duvarı
Feld
GU
Gim
Graf
Güler
Gone
Horn
Jas
Jedi
Kra
Kömür
Lid
Lob
Lane
LDL
Mara
Oak
Polo
Sé
Sli
Sip
Seden
Tv
Tark
Till
Udet
Ward
Yalan
alem
afor
bac
comp
duman
divan
euro
fena
gotik
hece
iphone
lira
lamba
nom
osil
rica
seni
tüzel
tuva
ulu
xiang
yep
zindan
İly
şab
##ılacaktır
##yeri
##mars
##velli
##pc
##dos
##dilik
##down
##seli
##sunuz
##sylvan
##'A
##uit
##hing
##fred
##gum
##göl
##gni
##ğunun
##ène
##MO
##BB
##âk
##âlet
##Sİ
##in'e
##deği
##ona'da
##asso
##lio
##list
##isse
##amer
##emens
##ememesi
##ma'nın
##dustri
##tech
deg
##asık
almasının
almamış
bulamayan
##ca'da
anime
etmesinin
etçil
##manu
oylamada
##ranın
ilke
##ippi
Animasyon
##icon
kenara
çıkıyor
geçin
kullanıp
bilet
adlar
adil
##laşmanın
##igne
yazmayı
##otrop
kalkar
yayından
yayılmaya
##öyük
katına
işlen
##chan
yakıldı
yaklaştı
Arth
asır
olmalı
çalışılan
##sadı
gösterme
alanlarına
prolet
neo
uyk
Orfe
Ordunun
düşme
düşmanın
gereç
çekilerek
altını
yanma
yanlarına
kapının
##üsünden
##üsüdür
##üslim
düzeye
deneyi
denemesi
##ozgiller
harika
serisine
ekler
ekme
etkilerinin
etkisinden
oluşmakta
ortasından
boyları
boykot
köste
gerçekçilik
yapıştır
savaşlarda
Marella
ermiş
Karaç
Kardemir
koord
##bire
getirmektedir
getirirler
Devre
##raksiyon
eşzamanlı
##leştirmek
oluşturmuş
oluşturuyordu
merkezden
azot
senede
Parlak
kortek
farklılıkları
üretmeye
tutmayı
tutulmuştur
tutku
Akar
gözlü
yetmiş
olmakta
dillerin
ilgiyi
izley
sanatın
geçirmesi
ordular
Brest
Kural
Liginde
fazlaca
##elenir
İlkokul
modüle
##face
Almanya'yı
##tonun
yarışmasının
görünüyor
##tore
saldırısını
değerin
değerlere
Shah
ailede
Mania
eğitimin
taşımak
Proto
şampiyonada
şampiyonudur
aitti
sınırlar
kuvvetleriyle
geliştiric
geliştirerek
kuzeydeki
yapımcılık
dikenli
kadındır
göndermiş
hızının
şarkısından
Party
Carne
Dennis
kuşatı
çocukken
##mazlık
belirtiler
barışı
hizmetlerinin
numarayı
Sert
Kater
kitapların
kitaptan
Macera
kitaba
ülkelerini
bahis
bahse
##nica
kralları
Petrog
edilebilecek
yaratmış
kütük
besteledi
Anadolu'daki
ekonominin
uyarlanarak
adamlarını
##lava
anlatılmıştır
kuruluşuna
tipte
amaçları
Maymun
solcu
ilacı
Senat
Ödülü'nün
Guat
Cande
Canlı
Edge
##desinin
ileriki
Otuzuncu
taarruzları
kaldırarak
dereceli
ziyareti
bildirilir
adetlik
teorileri
batısındaki
boşluğu
Meiji
bilinirdi
kısmından
Doo
##onso
Korel
kullanılmaktaydı
deneyimli
teşhis
Grande
Rosa
Madison
mağar
yorumladı
Azerbaycanlı
Mesut
hastalıklara
gezegeni
hesaplanmaktadır
odaları
ürünlerini
gözlemlenebilir
olabildi
hâlen
ısmar
geçmişe
230
Timber
canlıların
ettirmiştir
Antak
##achau
mekanize
istemez
Operanın
bombalı
##fonilür
biriminin
çevredeki
Millionaire
basketbolu
Grig
Yaşamı
Angeles'a
çatışmaları
Blazer
çıkartma
devreli
yüzeyine
azalmıştır
kişilerle
sinyalleri
birleştirmek
derinliği
tasarımları
Action
ırmak
Moğolların
tanıtmak
ağaçların
Aleksan
Seyhan
Sırplar
Sırpların
Tabii
ceviz
vakti
düşürül
Urart
Vedat
Speed
Sabri
istenmeyen
Oyuncuları
absor
seyircinin
Erzinc
##liliğe
sokaklarda
Çalköy
mahkûmlar
edindi
müzisyenler
Ilgaz
içeriğini
yansıtır
sürecini
makineler
Araştırmalar
yetkileri
toplulukları
çıkarıp
pasaportlar
uzmanlar
notu
Kaiser
onayladı
virtü
Kabat
Öncelikle
Kuşada
tepkisi
yakalanarak
hastalığına
kilometrelik
Destan
Filistin'de
deposu
suikas
##lamazlar
Gerçekten
Ünal
Konstantinopolis'te
Vakfı'nın
sözcükler
Bitki
çizgileri
##heimer
Microsoft'un
çiçekleri
yargılama
isteklerine
editörlüğünü
sığındı
incelenmesi
yürüyerek
çağırdı
figürü
Philips
öngören
atadı
duyguları
##lanabilen
anılarını
domuzu
Powell
##teknik
tümenleri
Afganistan'da
okunuşu
Mississ
##entures
Crow
Winter
vahş
mecliste
Yayınları'ndan
Kardeşler
bacakları
nitelikli
##memekte
76ers
plağı
şaşırt
L'O
orkların
fenomen
Nüfusu
Timur'un
Humboldt
Normandiya
rejimine
Sinemat
Woody
Laurence
kalmayıp
patronu
başlangıcından
Auguste
görülebilmektedir
lakabıyla
Grace
Lynn
Pennsylvan
halifesi
Gymnasi
Korkmaz
Meydanı'nda
##.Fakat
Anayasası
Arkans
Felix
Ralph
Electr
Üretim
Ethernet
muhtemeldir
boksör
Giresun
GSYİ
Computer
patenciler
janrında
anarşist
Mainz
litrelik
Kruşçev
favor
Sekreterliği
Tapınak
Şems
Stevens
##colm
medrese
Pazartesi
Clint
veliaht
César
Şanghay
temsilen
NHL'de
CNN
Camille
Ekspres
Lazio
motosiklet
Sosyoloji
gangster
Jakob
Fuarı'nda
nükleotit
Tennessee
pinyin
bebeğin
fazlasını
averaj
Soccer
yepyeni
koordine
[YEAR]'nın
By
Bä
Bik
Bach
Bott
Beleg
Denk
Fav
Frek
Fitz
Fildişi
Ges
Gast
Lj
Led
Lod
Mk
Mül
Myan
Mant
Masa
Ng
Nod
Nog
Od
Owen
PO
Pros
Pokal
Pagan
Rid
Rıf
Restor
Saz
Sara
Tans
T.C.
Ubey
VM
Vä
Vatik
Wy
WTA
Water
Yılı
alim
alaşım
basında
bunda
bilmek
cehennem
dudak
fat
hp
huy
klon
oto
pe
spr
tri
vagon
yiy
zo
zeb
zede
zayi
çirkin
ötücü
İlimler
ılımlı
Şif
Şika
##şire
##ığı
##linde
##lilere
##lân
##lüydü
##yos
##y'de
##yatür
##i'yi
##nur
##part
##phan
##dra
##siri
##'unu
##'ünde
##cespor
##hil
##hus
##horn
##üg
##.Ö
##fort
##faspor
##bag
##gart
##11
##96
##35
##22
##arbon
##enc
##ilet
##ilov
##ilasyon
##ilemez
##aku
##dala
veter
veka
##aldi
##ler'ın
##ashi
##askop
##law
##esis
birisinin
##lanmakta
##ating
##ur'un
##ethe
##lı'nın
##ull
##ulf
##ulin
##ikül
##eyip
##male
içsel
##abit
##ok'un
yapmadan
bularak
##ıspor
aren
arasını
arıt
##ading
##addin
kard
anladı
##opati
##ruh
Bug
##işini
entr
##ible
##ipliği
Any
Anavatan
##edya
inis
tarihyazımı
gelmekte
gelmişlerdir
one
genleri
açmak
açısına
katliamı
işlemek
##iyetle
##iyetleri
göstergesi
varlıkları
ilân
birliklerince
uyarak
oynayacak
Franny
evresi
altüst
kazancı
##guard
Erdal
durgun
##sanız
##leyle
atv
atmak
harca
müzisyeni
##azıt
dere
derneği
eklenmesi
amacını
##uben
Ente
Endeksi
yolların
Onları
belirsizlik
yapılacaktır
farkları
##luspor
savaşmış
##yılı
Maraş
Konev
eğlendir
üstte
üstesinden
üstündeki
sözleriyle
Round
##ckow
bölümlere
değişme
durumunun
eşiyle
eşinden
dizisine
İngilizcesi
turuna
bazılarıdır
Asyalı
León
sinüs
##edif
sayımı
yakınlaş
uzunluğuna
Neden
çalışmalarla
izlerini
oyuncularının
çocuğa
ordudan
Brah
Brok
Bridge
kızlık
Kursk
Burdur
golf
terap
sistemle
hayati
kaynağın
108
başarmıştı
Bilecik
hazırlıkları
Halton
bırakırlar
ilim
duyu
Altında
##ğince
##oux
arttığı
keserek
Komnen
tabanı
sıklığı
öldürmüştür
öldürmüş
taşıyor
babaları
sınırlarının
##ebiliriz
Belki
Atlası
planının
planladığı
konuların
parçasında
krat
Holstein
konuşurlar
kaynaklanmaktadır
sunulur
otu
Prop
##mamasını
##mamakta
seçimlerin
imzasını
##dyatör
çizilmiş
Çin'deki
kardeşin
kardeşlerin
yasağı
yassı
sınıfları
etmektir
Bender
sonuçlanır
Arapların
Katliam
koyma
Dani
eleştirdi
100'e
113
televizyonu
Spot
Ortaç
başlarken
Malavi
Malaga
Malcolm
Montan
isteğini
Tanr
kalesine
dayanık
dayanışma
turnesine
denizcilik
edilse
özelliklerinin
Davud
paraları
Stef
135
Sarık
sanatçıya
bozun
bozdu
öğrencilerine
##rabah
dağları
öncül
geçtiğinde
İsrailoğulları
Galata
modeline
ilanından
projesini
sporları
ortaklık
Evrenin
ülkedir
ayakları
idarî
toplumunun
inanırlar
geleceğin
arkadaşını
ismindeki
Doğr
edilme
teorisini
dairesi
saklandı
yıkılmıştır
Coşk
sorunlarla
versiyonunun
Hammer
çıkışında
liderlerinden
Morgoth
##reddin
birleşen
familyasına
firar
yağma
döndüler
Rossini
görüntüleme
Demirtaş
başrolleri
Polat
Colin
##othy
ürünlerin
Joach
Tao
beslenen
Köse
Kadınların
Eğlen
korumaktadır
değerlendirilmektedir
İslam'ın
Forbes
##stad
yaşadılar
Ülkedeki
ballad
tabloya
Enstitü
Mirası
##.Ar
yeterlidir
Rommel
simgeler
yaptıklarını
Founda
Celtic
iletişimi
konsül
hastalarında
etkilenmiş
ağaçları
Maçın
Başkanlığı'na
Sonraları
Cald
City'nin
Durum
Louis'nin
yirminci
ilçelerinden
Bolton
olmayacağını
Danimarka'nın
mezarlık
##mızda
verilmesine
öyküler
kilisede
evlendiler
pozisyonda
bitkisel
aktivite
emirleri
görürüz
organizasyonun
toplantıya
parkın
İli'inde
Virgin
kabileler
pasaportları
paketleri
rakiplerine
senaryoya
arttırmak
problemler
eleştirmenlerinden
cephede
Huang
alışılmadık
aşkını
skoru
olanakları
stadyumunda
Brawn
larvalar
mitokond
Nacional
uçuşu
ırkçılık
büro
mimarlar
aşıktır
sözcükleri
uydusu
##ández
Yasemin
infil
dizideki
düzenlemeleri
arabayı
Heinrich'in
Emirliği
Emirlikleri
servisleri
Karakalp
Rapor
tüketimi
cihazları
unutul
Hilmi
İzlanda'nın
Let's
arzusu
müttefiki
taşımacılığı
Damon
bedeni
Nathan
danışmanlığı
afin
büyümesi
güldürü
avukatlık
Hamburg'da
Necati
kesici
Rance
Brezilya'da
Geminin
bakteriyel
Şenol
Tipik
sakinleri
Shawn
sıralanmıştır
huzuruna
huzursuzluk
Engizisyon
Lenin'in
Nemor
aranjör
madalyayı
padişahı
mülkiyet
kimyager
voltaj
biçimidir
Scarlett
Walker'ın
hakimiyetine
Usher
Sumatra
Umum
elementler
elementlerin
nesneler
Bakanlığına
proteini
Titüs
vadeden
kazılarda
sıkıntılar
Zorlu
Legend
##optera
muhabiri
Fiat'ın
Champions
Kuşatma
Kariyerinin
Amanda
Lamar
MPEG
söndür
APO
seçenekleri
##EST
postane
Mezarlığı'na
Mançur
Manço'nun
Empire
Yeltsin'in
pusula
Eczacılık
Tonight
bayrağını
seçmenlerin
Rokoss
kiralanmıştır
giydirildi
husus
spektrum
Higgins
dehşet
düşünülebilir
##cape
yürümeye
Dervişan
Hücre
##odontal
Mirasları
otobiyografik
nötrino
Muzaffer
##hnaya
Cennet
Külkedisi
Yarkent
ruhani
çeyreğinde
Sargeras
kararnamesi
Blondie
Rakibine
Sneevli
modifiye
Inc.
minibüs
Berezhnaya
görmezden
Almatı
kataloğuna
iklime
##anlamlı
##komutanı
vicdan
hidrofobik
benimsedi
mühür
esrarengiz
Olcaytu
Neredeyse
kılavuz
##bourne
Quintus
kortizol
Kılıçdaroğlu
Leporello
Somaliland
gübre
Interscope
Tresckow
kilometrek
González
bkz.
Tanzimat
Plakçılık'tan
Sambora'nın
endüstrisine
Candelar
Kabataş
GSYİH
vekalet
2'ye
2.2
Adele
Bunda
Büt
Brav
Cün
Dup
Draftı
Dachau
Ecev
Fuk
Fish
Flap
Fidel
Gut
Hern
HIV
Liyakat
Mia
Melis
Nets
Nûr
Our
Pun
Ponte
Raj
Scu
Taz
Voda
Wo
Worm
Wies
Yeme
Yuri
Zırh
atab
binden
bayağı
eman
fl
für
felç
feo
kehan
lokal
moza
nasyonal
pomp
pupa
rup
siyan
soul
uf
varken
you
yukar
Çılgın
Öğ
çan
Şil
şunu
##şembe
##lir
##mil
##iğine
##nas
##nâme
##kir
##oart
##ders
##drich
##zel
##som
##ses'in
##'dur
##çen
##xon
##bad
##bell
##gön
##gunun
##ğiz
##éd
##âyet
##27
##23
##EF
##aria
##erd
##ertu
##akis
##deutsch
##dac
##lemişlerdir
##lacağına
##lica
bira
##ay'a
##oral
##orph
##ulma
##ikorps
##aşist
##apa
##dena
dediği
delikler
##taur
göst
##tiçi
##ceğim
##ışa
##ezy
##eze
bucak
##avt
ararken
arpa
##cide
##civert
daimi
##adiye
##ağındaki
##uto
etmemiştir
##oplazma
verince
vermesine
vereceği
önderi
##cıdır
##isi'nde
ilkeleri
orbital
Türkiy
indük
çıkmaz
##ebi
##ebiliyordu
konf
konul
kondansatör
geçecektir
##arımı
biliyor
##kens
çokça
taktiği
yönünü
kalmaz
##idik
yıllığına
genlerin
toplamış
çalkan
katili
katılmasıyla
karşılaşılan
arasındaydı
##lamy
devretti
Ard
asi
asim
##si'nin
olmasında
##rique
gösterge
ilint
alandır
alanlarını
İskele
takımdır
##acki
##uve
##nıç
parasız
evet
evlerde
Ormanı
olduğudur
yönetilmiştir
çekilmesini
kazanamadı
dönemler
##ozun
atas
atfen
saniy
müzeye
öğeleri
kurulmuştu
amacının
kombine
istemişti
nedenlerinden
Gener
Genoa
yolladı
##agat
##agetti
belirlediği
açıklığı
##lukları
ermesiyle
Konev'in
örtü
oksit
##egori
dışavurum
dizaynı
##ia'yı
tamamiyle
##ogun
İngilizlere
bitiminde
Santana
öğrenmiştir
çıkartılan
yetkin
dilsel
##na'nın
yakınlığı
##ina'nin
geçirilmiş
geçirmeyi
çocuğunu
kıza
Kuru
##ion'un
hattan
teras
gitmesine
##antlar
Sovyeti
şehirlerine
hazırlanması
Hariciye
Harezm
yarışlarında
uygulanmıştır
Halo
Halit
Özlem
düşündür
bıraktıktan
görünmez
görünüşü
burn
##ouli
saldırarak
yok.
Elton
İmparatorun
kurularak
eğitimden
karaktere
söylenmiştir
Herod
Three
Think
hareketlerinin
değillerdir
ortaokul
##ofiz
desteklediği
planın
planlandı
ulaşmıştı
Essen
parçalı
Partisine
kırıldı
ilişkilerinin
konuşmak
Priz
Şarkıcı
çevreye
Ekmek
Adapazarı
değiştirilerek
##alth
Deep
tanıtan
operalar
anlaşmıştır
anlaşıldığı
Muss
gerçekleştirilmiş
komutanlık
Tarhan
savunmasının
mesela
numarasına
sonuçların
Arapçası
Sedan
suçlanan
başkanının
başkanlığa
saatler
Danzig
sürdürülebilir
adayları
##skoy
partneri
Kalk
ilçede
ilçesinden
beklediği
Monac
##laştırılmış
krallığın
galibi
##lüğüyle
dergiyi
ölçülen
dayanak
denizin
edilince
edilebilmektedir
Anadol
Merkezi'nin
York'un
çözücü
hayvanın
kuruluşların
##itanya
Haupt
havan
yatağı
inanmaktadır
inanılmaktadır
semti
Batu
Canon
##ffe
avlu
oynamayı
özgül
zararı
foton
saklandığı
yapıldığında
seslendirildi
Micha
İspanyollar
Doç
işlemine
kullanılmasının
Yapının
kelimesini
birleşip
konumları
doğudaki
firmaları
Alej
Stars
Rosal
Efe
Harekatı
direktörlüğü
kuşatması
hikâyeyi
Walsh
performansları
Joel
gözlemlen
Havre
rastlanmıştır
kafasına
fiziki
##pole
Garc
Robertson
Şubesi
ormanda
nereden
Tayfur
hipog
sahneden
ettirme
ulaştılar
##esset
efend
gittiğinde
Marko
böceği
##lâk
Krallığı'na
yakaladığı
üslub
##.A.
çıkartılır
Göt
kişilerdir
kökten
Çekim
İstasyon
etmediği
başarısızlıkla
yarışmalarda
harflerinden
küre
konseri
Pasqu
Paskal
Küba'da
Cumhurbaşkan
Festivali'nin
Keeg
araziye
komünistlerin
teknolojisinin
egemenliğinde
Urb
Taşkent
Suns
heykelin
Kilisenin
verilmez
kullanıldığını
mahkûmların
Dışarı
etkileşimi
hoşgör
Freikorps
altyapısına
Elliott
yaptırılmıştır
Liu
öyküyü
virüsü
Firuz
Önceden
çalınmaya
Jeremy
köleler
hazırlıklara
kahramanlık
İdris
sınıflandırılır
##borough
dönüştürülmüştür
lejyonun
Süryan
Tepesi
optim
oblast
istihkam
zırhı
yapabilmek
kapandı
kapanış
şube
limanına
kervan
ışınları
aptal
düşüncesini
düşüncesiyle
irtif
tüketilen
köpekbalığı
Interactive
Hondur
kısaltılmış
Topluluk
faktörü
Alpha
sporcular
çocuğundan
harekâtın
kısıtlama
Kurumu'nun
dolaşan
Cinema
PSG
ACTH
sınavını
Okulun
Hollywood'un
Ailesinin
Kongresi'nde
siper
skorer
gövdesi
DSL
Bolşevikler
Bolşeviklerin
asilzade
talih
Roll
kompozit
SSCB'nin
Balıkesirspor
GPL
Gönüllü
Hisar
Nüfusun
Indian
yağışlı
müzedir
##oterap
Susan
bozuklukları
uyumludur
Lindberg
Olympique
##siteles
kırıklığına
Gabriele
İlhanlı
Tahran'da
bulgular
gerektiğinde
kamuoyunda
öldürdüğünü
Facebook
taciz
pusuya
gökbilimci
metabolik
kombinasyonu
Tuğgeneral
TÜBİ
Dulkadir
Afyonkarahisar
garnizonu
Sutra
birincilikle
işbirlik
çalıştıkları
Wenck
gerginlik
Patriği
Mumba
Edinburgh
Mauricius
Çarşamba
Crisp
alakalı
baterist
Kırıkkalespor
Işın
Racing
Praksiteles
biseksüel
Delphi
Antoine
Barajı
##ruppenführer
Barselona
gırtlak
Edirnespor
bıçağı
Vélez
Emenike
##'dı.
##köprü
Alessandro
kohort
CEO'su
dürbün
Alabama
Güver
UUCP
Erçetin
M.Ö.
Scorpion
güfte
Broadcasting
Niyazi
Slumdog
Târgu
Cadiz
Kısıtlamaları
Urartu
Mississippi
Rıfkı
inisiyat
Joachim
feodal
TÜBİTAK
[DATE]'teki
Aw
A1
Atı
A'da
Aht
BC
Bant
Boun
CI
Cong
Cau
CVD
Dori
Fing
Folk
GF
Gin
Gır
Glin
Gwen
Hurt
Hick
Hafız
Haft
Joli
Jill
Kw
Kın
Krieg
Mond
MHz
Peş
Pog
Sön
Sül
Sunda
Salt
Stand
Tik
Utre
UBP
Veh
Viyan
Valle
Vücu
Word
Yev
Yed
Zan
alar
alacağını
agresif
bine
biber
cebir
dinin
diler
gü
gaga
gasp
gondol
haş
hist
hib
hic
les
lab
mt
od
oru
olam
pis
sine
sov
tüz
yoğ
yastık
Öde
çırak
ötesi
İyon
şaka
##rir
##rolu
##ıcılar
##lülüğ
##yoz
##mayınca
##vit
##viç
##nde
##pon
##distan
##sün
##'luk
##hov
##.Z
##beli
##gır
##got
##genin
##gerald
##îy
##AV
##LS
##US
##anor
##erta
##irse
##ilemedi
##akâr
##dası
##lerarası
##onda
##aser
birebir
##ayama
##langel
##urn
##isas
##iseri
##ishi
##ARM
##elleri
##dığından
##imize
##apot
##ita'nın
##azade
##eyar
death
##taine
##rade
##stream
##sturm
alkolik
taran
tarıma
##ışın
bulabilir
##maksızın
karam
görmedi
##mani
##manlar
##manlığı
##opi
##opf
##ruğu
##ayacaktır
buluştur
##roy
##rod
verem
enjek
##ibot
##örlük
inanılan
##ebo
##eblo
##ebiliyor
süresinin
konur
Bird
geçince
kullanırken
gelmedi
##mişler
bölme
yazık
##ot'un
##ivot
yarma
kalınca
yaylı
yayında
çaldığı
##elerindeki
büyükusta
katılmaktadır
işlerinin
işyer
yakını
yakındaki
asgari
##leşmenin
##rien
gösterdikleri
varır
illerde
iltica
##düler
ikon
ikisinde
Avukat
neok
çekilip
tanır
dönemli
Erdoğ
##rall
denilmektedir
##leyin
atmayı
milimetre
santim
türe
türbe
adalar
yollarının
yolundaki
yapılıyordu
yapılabilmektedir
taşkın
Konusu
gerekçesi
getirip
getirmeyi
getirilerek
Rusların
##entin
aşarak
tamamında
tamamlay
##olojiye
Parma
Parmak
üretmektedir
tutmuştur
tutmuş
bazılarında
gözüyle
gruplarla
meteor
Sana
Leung
Leeds
yetin
dildir
##ina'yı
States
güçlere
harekatı
harekâta
Kurş
Burk
Buraya
hatırı
terimini
Kanat
Milwa
İlkbahar
##ücük
gittiler
gittikleri
gitgide
sistemlerini
sistemlerine
##faiye
103
sevinci
##ant'ın
şehirlerini
uygulandı
burası
değerinde
tahtı
kılar
Fransa'dan
Galen
[...]
